<unk>
<s>
</s>
<pad>
<0x00>
<0x01>
<0x02>
<0x03>
<0x04>
<0x05>
<0x06>
<0x07>
<0x08>
<0x09>
<0x0A>
<0x0B>
<0x0C>
<0x0D>
<0x0E>
<0x0F>
<0x10>
<0x11>
<0x12>
<0x13>
<0x14>
<0x15>
<0x16>
<0x17>
<0x18>
<0x19>
<0x1A>
<0x1B>
<0x1C>
<0x1D>
<0x1E>
<0x1F>
<0x20>
<0x21>
<0x22>
<0x23>
<0x24>
<0x25>
<0x26>
<0x27>
<0x28>
<0x29>
<0x2A>
<0x2B>
<0x2C>
<0x2D>
<0x2E>
<0x2F>
<0x30>
<0x31>
<0x32>
<0x33>
<0x34>
<0x35>
<0x36>
<0x37>
<0x38>
<0x39>
<0x3A>
<0x3B>
<0x3C>
<0x3D>
<0x3E>
<0x3F>
<0x40>
<0x41>
<0x42>
<0x43>
<0x44>
<0x45>
<0x46>
<0x47>
<0x48>
<0x49>
<0x4A>
<0x4B>
<0x4C>
<0x4D>
<0x4E>
<0x4F>
<0x50>
<0x51>
<0x52>
<0x53>
<0x54>
<0x55>
<0x56>
<0x57>
<0x58>
<0x59>
<0x5A>
<0x5B>
<0x5C>
<0x5D>
<0x5E>
<0x5F>
<0x60>
<0x61>
<0x62>
<0x63>
<0x64>
<0x65>
<0x66>
<0x67>
<0x68>
<0x69>
<0x6A>
<0x6B>
<0x6C>
<0x6D>
<0x6E>
<0x6F>
<0x70>
<0x71>
<0x72>
<0x73>
<0x74>
<0x75>
<0x76>
<0x77>
<0x78>
<0x79>
<0x7A>
<0x7B>
<0x7C>
<0x7D>
<0x7E>
<0x7F>
<0x80>
<0x81>
<0x82>
<0x83>
<0x84>
<0x85>
<0x86>
<0x87>
<0x88>
<0x89>
<0x8A>
<0x8B>
<0x8C>
<0x8D>
<0x8E>
<0x8F>
<0x90>
<0x91>
<0x92>
<0x93>
<0x94>
<0x95>
<0x96>
<0x97>
<0x98>
<0x99>
<0x9A>
<0x9B>
<0x9C>
<0x9D>
<0x9E>
<0x9F>
<0xA0>
<0xA1>
<0xA2>
<0xA3>
<0xA4>
<0xA5>
<0xA6>
<0xA7>
<0xA8>
<0xA9>
<0xAA>
<0xAB>
<0xAC>
<0xAD>
<0xAE>
<0xAF>
<0xB0>
<0xB1>
<0xB2>
<0xB3>
<0xB4>
<0xB5>
<0xB6>
<0xB7>
<0xB8>
<0xB9>
<0xBA>
<0xBB>
<0xBC>
<0xBD>
<0xBE>
<0xBF>
<0xC0>
<0xC1>
<0xC2>
<0xC3>
<0xC4>
<0xC5>
<0xC6>
<0xC7>
<0xC8>
<0xC9>
<0xCA>
<0xCB>
<0xCC>
<0xCD>
<0xCE>
<0xCF>
<0xD0>
<0xD1>
<0xD2>
<0xD3>
<0xD4>
<0xD5>
<0xD6>
<0xD7>
<0xD8>
<0xD9>
<0xDA>
<0xDB>
<0xDC>
<0xDD>
<0xDE>
<0xDF>
<0xE0>
<0xE1>
<0xE2>
<0xE3>
<0xE4>
<0xE5>
<0xE6>
<0xE7>
<0xE8>
<0xE9>
<0xEA>
<0xEB>
<0xEC>
<0xED>
<0xEE>
<0xEF>
<0xF0>
<0xF1>
<0xF2>
<0xF3>
<0xF4>
<0xF5>
<0xF6>
<0xF7>
<0xF8>
<0xF9>
<0xFA>
<0xFB>
<0xFC>
<0xFD>
<0xFE>
<0xFF>
酒店
分钟
服务
客房
设施
公里
提供
一个
免费
可以
儿童
打车
车程
车程约
时间
电视
没有
工作
入住
中国
▁第
自己
政策
我们
选择
距离
有的
加床
步行
位于
的服务
使用
主要
不同
配有
如果
▁浴
就是
公司
管理
卫生
研究
宠物
发展
不会
大学
公寓
客人
进行
的儿童
一定
希望
这个
也是
其中
到了
因为
经济
标准
淋浴
更加
学生
作为
客户
比较
每个
非常
入住时
在入住时
an
收入
什么
市场
技术
惬意
问题
交通
所有
教育
可能
部分
酒店的
一直
空调
生活
这些
情况
企业
要求
能让
他们
in
国家
▁(
on
取消
已经
网络
时候
提供一
通过
设计
er
ar
▁-
频道
愉快
但是
很多
以下
需要
的人
第一
感觉
带宠物
▁[
都配有
每个客房
每个客房都配有
让您
希望能让
en
所以
愉快惬意
在入住时更加
希望能让客户
在入住时更加愉快惬意
希望能让客户在入住时更加愉快惬意
得到
享受
的客房
这样
一份
还是
自然
▁电
不是
房间
预订
安全
治疗
卫生间
万元
系统
联网
的一
社会
..
孩子
住宿
风机
暖气
互联网
儿床
吹风机
携带宠物
政府
▁浴室
星级
是家
),
之一
星级酒店
学校
影响
目标
到的
中心
或打车
对于
位置
世界
这里
城市
方面
人民
疫情
现在
专业
面积
项目
不能
人的
为您
自己的
岁以下
书桌
顾客
▁卫生间
归的
根据
使用现
开始
岁以下的儿童
至如
美国
宾至如
宾至如归的
都是
婴儿床
大家
信息
方便
酒店位于
提供免费
酒店还
▁道
旅途
。”
同时
广大
一些
出现
类型
会有
建设
保险
中的
目前
的是
产品
卫星
好的
工程
一般
以及
大的
成为
▁酒店
一切
付费
有线
或者
失望
文化
)

医院
住宿的
获得
▁暖气
”,
来的
该村
组织
床铺
产业
内容
在使用现
床铺时
有的床铺时
在使用现有的床铺时
方法
学习
额外
投资
不可
游客
是一
游戏
其他
▁不
舒适
的时候
学院
价格
之前
退房
用品
之后
重要
卫星频道
▁最
有多
人间
厨房
患者
广大顾客
车服务
活动
es
而言
知道
时代
冰箱
基本
提到的
能力
所有的
:“
也很
al
地板
餐厅
游客提到的
那么
移动
▁C
▁淋浴
▁在
人员
因此
数据
也能
▁S
第二
年龄
收费
了一
这种
科学
压力
费用
预付
北京
能够
不同的
汽车
岁以下的儿童在使用现有的床铺时
还有
道路
at
满意
or
接受
表示
错过
出版
而且
国际
拥有
环境
设备
发现
▁吹风机
▁再
方式
简单
▁A
允许
详情
欢迎
热情
以此
主任
容纳
全村
旅馆
到位
▁《
上的
生产
受到
上述
农村
基础
提出
计算
虽然
力于
el
▁儿童
退房时间
参加
入住时间
、《
注意
免费政策
会提供一
多容纳
项住宿的
酒店还会提供一
项住宿的免费政策
酒店还会提供一项住宿的免费政策
相关
首要
机场
提供了
布置
为目标
的酒店
温暖
讲究
舒适度
▁平
大部分
发生
增加
”。
的酒店之一
一定不会
为了
任何
设施都
首要标准
让您失望
所有的客房
舒适度作为
设施都以此
所有的客房首要标准
一切设施都以此
一定不会让您失望
一切设施都以此为目标
科技
家庭
这一
不断
致力于
较好
更多
委员
▁游客提到的
有多种
教学
全国
而言之
负责
支付
作者
成人
房型
个人
洗浴
保险箱
服务员
分析
▁免费
广场
洗浴用品
有多种选择
酒店的房型
酒店的房型有多种选择
讲究的
在酒店
简而言之
▁免费洗浴用品
健康
满意的服务
效果
布置都
也很热情
与设施
布置都到位
房间布置都到位
服务员也很热情
客人在
宾至如归的感觉
功能
客人也能
与设施会有
享受的服务
在酒店得到
讲究的客人也能
享受的服务与设施会有
在酒店得到满意的服务
▁再讲究的客人也能
尊贵
起来
控制
其实
条款
▁一
部门
结构
各种
等设施
认为
度假
传统
语言
作用
参阅
wi
一直致力于
取消预付
取消预付政策
预订取消预付政策
种植
和加床
应该
设施与
由于
提供一流
一直致力于为
▁平面
尊贵的服务
提供一流设施与
一直致力于为广大顾客
提供一流设施与尊贵的服务
会议
位置较好
花园
洗衣
套房
美丽
作品
%,
酒店位置较好
▁平面电视
怎么
人口
来说
fi
之中
咖啡
如何
不过
单位
他的
▁电视
阳台
以上
历史
特别
销售
。,
计划
运动
)。
年的
道德
农户
▁退房时间
存在
毫无
游泳
》、《
▁最多容纳
过程
▁电话
▁舒适度作为
有关
农业
专家
不要
行业
ent
进入
一样
艺术
我的
在这里
应用
品牌
比赛
表现
包括
朋友
▁熨
》,
点的
皮肤
高级
旅游
自动
迷你
人均
▁书桌
你的
▁空调
喜欢
遵义
淋浴设施
消费
具有
如果您
提高
特殊
关系
衣柜
疾病
——
▁每个客房都配有
毕业
知识
完成
这是
衣橱
都会
资源
客厅
原因
不好
如下
豪华
▁第二
一起
▁P
▁衣柜
迷你吧
开发
请参阅
选择上述
▁冰箱
的停
直接
介绍
的最
%。
基金
饮食
甚至
残疾
来到
▁衣柜衣橱
热门
处理
▁厨房
有线电视
适合
实现
动力
没有网络
有效
移动互联网
行政
较快
▁宠物
▁入住时间
别墅
▁预订取消预付政策
国内
了解
的停车服务
▁儿童和加床
提供免费的停车服务
为您提供免费的停车服务
优点
医疗
酒店为您提供免费的停车服务
有所
教师
导致
wifi
▁浴缸
想到了
畅游
只有
采用
银行
电话
老师
▁M
整体
机构
ic
代表
责任
网速
为主
玩家
毫无压力
酒店提供免费
上海
移动互联网时代
st
房间网速
大部分房间网速
大部分房间网速较快
怎可
畅游互联网
客厅角
畅游互联网毫无压力
都为您
怎可没有网络
移动互联网时代怎可没有网络
▁D
都为您想到了
综合
ro
第三
合作
无论
规定
张加床
▁从
地方
女性
▁H
是每
理想
允许携带宠物
咨询
唤醒
成功
和预
▁B
有限
th
▁客厅角
地区
残疾人
容易
贴心
不同类型
办公
这样的
附带
一次
两个
农民
▁该村
不仅
质量
平台
)、
不需
空间
资料
关于
属于
收费是每
小说
看到
重点
觉得
取消预订
不同类型的客房
附带不同的
附带不同的取消预订
不同类型的客房附带不同的取消预订
先付费
先付费政策
和预先付费政策
日期
超过
支持
一种
实施
风景
指导
您将
职业
▁“
不可错过
不需付费
是您
▁我
电影
最后
检查
操作
关注
商务
it
规划
卫星频道有线电视
很好
双人间
身体
您所
▁L
帮助
保护
技能
之间
精神
只是
无烟
必须
博物
发布
行为
ion
的情况
车型
",
透露
建筑
博物馆
行的
。"
出了
旅途中
较大
双床
领导
参考
形成
感受到
书记
art
开展
一步
人每
▁选择上述
总收入
无烟客房
温馨
按照
造成
比较方便
以各
英雄
主要景
实验
的话
亿元
缺点
瞬间
点的距离
交通比较方便
以各主要景
点的距离如下
以各主要景点的距离如下
达到
▁第一
优秀
资金
耕地
增长
的大
继续
保持
记者
人们
音乐
斯特
遗传
清新
et
用的
色的
▁三
理论
ou
处处
全球
是因为
卧室
党员
ing
也不
▁有线
中学
▁有线频道
酒店所有的客房首要标准
▁移动互联网时代怎可没有网络
显示
是否
水平
简介
媒体
收费是每人每
忘记
并且
浴缸
产生
实际
完全
解决
ol
ment
症状
的要求
洗衣间
一下
决定
提升
结果
除了
搭配
今天
期间
▁T
的温暖
故事
客房时
客房条款
请参阅客房条款
新的
ed
快乐
状态
明显
模式
条件
未来
▁卫星频道
的事
双人
随着
▁二
酒店享受的服务与设施会有
用心
出生
材料
严重
委会
is
教堂
吸引
▁第三
不少
品质
集团
休闲
病毒
,“
茶咖啡
确认
ac
分别
教授
独立
平方
新冠
委员会
时之前
as
om
无法
正常
制度
真的
交易
最近
网友
调整
快速
价值
您的
结合
利用
人民政府
现代
性的
il
却又
小组
微波
赛季
也有
系列
▁R
▁唤醒
▁唤醒服务
▁游客提到的优点
然后
▁这
播放
风扇
出来
离子
经营
思想
村民
额外的
后的
选定
就会
积极
建立
今年
当时
不错
需求
住房
优质
▁I
公园
实在
图书
是一个
微波炉
细节
土地
生命
ot
检测
有限公司
业务
水壶
用餐
引起
参与
▁【
变化
▁不允许携带宠物
十分
及时
选定的客房
您所选定的客房
part
液晶
来看
人都
左右
烧水壶
and
许多
▁电烧水壶
▁有
Fi
当然
小学
比如
中央
美元
是在
建议
才能
总数
透露着
事业
熟悉
清新自然
酒店客房
年底
简单温馨
正在
全面
处处透露着
酒店的用心
却又处处透露着
却又处处透露着酒店的用心
清新自然却又处处透露着酒店的用心
酒店客房简单温馨
社区
所有年龄
露台
心理
疲倦
早餐
出版社
有所不同
方向
加强
....
Wi
电子
从事
相对
准备
较大的儿童
或者成人
公开
只要
较大的儿童或者成人
小时
如此
双床间
用餐区
游泳池
风险
法律
局长
旅途的
--
日本
工业
▁小
优势
瞬间忘记
旅途的疲倦
让您瞬间忘记
让您瞬间忘记旅途的疲倦
心情
酒店一直致力于为广大顾客
不得
努力
机会
的小
of
附加
办公室
组成
这么
而有所不同
WiFi
政策根据
▁选择上述客房时
创新
新闻
用户
任务
普遍
沙发
措施
有些
每天
▁,
并不
理念
保障
具体
等离子
丰富
凭借
加入
感染
领域
re
进一步
手术
范围
持续
事故
另行
有特殊
东西
液晶电视
的选择
阶段
十一
做好
等离子电视
提出的
球队
总价
坚持
带来的
机场等
十二
接车服务
提供机场等
提供机场等接车服务
酒店还提供机场等接车服务
普通
有特殊要求
液晶电视等离子电视
比较好
尤其
如果您有特殊要求
方案
球员
伤害
家长
▁G
为什么
最终
经验
年轻
以来
资产
宣传
论文
培训
成立
...
经过
真正
调查
宽敞
▁大
学会
收获
改变
共用
恢复
下降
附加费用
计算在
▁迷你吧
闹钟
不会自动
您需
编辑
总价中
在入住时另行
计算在总价中
附加费用不会自动
附加费用不会自动计算在总价中
在入住时另行支付
您需在入住时另行支付
的城市
手机
我们的
直播
如今
困难
运输
稳定
让人
合同
▁酒店交通比较方便
金融
▁所
▁本
合适
都有
监督
风格
陌生
体育
成绩
床婴儿床
张额外的
张额外的床婴儿床
人数
发表
一点
禁烟
商业
生物
美食
▁收
报告
:"
▁游客提到的缺点
来源
州市
长期
课程
来越
带来
高的
▁沙发
制作
因素
细胞
减少
海滩
整个
务工
相信
也将
越来越
"。
人文
以后
自行
避免
均需
出的
经常
之处
传统的
衣设备
ch
公路
协会
消息
幸福
浴室
平均
am
地产
加床或
均需获得
任何加床或
婴儿床的要求
提出的任何加床或
婴儿床的要求均需获得
宽敞的客房
酒店的确认
婴儿床的要求均需获得酒店的确认
居住
南省
过去
利亚
联系
酒店宽敞的客房
受到了
好评
博士
文学
非常好
大理
的下
一定要
▁木
下的
执行
关键
酒店都为您想到了
政治
感动
体会
报道
可在
面对
生的
酒吧
那些
想要
程度
另外
考虑
区域
可能会
我国
▁亚
只能
木地板
瓷砖
山东
▁熨衣设备
多的
成了
美丽的
上市
肺炎
规模
音机
通知
体系
全部
间客房
乐部
俱乐部
不够
统计
视频
父母
深深
le
动机
等奖
欢迎所有年龄
欢迎所有年龄的儿童
保证
申请
传真
同样
▁收音机
她的
id
、“
先进
也会
开学
驾驶
罗马
用具
考试
大理石
不到
正式
青年
受欢迎
确定
车辆
年龄较大的儿童或者成人
镶木地板
病例
个月
复印
partment
▁木质
有一
▁.
直线
仅接受
特色
的问题
医学
时期
▁客房
联合
培养
禁烟房
经历
最大
▁木质镶木地板
▁s
私人
▁"
▁所有
的主要
一丝
▁浴巾
消费者
村委会
年来
的高
改革
特点
彰显
▁厨房用具
来自
冠军
▁第四
四川
大理石地板
妈妈
▁瓷砖
的最佳
▁为
造型
车站
下来
或淋浴
网站
▁熨斗
▁浴缸或淋浴
ad
首先
武汉
过程中
▁瓷砖大理石地板
人物
更是
时尚
曾经
实力
生态
面的
十三
核心
副主任
收费是每人每夜
党委
深圳
的到
结束
▁烤
现象
▁E
▁附加费用不会自动计算在总价中
大量
食物
用于
▁of
十五
用到
▁F
施工
同学
针对
取得
业收入
自治
先生
共同
安排
固定
爱情
形式
的风景
ay
额外费用
但又
▁V
主义
的情况下
值得
▁微波炉
引用
愉悦
房内
完善
办法
之情
VD
里的
训练
出差
促进
目的
▁d
乐趣
歌曲
经典
习惯
织品
实用的
铺设
十四
NG
素养
临床
告诉
原则
复印传真
化的
现金
了地
床房
体会到
你们
文章
体验
神经
绝佳
及其
然而
人才
第四
▁邓
足球
▁参考
多数
》(
成本
贷款
休闲的
意义
子的
一定不能
▁所提出的任何加床或
之选
文明
食品
主持
广东
现场
独有的
团队
不太
和其
遥感
最热门
氛围
▁亚麻
解释
▁带
的普遍
一张加床
的发展
最受欢迎
竞争
也可以
▁亚麻织品
智能
让您在
距离约
悄然
粉丝
清浅
造访
购物
提供优质
一定不能错过
这个陌生
熟悉的城市
旅游咨询
商务和
的地板
感受到一丝
营造
您一定不能错过
但又实在
这个陌生又
清浅但又实在
清浅但又实在的温暖
这个陌生又熟悉的城市
感受到一丝清浅但又实在的温暖
乡村
贴心服务
防控
作物
现任
无论您
中华
▁价格
世纪
确诊
得到一份
同比
安放
也是您
热门之选
直线距离约
日常
商务和休闲的
商务和休闲的热门之选
收获一份
交流
享用到
出差或
绝佳选择
药物
定不会
美丽心情
都会是您
度假而
在这里您将
度假而造访
无论您是因为
住宿的绝佳选择
出差或度假而造访
得到一份贴心服务
收获一份美丽心情
都会是您住宿的绝佳选择
在这里您将得到一份贴心服务
无论您是因为出差或度假而造访
规范
道教
餐厅享用到
可在餐厅享用到
查看
了地毯
您可在餐厅享用到
也是您来到
与细节
最热门的酒店之一
UR
铺设了地毯
铺设了地毯的地板
而是
因此而
▁比较好
拉斯
阳台露台
不可错过的风景
品质彰显
与细节之中
品质彰显与细节之中
旅途中不可错过的风景
也是旅途中不可错过的风景
民族
▁W
深深体会到
▁铺设了地毯的地板
自由
与惬意
房内保险箱
您将深深体会到
基因
就可以
愉悦与惬意
不可错过的酒店之一
宾至如归的愉悦与惬意
的服务和
os
想在
群众
购买
的影响
毕竟
茶咖啡机
您可在餐厅享用到传统的
理解
od
un
落脚
▁用餐区
旅行的
自身
推荐
再次
的普遍好评
ang
方便实用的
从而
受到了客人
提供优质贴心
方便实用的设施
受到了客人的普遍好评
提供优质贴心的服务和
通过提供优质贴心的服务和
有着
降低
收益
▁欢迎所有年龄的儿童
吸引着
收取
相当
软软
名年龄较大的儿童或者成人
);
成长
落脚点
,《
希冀
期而
引用日期
成果
▁高
幼儿
这款
婉约
遵义市
遇见
女人
发动机
实践
当地
集体
可是
温温
英国
隔音
配合
后来
安放于
将一份
组合
干净
希冀之中
您定不会
将一份温温
悄然安放于
您定不会失望
旅行的希冀之中
悄然安放于旅行的希冀之中
它的
将一份温温软软
季度
这次
人文素养
科研
的最佳落脚点
殷殷
是您来
节目
的政策
不期而
的到访
不断吸引着
凭借独有的
和其婉约
殷殷之情
和其婉约美丽的
广大顾客的到访
凭借独有的人文素养
殷殷之情不断吸引着
凭借独有的人文素养和其婉约美丽的
殷殷之情不断吸引着广大顾客的到访
干部
演员
是一种
安装
大教堂
的新
此外
最受欢迎的酒店之一
阅读
连续
》:“
ation
不期而遇
十八
”、“
有人
意识
的时间
硕士
纪念
十六
公共
配置
EUR
一份温暖
理想的下
认识
一份感动
理想的下榻
清凉
因此而与
您的旅途
也将因此而与
理想的下榻之处
也将因此而与一份温暖
您的旅途也将因此而与一份温暖
一份感动不期而遇
力量
财务
明确
尽情
多少
按摩
宝宝
您可以
%;
享受到

《
死亡
战略
合理
月份
速度
欧洲
确实
美术
):
▁c
满足
▁而
湖北
评价
有了
图片
居室
水之
公布
动物
外出
财政
打造
▁m
不知道
的一个
▁你
学术
香港
说明
。“
哪些
肯定
自然村
预防
黄金
相比
▁N
一年
人生
创作
软件
创造
几乎
播放机
英语
依然
机关
指数
拖鞋
了一个
▁四
贵州
概念
发挥
▁J
真实
学位
员工
瓶装
ec
没有比
▁遗
▁b
采取
角色
化学
更合适
加上
配有游泳池
那个
于是
性能
联赛
演唱
男性
去年
教材
尤其是
的选择了
尽情享受
与快乐
劳动力
瓶装水
利率
严格
公安
设置
他们的
浙江
自行车
免费瓶装水
▁酒店配有游泳池
数字
》。
经理
或双床间
水之乐趣
您可以尽情享受
您可以尽情享受水之乐趣
常见
享受到游泳
如果您想在
带来的清凉
更合适的选择了
如果您想在旅途中
享受到游泳带来的清凉
先后
享受到游泳带来的清凉与快乐
▁据
符合
植物
在线
那没有比
三个
别人
会议设施
租车
熨衣
输入
人类
充分
ig
程序
内的
景观
▁圣
熨衣设施
he
十七
制造
la
吸烟
▁品质彰显与细节之中
房地产
物理
中医
儿童加床
重要的
▁当
▁拖鞋
▁and
计算机
事件
几个
罗斯
每个客房都配有空调
▁炉
的设计
新冠肺炎
最好
。(
观察
至今
大道
▁p
上了
起居室
行动
▁保险箱
思考
样的
研究生
▁道路
▁新
集中
mm
变得
平方米
营养
一直是
确保
▁炉灶
一位
▁参考资料
等等
意思
之外
地址
装备
▁t
体的
事情
爱的
年度
公寓设施
完美
趋势
版本
ia
现实
重新
班车
观众
就业
洗衣机
比例
商品
医生
担任
▁天
多次
▁中国
双人或双床间
显得
不足
▁共用
中共
▁炉灶台
处于
居民
师范
高校
并没有
逐渐
▁电风扇
还要
落实
承担
根本
:-
林果
原油
营销
热水
往往
最大的
▁阿
重大
意见
创业
▁如果
尼斯
经济总收入
最高
总是
ap
ur
销量
。《
――
名年龄较大的儿童或者成人一张加床
张婴儿床
▁th
收取额外费用
中文
很大
开放
即使
绝对
终于
认真
卧室公寓
队伍
▁第五
德国
RNG
纯收入
力的
推进
ow
到底
离开
者的
协调
娱乐
官方
机制
称为
重庆
学科
都不
来了
车的
经济林果
分享
结构住房
电脑
颜色
详情请
改善
▁。
十九
两人
内部
另一
otel
ce
青春
劳动
▁刘
分为
的事情
人均纯收入
以为
证明
对手
▁Apartment
户通
实行
制定
蛋白
的理念
更多详情请
工资
补充
及加床
加床政策根据
巴黎
更多详情请查看
▁如果您想在旅途中
您所选定的客房的政策
您所选定的客房而有所不同
德里
的重要
养殖
一天
太阳
能源
的地方
哲学
一个人
机械
著名
基地
黑色
的原因
都在
本身
永远
大众
线上
尼亚
物质
看起来
可以说
江苏
请求
一定的
测试
排名
房子
追求
享有
现有
汉族
地面积
做到
就能
数量
英文
刺激
形象
统一
明星
正确
》《
装修
很多人
成员
岁以下的儿童加
文件
最佳
信号
本书
作者是
入口
特征
女儿
,"
找到
会员
不曾
以前
日报
▁K
少年
的工作
背景
路面
强的
是什么
不再
广告
工具
上涨
心的
评论
让我
主动
高速
进行了
并不是
ter
服务等
▁人
公告
状况
▁海
独特
就在
▁交通
动作
接触
时的
也就是
▁清
西班
第五
十年
西班牙
iv
有点
工作的
记录
自我
身上
▁in
动摇
宣布
或许
所在
它们
广州
里面
看看
整体感觉
的心
天下
数学
......
才是
都能
必要
让所有
家的
校园
布拉
)
《
期的
下面
导演
反应
牺牲
主席
进步
分类
台湾
选手
林地
利润
升级
se
平方公里
试验
攻击
对方
毕业于
学历
重视
轻松
玉米
里斯
方面的
毫米
运营
住宅
对象
旅馆位于
就要
本科
PM
令人
的方法
配有空调
迅速
即可
年级
网上
隔离
的生活
情绪
点击
充满
段时间
全新
深入
策略
电风扇
一事
?

增强
不管
ED
的好
课题
特别是
吸烟区
指出
掌握
出场
内容简介
就像
危险
遇到
照片
突破
农民人均纯收入
此前
农民收入
转载
很难
阳光
▁中
小区
成都
投入
的主
拍摄
im
户居住
运行
辅助
孩子的
巴厘
身份
不了
在一起
似乎
办理
提供儿童
彻底
之间的
家一般
残疾人服务等
提供儿童设施
▁f
表达
宾馆
道路交通
!

多种
法院
传播
家一般的温暖
高考
让所有来到
酒店提供儿童设施
感受到家一般的温暖
▁闹钟
宾至如归的氛围
营造宾至如归的氛围
供应
动摇的理念
顾客营造宾至如归的氛围
很有
银行卡
父亲
城堡
唯一
智慧
事实
农业人口
信用
绿色
▁Y
多年
ag
▁主
男人
突然
木结构住房
研发
大型
LP
ab
不曾动摇的理念
的方式
证券
小学生
ir
CD
白色
收费是每人每晚
的收费是每人每晚
人士
人均耕地
度假村
预付款
房价
南京
各类
外出务工
双方
不太好
主要以
限制
面包
的基本
体现
尽管
残疾人设施
外观
大多数
▁n
河北
城区
累计
县人民政府
取消和
输出
股份
公寓类型
感情
气质
取消和预付款
各种公寓类型
取消和预付款政策根据
各种公寓类型而有所不同
联盟
当中
一旦
近日
疫情防控
免疫
想到
在不
铁路
江西
资本
岁的
国土
身材
事先
就读
义务
伦敦
副局长
发展的
最近的
还会
十章
应当
难以
大力
巴厘岛
推出
是不
股票
发行
最好的
快速入住
也许
▁网络
出版社出版
▁私人
指标
衣服
BA
▁王
▁儿童及加床
推广
革命
有耕地
工艺
是个
克斯
一名
女孩
运用
角度
▁每个客房都配有空调
儿子
动车
所谓
负责人
十一章
定位
▁是
成交
身边
老子
的基础
承包
em
新增
母亲
长的
UV
去了
怎样
精品
的前
资格
依法
在这
期待
梦想
▁O
est
天津
名称
清楚
一间客房
董事
移动电话
基于
挑战
依旧
通常
首次
的治疗
也没有
监管
宿舍
推动
思路
总结
障碍
平时
感到
▁服务
单人间
更多的
提前
记忆
投资者
授权
韩国
至少
加工
还在
▁第一节
▁the
也要
创建
畜牧
▁李
花园景
事项
▁非常好
▁第二节
维护
度的
▁浴袍
lo
面临
农户数
书法
大号
目录
案例
的感觉
人体
放在
US
突出
纽约
给予
的作用
房屋
拥有移动电话
实惠
新型
相应
副书记
截至
首发
一事一
法规
街道
复杂
各地
此次
预计
概述
法国
作业
接待
登记
讨论
说的
规则
一事一议
还能
回到
广西
东方
仍然
品种
年代
贡献
共产
口罩
广泛
汉语
▁设施
▁洗衣机
引发
看来
公寓酒店
异常
图像
评为
空气
将会
的研究
标志
良好的
伙伴
山区
意味
其中农业人口
斯坦
▁五
使得
防止
SUV
不用
农田
摄影
us
布尔
石油
▁第六
愿意
成熟
间的
安徽
张幼
详细
张婴儿床免费
的同时
住宿加
张幼儿床
一间客房增加
▁▁
兴趣
知名
▁张
室内
具备
▁DVD
▁为顾客营造宾至如归的氛围
住宿加早餐
小的
高等
态度
素质
让你
一家
适宜
慢慢
op
研究所
乡村人口
十二章
生活中
▁上
▁适合
战斗
两种
当前
依靠
穿搭
金支付
优化
▁Ch
尽量
▁但
眼睛
的中
的一种
地位
尔夫
装饰
享有风景
元素
杂志
适应
▁烤箱
多个
使用现金支付
主要种植
服装
ul
在家
意外
战争
▁h
对此
职工
中学生
仅接受客人
仅接受客人使用现金支付
涉及
俄罗斯
不知
但需
担心
康复
柏林
出来的
哈尔
▁餐厅
仅接受现金
原文
公益
尺寸
看着
出现了
练习
原理
放弃
局局长
提出请求
一条
爆发
下了
▁St
前列
判断
有一个
但需事先
允许客人
带宠物入住
但需事先提出请求
允许客人带宠物入住
和国
个村民
湖南
航空
寻找
是不是
平衡
▁生
布鲁
呈现
▁对于
▁我们
呼吸
大号床
▁月
成为了
距离最近的
更好
的不
点播
随后
电池
▁元
这位
微博
海拔
也就
改造
他在
每次
志愿
▁西
每年
公寓时
公寓条款
请参阅公寓条款
应急
理事
塞尔
始终
在于
至于
▁沏
阿尔
到达
餐桌
气温
十四章
▁马
河南
km
定期
很大的
▁Z
名字
例如
兑换
小编
一场
三人间
会计
声音
等级
人都能
▁小厨房
病情
观点
全市
危机
高度
巴西
原来
最新
养老
举办
乔丹
千万
展示
运动员
茶咖啡设备
▁沏茶咖啡设备
效率
们的
句话
十三章
也在
专项
总收入的
明白
美的
第一次
高中
几年
规律
指挥
变成
▁私人入口
女生
冲击
更新
其它
▁周
在中国
词条
阵容
货币
继承
自主
实用
社交
系统的
是指
丰富的
不够理想
诊断
审计
后期
小厨房
示范
占总收入的
如果你
上去
专辑
民主
便利
酒店交通比较方便
返校
感受
布局
文字
流行
蔬菜
分子
利益
启动
技巧
带着
众多
则是
市景
假日
▁唤醒服务闹钟
发病
支撑
下跌
个性
ie
成就
准确
开启
主题
战队
▁In
月至
读书
采访
非常的
▁整体感觉
酒店更合适的选择了
足够
市中心
血管
称号
有什么
双人床房
意味着
缺乏
▁咖啡
强调
损失
错误
污染
流动
院校
发育
心里
全县
即将
贵州省
思维
大学生
斯拉
加大
市场的
人在
常规
是由
提醒
附近
有很多
协议
反映
福建
▁请
皇家
队友
火车站
业绩
治理
违法
十五章
让我们
十七章
型的
生素
表面
阳市
球迷
课堂
▁隔音
种植业
各项
车身
三年
成分
▁取消和预付款政策根据
上升
手段
量的
考生
ut
而不
过的
客房早餐
最多容纳
▁a
近期
危害
多了
出口
等待
哪里
相同
解放
古代
引导
疼痛
很好的
还可以
确诊病例
学生的
亲子
十六章
▁饰
酒店让您在
上面
结婚
酒店都会是您住宿的绝佳选择
超级
农作物
▁第三节
都要
亿美元
▁咖啡机
不如
家族
经济林果地
扩大
混合
评估
荣誉
适当
一线
职务
AT
遥远
十八章
的图书
酒店的人都能
酒店的人都能感受到家一般的温暖
共有
▁标准
现在的
正是
循环
天的
名为
回家
很快
打开
期货
大幅
可见
探索
总面积
付款
红色
年末
▁l
截止
第六
地理
修复
稳产
导师
微信
记得
面包机
大会
答案
蒙古
生涯
兄弟
应对
顺利
逐步
时刻
病人
▁特
购房
税务
公司的
前列腺
个村民小组
葡萄
。。
在校
渠道
肿瘤
吸收
户外
监测
我是
月出生
一代
分配
护理
苹果
分泌
强化
斯科
老年
肌肤
▁烤面包机
酒店通过提供优质贴心的服务和
▁安
算是
情况下
酒店是您来
酒店不曾动摇的理念
▁开
案件
稳产农田
周期
歌手
晚上
武器
高稳产农田
▁坐
和谐
直到
酒店可能会
酒店可能会收取额外费用
类似
av
后赛
格兰
北京市
高稳产农田地面积
贝尔
参加工作
威尼斯
视觉
距离村委会
一件
展现
教练
本人
ok
性和
金属
组成员
治愈
大利
都没有
加快
中药
码头
下去
▁g
浴袍
山东省
好了
主要是
季后赛
上下
前的
情感
城镇
▁不过
▁第七
执法
依据
老人
共和国
ip
医师
调节
公众
天然
沟通
部长
做了
共产党
性格
级别
少女
卫生院
不得不
家人
▁酒店允许客人带宠物入住
两年
遥控
胜利
大床房
注册
十九章
▁卡
▁酒店仅接受客人使用现金支付
原创
AM
乳腺
休息
院长
高尔夫
▁仅接受现金
东北
出处
对比
师范大学
防治
表演
利于
生长
pa
秘书
尝试
相互
基础设施
可免费
的效果
层次
ES
森林
痛苦
外币
校长
道路为
之下
分布
水稻
各个
楼层
理财
优惠
水果
卫生所
实际上
工作人员
纷纷
患者的
剧情
而在
意大利
著作
是最
立即
覆盖
▁早
印度
失败
参加农村
之家
内饰
流量
切实
学报
▁没有
无论是
动态
妇科
是有
模型
温度
新车
妻子
作家
环保
山西
贸易
名单
塞罗
小型
就不
头发
市委
外币兑换
就读到
婚姻
水量
同志
注重
力度
反弹
地下
ov
举行
ak
决赛
▁该村到
纤维
能量
做出
专门
专题
日子
西亚
▁第一百
一款
敌人
▁y
属性
当代
蓝色
前期
读者
▁该
防疫
工商
ort
两名
前往
衬衫
下辖
测量
接近
做法
纪录
岁在不
可免费入住
岁在不加床
岁在不加床的情况下
岁在不加床的情况下可免费入住
基层
距离镇
参数
女子
补贴
ess
的故事
国产
百分
场比赛
起了
色彩
时退房时间
▁其实
儿童和加床
DVD
场上
幼儿园
加速
广播
春季
▁Hotel
大小
此时
抵达
鼓励
▁他
获取
机动车
场所
就有
真正的
▁可
厘米
公寓位于
回忆
总经理
法师
陕西
性质
教育部
克拉
提示
业主
爸爸
农村经济总收入
完整
总体
▁选择上述公寓时
团体
精彩
播放器
式的
家具
短期
预测
哈尔滨
道德经
周围
地点
那样
实验室
市政
物流
其中有
um
▁奥
▁多
部位
得到了
▁对
企业的
较为
当年
子宫
展开
更为
海景
真是
大街
年内
赔偿
不错的
浴盆
遗产
万人
融资
图书馆
?”
紧张
标题
采用了
位成人
怀孕
这也是
不住
不良
印象
并非
留下
维生素
近年来
室公寓
太多
ong
招生
民间
的东西
广东省
房产
配备
是非常
的学生
年平均
刚刚
常务
每个客房都配有禁烟房
岁至
搭载
海外
▁详情
安静
即便
曾任
的美
辽宁
巴塞罗
工厂
飞机
防护
保健
的医疗
更有
青岛
总裁
EDG
都可以
上线
日前
▁坐式
▁豪华
在这个
▁坐式浴盆
og
杭州
流程
相对一般
预期
功率
姆斯
感谢
合约
部的
配套
批准
传说
缓解
讲述
部队
公交
形态
每一个
大概
省级
电动
血液
交通事故
加盟
新冠病毒
最低
病的
中国共产党
黑龙
!”
整理
一体
一致
西南
还没有
书画
构成
贫困
四川省
乐园
慢性
做的
场景
▁道德
一季度
这就是
奖励
认可
党组成员
岁的儿童
路线
的一些
国外
环节
都市
地面
▁共用浴室
▁价格实惠
产权
米兰
维持
通道
ect
文献
▁热水
问题的
车主
更好的
债券
影视
BB
电机
给了
很容易
战士
许可
▁根据
DVDCD
玻璃
第七
良好
否则
▁购物
过于
道家
人群
养生
学者
三人
和平
减肥
云南省
▁洗
地球
了很多
在此
生存
、"
财经
一样的
邀请
三大
买房
消失
为何
可能是
精致
节奏
▁w
省内
工程师
局副局长
巴塞罗那
老板
▁卫生
主管
并有
大厦
定的
消防
维尔
月生
遭遇
融合
▁X
连接
io
人大
真的是
反而
楼市
ist
地的
间和
群体
职责
西安
中有
事务
中共党员
▁吴
一级
国民
这件
清真
▁安全
专业的
反复
▁额外
显然
IP
优雅
旅行
百姓
审核
打击
灌溉
▁无
生活的
连载
不起
疗法
黑龙江
下午
偏高
原本
岗位
声明
时光
男子
转移
难度
cm
想象
步骤
给我
▁遵义
路上
电视剧
其次
西方
▁餐桌
ct
▁前
信心
水泥
第一个
提供了标准
月参加工作
ra
海洋
中国的
破坏
原文地址
释放
ant
低于
▁所以
▁好
出去
荣耀
密切
▁牺牲
今日
女士
宇宙
词语
▁共用卫生间
回应
领先
公主
饮用
被评为
互动
各级
犯罪
东京
召开
复工
二手
百度
本来
粮食
以上的
疾病的
的条款
年平均气温
司法
很少
出版社出版的图书
半年
尔顿
拿到
股东
体重
想法
清真寺
决策
生育
独立淋浴
四个
那种
域网
高端
国土面积
间和浴缸
独立淋浴间和浴缸
财富
无数
二等奖
习题
她们
文艺
竞技
one
都知道
菲尔
语文
基本上
▁虽然
奥运
命运
常年
强烈
深刻
清晰
大赛
日起
有时
锻炼
双床房
机器
不在
特性
湖北省
包含
USD
并参阅
天地
进口
局域网
您所需
输入您的
每日
水利
票务
考核
入住日期
并参阅您所需
的客房的条款
输入您的入住日期
并参阅您所需的客房的条款
他人
宗教
行驶
igh
脂肪
冠状
用来
人民币
▁长
收购
漂亮
WE
回归
名的
岁以上
区别
ers
和社会
比亚
无线
▁唐
下滑
可爱
发的
牛仔
等农作物
各位
曝光
过敏
尊重
我就
表明
▁南
维修
一等奖
仅仅
会在
自来
iP
吉林
地质
巨大
王者
不想
究竟
这两
味道
斯塔
面前
这部
真自治
也可
年在
神秘
舞台
降水量
带领
给你
▁按
编写
加床的收费是每人每晚
把握
走向
土木结构住房
十足
发放
穿着
气的
拒绝
大师
常见的
大陆
会上
ity
接受的
身高
支部
并在
碗机
将在
回答
有哪些
或是
▁避
不多
▁但是
家里
样子
物业
理由
专利
公斤
损害
安全生产
▁第八
主编
的内容
画面
编制
物资
姓名
零售
月任
副教授
研究院
包装
建立了
外国
成的
蒙特
市民
颜值
▁金
魅力
东南
主角
all
回来
鉴定
的表现
县委
格拉斯
ome
BBQ
是我
阿里
大力发展
代谢
板块
餐饮
失去
电商
贯彻
学的
早期
LPR
简单的
ep
竟然
办事
奥迪
形势
出血
西北
务公开
湖南省
qu
残联
可以在
区的
天使
同比增长
第一产业
▁r
变速
地铁
垃圾
引进
得了
严重的
有关部门
▁遗传
自来水
中小
看出
▁老
大招
ouse
对外
▁全村
伊斯坦
电压
▁白
内心
线的
都很
写作
显著
年降水量
新冠肺炎疫情
直达
▁爱
也不会
夫妻
有效的
▁陈
美容
▁洗碗机
专科
▁那
一生
西装
清洁
我想
方的
消化
道的
ine
怎么办
总数的
一事一议筹
%、
调研
停车
差异
录取
进球
新款
获奖
随时
一张
县城
▁洗衣间
伊斯坦布尔
丰田
给人
年末集体
适宜种植
检验
入选
消毒
高达
格拉
模拟
荣获
识别
看上去
ng
朗普
初中
同意
自然科学
也没
加拿
长时间
二十
一边
气味
但在
最为
▁相对一般
评分
数据显示
孩子们
才会
影像
矛盾
分别为
翻译
自信
总统
的价格
起到
是中国
关节
▁作为
有农户
两次
策划
▁Li
大号床间
布拉格
那就是
NA
停止
权威
站在
到入住时间
心中
市政府
人流
售价
成年
进攻
冠状病毒
▁男
证书
说话
道理
年全村
的产品
强度
上一
收录
估计
功效
▁目前
地图
岁以下的儿童婴儿床
合格
就算
理工
国务
开心
能否
赛事
是对
中间
监察
▁酒店距离
从事第一产业
常常
几天
留言
说法
走势
的机会
交叉
权利
某些
好像
▁因为
大大
▁on
日的
公寓酒店位于
St
描述
▁华
关心
食用
屏幕
▁与
"、"
天气
¥:
▁作者
要注意
云南
县政府
▁苏
一路
▁主要
PP
不见
让他
明显的
监督管理
开发商
▁以
物的
给大家
ri
亚洲
莫斯科
激素
电视机
那里
ci
内蒙古
之路
自治区
▁·
整治
烤烟
”(
恒大
义务教育
户居住砖
传奇
均为
周边
秩序
外套
少数
Apartment
预算
:《
ud
夏天
超越
大量的
尼奥
逻辑
▁请输入您的入住日期
核桃
看见
紧急
高效
不出
单点
eng
ev
年第
的关系
有效灌溉
以外
无疑
的通知
图册
静脉
人事
尔斯
村内
网红
卡拉
定义
▁户外
这一点
不敢
典型
学士
效应
遗嘱
家庭间
含有
游客提到的优点
围绕
进村
的人生
合作医疗
其中从事第一产业
审批
”“
之所以
镜头
河南省
达到了
代理
演的
不可加床
教室
不可加床婴儿床
间客房不可加床婴儿床
设立
检察
乡镇
积累
illa
保留
政策和
▁到
承诺
▁位置
▁遇见
秘密
奔驰
国内外
委托
▁清洁
加入中国共产党
新能源
▁景观
配有禁烟房
不允许携带宠物
而不是
备案
油价
成立了
明的
月的
▁月销售
营业
加拿大
▁第四节
分游客提到的优点
pl
动画
必然
our
研究员
▁游泳池
户居住于
独立用餐区
GD
▁美国
宽松
科学院
▁总
西部
上海市
农民收入主要以
伦理
师生
整合
诊疗
氧化
养殖业
产品的
巨大的
毕业生
获得了
有乡村人口
新疆
贸市场
单点餐厅
人工
影片
▁最后
福特
过了
per
岁以上的儿童
科长
宠物不允许携带宠物
.,
建有
线条
转换
传染
含量
放入
特斯拉
岁以上的儿童入住
也不是
责任编辑
年全村经济总收入
剧院
温柔
观念
▁清洁用品
▁美
复习
物品
▁要
不但
无人
▁饮食
特朗普
独特的
其中从事第一产业人数
行情
特色产业
▁林
收集
起点
面积为
搜索
?"
作曲
权在
构建
国务院
增加了
进行预
出栏
座椅
背后
▁客房总数
人民共和国
恋爱
收到
的长
第八
通信
或者是
全村有
的基础上
协助
甘肃
的能力
药品
▁游戏
老公
三产业
月经
从来
CA
的症状
军事
大气
的就是
强大的
▁宋
强势
财产
董事长
▁自
类的
前后
消除
建成
报名
担保
气息
顶级
同一
很高
看法
国有
是以
每一
宝马
同步
歌词
▁露台
损伤
有没有
全省
无限
再加上
延长
不久
消耗
存储
球场
聚焦
权益
数据库
却是
染色
过来
财务管理
而已
连通
的行为
化妆
全村辖
活力
离婚
▁的
队的
▁六
出行
灵活
一室公寓
不上
转型
办学
现状
ind
动的
性价
通讯
▁当然
固定电话
开拓
签约
▁花园景
共用浴室
银行卡类型
接受的银行卡类型
没想到
的历史
这也
年轻人
接下来
汽车旅馆
肌肉
▁提供
佛罗
曲线
事实上
).
个体
季节
复试
强大
由此
▁第九
等方面
丈夫
党组
律师
出现在
接受上述
ha
皇帝
细菌
各大
扶贫
▁遵义市
领导小组
进行预授权
圣母
金额
您抵达
小心
一直在
人民法院
付款并有
您抵达之前
付款并有权在
接受上述银行卡
您抵达之前进行预授权
接受上述银行卡付款并有权在
匹配
中华人民共和国
县长
隔音客房
张大
NBA
ight
天空
纪委
ard
▁其他
工作者
充电
的技术
经济学
社会主义
种植业收入
ne
凤凰
一片
睡眠
线下
的农户数
大多
查询
疫苗
心灵
队员
在校学生
第一百
▁第一章
创意
旗下
股价
顾问
▁北京
应该是
科学技术
▁巴
国的
抗疫
▁CD
不收取额外费用
文物
浪漫
血压
变速箱
原标题
喜欢的
本次
癜风
茶叶
》,《
的位置
畜牧业收入
简直
国家级
上午
听到
一段时间
配有公寓设施
▁科
警察
所有年龄较大的儿童或者成人
▁国
水的
长安
马德里
▁整体感觉不错
他是
清洗
阴道
高速公路
保养
全身
加拉
好好
等多
防守
有林地
每个客房都配有公寓设施
LA
书籍
采购
ace
上有
农民收入以
看了
子女
拥有电视机
安装固定电话
持有
队长
不接待
年毕业于
出发
可谓
期刊
的三
衣裙
村务公开
一度
超市
会长
电视台
▁山
分管
官网
常用
这类
ran
债务
太平
疯狂
补偿
每个客房都配有阳台
发出
多多
气候
的那
本赛季
线路
党委书记
定价
将按照
擅长
格式
范围内
或拥有移动电话
其中人均耕地
照顾
▁Apartments
安装固定电话或拥有移动电话
器的
助攻
哪个
IS
▁:
拥有电视机农户
宫颈
不接待儿童
糖尿
▁首先
另一个
相关的
固定资产
进村道路为
关闭
新型冠状病毒
生理
创始
当天
摩托
的第一
清华
ber
乘坐
各自
尽快
爱好
履行
质疑
▁手
彼此
最多
认定
妇女
性别
打野
带动
放松
用了
转会
集贸市场
GB
他说
团战
安东
添加
户通电
▁年
▁黄
境外
组长
的朋友
主体
亏损
ian
另一方面
泳池
积分
上课
布达
ence
可以说是
其中拥有移动电话
一是
在我
免费局域网
选择上述客房时
长沙
等方式
ID
的状态
号码
衣架
可能需要
拥有林地
一流
欧元
遗憾
▁高层
小吃
转化
的比赛
又是
的外
马尔
精英
三等奖
处罚
林业
公安局
分离
疫情影响
外出务工人数
▁;
两侧
回复
带有
心态
姆斯特
配有阳台
和预先付费政策选择上述客房时
一段
接着
景区
床位
男女
装置
请注意
口碑
之道
争议
单元
又有
迎来
面向
等作物
▁早到入住时间
人为
已有
打出
相似
▁高级
养老保险
后续
将其
▁¥:
!"
减轻
不仅仅
共享
的食物
连衣裙
产量
华为
▁按次
彼得
▁出生
产业为
佛教
便宜
斗兽
用地
)(
认证
斗兽场
梯直达
浙江省
▁明
申报
出栏肉
收费电视
▁e
注意事项
月加入中国共产党
体内
的世界
▁按次点播
▁按次点播收费电视
体温
有机
聚集
▁价格偏高
大约
桥梁
骑士
助理
授予
性价比
其中拥有移动电话农户数
nd
一个月
▁两
人和
更高
说是
是一款
主要依靠
懂英文
标准收费
你是
简称
加重
份额
夏季
法的
绿化
不大
曾在
年农村经济总收入
你会
我在
本质
有耕地总面积
场均
距离最近的车站
▁每个客房都配有禁烟房
档案
看到了
二级
笔记
qq
感的
江苏省
美术馆
▁生前
医药
控股
生日
的车
性收入
姆斯特丹
未来的
经济发展
一人
新鲜
▁%
退休
晾衣架
的农户
出栏肉猪
加坡
新区
禁止
有可能
后卫
批评
陆续
▁适合家庭
隐患
入了
月底
此酒店
将按照成人
此酒店将按照成人
此酒店将按照成人标准收费
海岸
论坛
党校
遗忘
▁附
差距
马力
发展思路
作出
局部
早已
违规
央行
姑娘
服用
费的
里斯本
进展
避孕
核酸
一套
留学
▁晾衣架
姐姐
效益
灵魂
门口
土路
白癜风
II
下方
厦门
转变
ost
实训
有序
▁除了
成语
有个
管理工作
】:
复合
深度
的手
罗马斗兽场
余篇
的水
ell
济南
烦恼
▁道教
▁用
便是
外科
续航
每个客房都配有保险箱
依赖
口腔
疑问
▁此外
遥远的
年内出栏肉猪
埃尔
净利润
删除
命中
对待
留在
公寓式
等为主
上市公司
救助
我觉得
外出务工收入
航天
说了
信用卡
引起的
如果使用
户居住于土木结构住房
The
选择了
公平
审查
尚未
普吉
汉语词语
仪式
较高
工资性收入
时之前预订取消预付政策
万物
制的
射手
租赁
害怕
懂得
高于
会出现
率为
电力
的老
相应的
临时
我们可以
在省内
日至
詹姆斯
IN
马上
带来了
常年外出务工人数
合成
演出
省外
肉牛
▁该村目前
既然
百万
高三
办公室主任
▁这间客房不可加床婴儿床
拿下
早泄
hy
适用
ina
介绍了
的可能
相连
连通间
后面
正规
不变
年前
▁本书
疫情期间
暂时
盈利
部署
三产业收入
的主要产业为
游客提到的缺点
过度
尼克
传递
温泉
癫痫
▁这个
增速
打破
距离最近的集贸市场
不及
开了
疤痕
不可能
ff
健身
分手
威胁
心脏
ast
▁提供连通间
处的
清理
诉讼
途径
复发
▁她
访问
世界上
这是一个
可靠
篮球
超大
跟踪
完成了
▁v
市区
微笑
波动
道士
喜爱
居家
延续
旅馆所有的客房首要标准
人力
佛罗伦
客观
当下
提取
▁一个
发生了
........
▁U
是很
蚊帐
读音
麻烦
优先
环球
出色
辐射
副作用
形成了
考察
面上
就已经
炎症
的特点
英超
辖区
不需要
其中男性
销售总收入
提到
曼谷
的过程
▁全
立体
饮水
!!
▁更
普利
也就是说
全村外出务工收入
▁斯
退役
▁带共用浴室
的医疗主要依靠
从此
外界
▁和
当初
流转
可能需要支付
名人
的现象
如果使用婴儿床
可能需要支付额外费用
处置
抑制
认知
走了
▁由于
村民的医疗主要依靠
专用
黄色
党委委员
教研
的情
▁红
设定
取得了
向上
机的
洗刷
遗迹
青少年
一项
春天
淘宝
还没
▁为了
佛罗伦萨
十字
境内
涨幅
的女
在省内务工
渐渐
激烈
跟着
是为了
农村土地
▁维
不开
分数
被动
的孩子
秘书长
问题是
一部
展览
▁第二章
重要的是
天堂
失业
▁正
程度上
创始人
▁Res
▁东
出自
加油
团结
有时候
电脑保险箱
公民
地震
生殖
海军
通报
ate
自身的
造成的
公益事业
现有农户
隶属于
以往
城乡
昨天
ord
从小
格局
家协会
志愿者
bo
的确
主要销售
▁国家
OS
浏览
江西省
▁会议设施
侵权
▁市景
小学校
三十
人家
福利
澳大
历史上
Ch
凯旋
赚钱
成功的
全力
历任
适量
予以
境界
安置
实体
提供了一
保存
一方面
学校的
SN
新生
▁遥感
的爱
无奈
▁第三章
参加农村合作医疗
塑料
平安
同事
诚信
社会科学
岁以下的儿童婴儿床不需付费
▁孙
作词
小屋
年期
救援
特拉
礼品
防御
ik
辅导
新加坡
▁说
布莱
生于
▁七
洗刷用品
舞蹈
染色体
全村销售总收入
多样
披露
▁就
为你
沈阳
活跃
走进
家庭房
第一节
占比
这就
一系列
蛋白质
足球运动员
充足
承认
▁另外
来讲
美好
证据
旅馆享受的服务与设施会有
一只
公元
ark
全体
公务
手续
重的
▁关于
不然
发作
受伤
股市
中山
特效
监控
抓住
有利于
国际机场
本土
职位
预约
有效灌溉面积为
争取
▁花园
发布的
股权
委员会委员
为人
美女
变成了
河北省
职业生涯
户居住砖木结构住房
同学们
基本信息
ao
时空
之文
井水
招聘
传承
宁波
编剧
遗址
非洲
▁地
发射
的热
宿舍间的
没有任何
oc
作战
合法
本地
玩法
▁那么
摩托车
户通自来水
三分
仔细
▁|
周年
巅峰
移民
产业全村销售总收入
园林
激光
将实施
马拉
游戏中
信任
烈士
设有
▁支持
二是
助于
吃饭
随意
发明
大战
什么是
村位于
三角
多年的
大家都
第二节
混凝
等到
舒服
主要销售往
kg
大队
▁额外的
出门
对应
星期
IG
多吃
签定
解除
项目的
英寸
和其他
糖尿病
亲自
好看
流通
设计的
▁下
出台
非法
ill
税务局
LPL
意思是
自然科学基金
MP
偶像
年间
ge
▁、
题材
重点是
放心
期限
百科
被称为
哈弗
点播服务
电影点播服务
上班
包皮
将军
民众
漫画
货物
阿拉
硕士学位
)》
nt
工人
级的
飞行
在大
宝石
腾讯
在国内
安徽省
计划大力发展
:(
单纯
合并
探讨
效力
首席
博士学位
的过程中
人心
困扰
斯克
这时
验收
医学院
▁for
传媒
储备
生意
诸多
远程
在了
疗程
额外补充
▁酒店接受的银行卡类型
新建
第九
▁Zh
党支部
承包合同
▁享有风景
冬季
招商
政协
诗人
▁杨
互相
视野
过多
▁道真自治
全程
并未
强制
缺陷
身的
边的
▁&
分的
承受
轿车
急性
掉了
负担
▁最近
▁现在
预订超过
不同的政策和
额外补充规定
将实施不同的政策和
将实施不同的政策和额外补充规定
岁月
通行
鹿晗
修改
噪音
郑州
出生于
精华
农村土地承包
人均经济林果地
司机
奥斯
谢谢
全新的
峡谷
版权
鸡蛋
正确的
等经济林果
CI
千年
能在
的患者
组织实施
其中经济林果地
▁亚麻织品等设施
CT
▁罗
均匀
婴儿
龙头
的需求
联合会
ai
市长
接收
材质
的中国
▁第四章
ont
奶奶
祝福
钓鱼
的企业
年获
病变
三人房
到达机场
体制
里约
到达机场时间
给他
多元
套装
夫人
韦斯特
澳大利亚
家居
人均高稳产农田地面积
大了
欣赏
资讯
难道
同期
百年
穿越
不停
▁以上
小伙伴
▁米
征收
黑板
义务教育在校学生
▁Q
乐观
要有
违反
透明
朱之文
省外务工
民国
重复
百分点
中国人民
为此
以免
多人
纠纷
别人的
四大
二手房
班主任
了吗
拓展
记载
怎么样
发言
学家
种类
ach
农业承包合同
它是
怀疑
▁st
生导师
ub
▁日
▁随着
产生的
南北
明天
老婆
农村土地承包面积
粘贴
面试
如有
付出
场的
我要
模块
洛杉
纳入
营收
在美国
路口
ament
到省外务工
工会
库存
排除
相结合
初步
混居
潮流
正在发展
道路运输
ry
笔者
实现了
混凝土
定期开展
饮用井水
增生
话题
这场
一部分
让孩子
FP
叫做
孕妇
客运
市级
恐怖
一起来
术后
经费
那就
业时间
已签定
洛杉矶
其中有高稳产农田地面积
我也
新浪
春秋
大桥
春节
用车
行业的
同比下降
上学
发达
已签定农业承包合同
一波
占据
居然
硬化
信息化
▁House
因而
牛皮
党委副书记
保罗
反对
吉利
并发
男科
▁Gu
事业单位
东风
因子
寂寞
某种
▁今天
管理局
位的
厚的
旗舰
▁蚊帐
正常的
▁The
ei
遗失
长江
▁海景
人员的
我们在
个百分点
养成
冲突
大专
婚礼
理工大学
该村距离
见到
行政村
可以通过
荷兰
连锁
风湿
网络小说
▁所有年龄较大的儿童或者成人
战役
调控
边缘
▁塔
仿佛
马克
如果是
适用于
道路交通事故
▁古
▁比
主播
今后的
新技术
图片来源
不动
十大
向前
坐在
电路
耕地面积
配有保险箱
地处
邂逅
▁女
击杀
扭矩
饰演
不一样
度假酒店
密度
戏剧
oh
▁水
两位
科技进步
▁别
更换
下来的
初三
县级
环比
萝卜
的使用
中期
在职
爱你
除此
将于
科技大学
农村财务管理
▁北
下调
卡萨
幅度
肉羊
中学生就读到
MV
籍贯
▁to
丽君
当事
优秀的
豪华双人间
制品
增多
快捷
的关键
设计师
▁每个客房都配有阳台
▁原
斯基
精准
文化的
▁乌
▁拉
法律法规
斯顿
毫不
遵守
的相关
partament
中超
患有
景点
农村财务管理实行
感冒
一周
主力
园区
楼盘
的眼
同时也
不易
为止
拼音
结局
讲解
附属
为大家
的数据
刑事
坚决
巴萨
小吃吧
距离村委会卫生所
挖掘
改进
相反
调理
奥运会
公益事业建设
小学生就读到
▁图
从业
天天
新华
焦虑
▁更多
活动的
▁遥
。、
全年
守护
敏感
暂停
更大
达成
国家队
娱乐圈
距离镇卫生院
说过
还不
使用的
建筑面积
各乡
神奇
维亚
市人民政府
陷入
的结果
理财小组
距离中学
五个
的市场
主人
主干
尴尬
所需
科夫
芯片
重量
了不少
农村公益事业建设
▁每个客房都配有公寓设施
故障
值得一
是一名
一卧室公寓
民主理财小组
标签
法学
竞赛
豆瓣
are
普吉岛
▁遮
厉害
实的
封闭
战胜
达尔
一定会
凯旋门
常规赛
不论
入学
最早
有望
主持人
所在地
定期开展村务公开
圆形
头的
参加了
为一
白银
签订
考研
▁Su
款式
种种
下辖村
中小学
研究中心
佩斯
常委
所长
时机
疗效
警方
金山
一卧室
户饮用井水
浪费
频率
就没有
这个问题
建立了农村公益事业建设
sh
你在
实习
满满
链接
新婚
月初
自觉
解读
黑色的
县人
爆炸
简易
两个人
困难和
发表论文
三种
对其
指南
清水
病因
订单
▁然而
也纳
人气
学期
审判
隐藏
难题
纪念碑
不管是
▁整体感觉一般
一句
官员
日内
次数
act
▁wi
人们的
越来越多
书中
本文
职能
旅馆一直致力于为广大顾客
▁第五章
时髦
法制
被人
此同时
▁伊
仪器
后果
班级
落地
国家的
豪华房
重庆市
电子商务
内外
王宫
科比
等地
频繁
for
tern
TI
黑龙江省
该村义务教育在校学生
办事处
的消息
▁客房不好
信仰
多家
条例
神仙
而成
辈子
驱动
的信息
免费局域网和
再度
干燥
▁购物方便
.《
一大
中最
反馈
可惜
我不
派出
淘汰
退税
▁--
社会养老保险
力学
延伸
语音
所以在
又称
孤独
播出
睡觉
张大奕
hone
iz
整形
ob
五年
功夫
月在
灾害
轨道
击败
脱发
讲师
市场上
共乡村人口
该村距离小学校
团员
对面
曼联
最初
树立
的存在
核酸检测
不孕
冒险
的上
的风
选用
同年
大学学历
实时
苏州
是可以
的发生
的目的
足球俱乐部
新型冠状病毒肺炎
各国
吐槽
真相
的原则
的变化
对抗
照明
谨慎
副主席
土壤
督促
突发
点击进入
公积
恋情
市政厅
两卧室公寓
南方
行车
别的
周末
是要
▁波
宗旨
得以
油耗
简约
约翰
▁万
但是在
属于山区
几十
局面
慕尼
硬件
end
世界杯
AR
也被
交换
先天
存款
完美的
我们就
我会
科员
统筹
的专业
住了
定了
概率
综艺
卡尔
地块
德尔
有趣
全世界
妹妹
宏观
就被
得知
毛巾
编号
通用
必要的
黑板报
PL
女神
所属
只不过
在下
米尔
面貌
ear
中介
得分
煤矿
税收
辣椒
阴阳
的经济
成立了民主理财小组
所提出的任何加床或
创办
对我
仅作为
有一些
让自己
股份有限公司
主流
演技
nal
专注
单人
国王
性感
格林
安全性
第三节
奋斗
房贷
本县
▁克
▁法
失眠
解答
发型
地上
▁适合亲子
出道
太极
燃油
业内
种子
公积金
出色的
前列腺炎
▁唤醒服务等设施
在上
德拉
就开始
一座
二人
容量
接口
研制
要素
轴距
存在的
▁饮食不够理想
任教
整改
远远
ond
教育的
uc
在外
打算
胎儿
进了
相当于
福建省
尔多
活性
饭店
白色的
中路
头部
普及
贵的
CS
一批
个股
民政
清迈
轻轻
预订担保
信用卡仅作为
户通有线电视
信用卡仅作为预订担保
罗夫
的环境
给自己
区间
篮板
部件
▁九
就诊
玫瑰
等工作
BN
忘了
抓好
莱斯
观看
晓彤
职称
零件
召唤
对话
潜水
集成
很方便
厂家
江南
警告
分别占
萨斯
西医
的游戏
贝斯特
力和
多么
小孩
报价
的光
age
的社会
撰写
TS
ll
▁x
恐惧
牙齿
现为
▁外
初期
利尔
联储
sk
史上
小麦
经纪
rom
eg
前面
眼部
缴纳
党组书记
世卫
勇士
都没
社会的
新冠疫情
健全
诗歌
贵宾
内分泌
分别是
哪怕
复课
详情西
连载于
▁看
一把
体质
修正
器官
山市
未能
牛奶
》、
男孩
ma
批发
梦幻
用药
落的
学员
总额
相遇
试点
缺少
长城
ive
这一次
地说
工委
形容
的这
在一个
工作中
畜混居
主管部门
▁内容简介
▁设施不好
建造
扩展
皇马
内涵
在一
大连
总会
聪明
ATM
驾驶员
验证
也不能
教育厅
万平方米
师范学院
复古
忽视
江湖
绘画
考验
我们要
▁博
▁实验
双人床
很多人都
除此之外
审定
对照
羡慕
里亚
面部
畜混居的农户
▁热
你要
便秘
排水
要点
超大的客房
参加农村社会养老保险
单品
多媒体
的管理
全书
玛丽
的几
▁如何
粘贴公告
酒店超大的客房
半身
卡岛
山水
得很
王子
年初
幸运
瑞士
脸上
表情
的形式
这个时候
单一
去世
哥伦
收藏
纪录片
走出
震荡
▁我的
希尔顿
实战
援助
账户
遵循
FPX
▁团体
比亚迪
的目标
ey
丛书
对你
年被
民警
感染者
技术的
入住时间从
凸显
像是
年至
想起
艰难
虚拟
解析
Hotel
▁文
之地
极为
激励
地区的
年后
年纪
随便
基础上
科大学
▁Pro
▁当预订超过
道路交通安全
大于
改为
数十
眼前
牛仔裤
知识产权
子里
止损
远离
的概念
小型套房
中控
余欢
好处
红军
词汇
无症状
身体健康
克兰
拟任
副县长
▁心
气象
窗口
多利亚
室内电压
昆明
四人间
一看
修身
修饰
道具
▁iP
土地流转
房企
会导致
朋友们
比赛中
结束后
安东尼奥
CE
▁k
辉煌
英格兰
up
培育
惊喜
模范
的玩家
人力资源
特大号床间
总部
激发
疲劳
的天
的有
辛苦
马略
副院长
和重点是
全村参加农村社会养老保险
儿童和加床欢迎所有年龄的儿童
了吧
婚纱
黑暗
会不会
这种情况
马略卡岛
农户总数的
不育
前锋
实例
志明
日在
的英雄
广场步行
两大
更大的
考虑到
久的
好友
引擎
挑选
热内
▁不适合
▁到达机场时间
▁胡
》:
萎缩
领域的
主要以粘贴公告
剧中
化工
如同
足协
别墅酒店
去除
精心
组建
▁学校
提出了
的态度
▁出
卵巢
是大
率先
突变
算法
她在
本田
都被
▁——
▁通过
不容易
城市的
皮肤病
奇怪
出现的
表现为
计划生育
交警
膳食
公务员
▁第二百
”;
奇迹
跌幅
的其他
ex
▁后
善良
标准房
让他们
存在的主要
现货
用途
ass
了解到
党小组
毕业后
牛皮癣
交通运输
不说
寻求
车内
村卫生所
▁距离村委会卫生所
下一
▁导演
是一部
ue
何时
合肥
客栈
狐臭
甜蜜
VIP
▁八
中等
与应用
你可以
住院
渴望
的双
若干
深受
癌症
长度
▁词条
失去了
研究方向
ly
中考
加以
合资
旅客
心理学
组织的
兴奋
密码
巩固
无痛
极大
珍惜
不超过
的一切
中级
刊物
层面
巴拉
车企
还需要
▁第六章
▁加
早上
贝斯特韦斯特
东部
就连
打工
抵抗
携带
道歉
游乐园
为例
情节
骨干
▁编辑
购物中心
不去
亮点
▁任
▁遇
将来
小龙
干扰
就这样
与其
每月
结论
关晓彤
的最大
▁该村截止
兼任
激情
皇后
终端
首届
交通安全
楼层总数
阿姆斯特丹
▁允许携带宠物
上级
但他
户型
拉克
校区
纪律
蔓延
年开始
成立于
有助于
买了
拍卖
摆脱
是从
过后
▁酒店距离市中心
复产
所谓的
不宜
火箭
值得一提
兰多
博客
回报
基座
日晚
TES
当你
生成
等于
米的
In
出售
无需
精力
转向
还将
的精神
著名的
源于
经销
里约热内
多项
平稳
村庄
管理的
卧室别墅
里约热内卢
买卖
哥哥
幻想
旅舍
落后
达标
特别的
可用
是谁
与人
到期
抵押
类别
现代化
前景
平凡
沙滩
涉嫌
理性
补助
自动化
什么样的
为其
光明
导航
排查
支出
越野
返回
族自治
采访时
▁第五节
ph
塑造
屈楚
引领
衣室
工作室
差不多
并发症
经历了
之时
你就
兰特
而又
诞生
产生了
之上
假如
勇敢
妊娠
我县
本周
查处
▁作品
品牌的
▁村民的医疗主要依靠
一半
会被
方针
而来
对自己
其余
坦克
年份
无为
上网
两米
仪表
招待
转让
一开始
老年人
新婚套房
点击进入专题
ew
战术
此后
采集
▁还有
农产品
款车型
ical
小说类型
这个英雄
出手
爱心
足以
屈楚萧
开发区
时代的
的空间
老师的
岁的儿童在使用现有的床铺时
也都
低调
厂商
推迟
风雨
报记者
蒙特利尔
东莞
乃至
入手
单独
女友
琼斯
蛋糕
运作
重建
▁欧洲
odel
▁双
发热
火车
规格
困难和问题是
土地流转面积
路基
的功能
沃尔
要在
赢得
万美元
多年来
理论与
解放军
小姐
特兰
看得
的力量
原油期货
养护
大胆
神话
ure
▁开业时间
▁Villa
倾向
图案
清除
蚂蚁
车道
里程
是没有
第二次
有固定资产
▁谁
主张
只会
余欢水
名儿童
目前的
存在的主要困难和问题是
党的
后排
弟子
界的
高层
合理的
时期的
礼品店
标准双人间
▁该村现有农户
上方
之为
变动
陕西省
”、
主演
商家
天井
等人
进程
捐赠
起的
女党员
生命的
男党员
留学生
不懂
商场
欧美
水上
要想
成年人
这两个
该村已签定农业承包合同
▁被
不妨
利的
录音
港口
其中土地流转面积
说到
陪伴
▁上海
教育局
更好地
的样子
新型冠状病毒肺炎疫情
一块
关联
大楼
暴露
替代
演绎
生死
工程学院
王者荣耀
发展思路和重点是
ug
聊天
长大
是比较
能力的
这件事
原始
奉献
审美
寿命
或不
这条
进而
韩版
环境保护
第一时间
额外年龄较大的儿童或者成人
上衣
瀑布
看好
伟大的
普利特
美好的
该公司
olid
清华大学
偶尔
平面
放下
社团
租金
进行治疗
侧面
小结
待遇
斗争
方位
框架
自助
轻易
尽可能
的学习
网友们
▁户外家具
一事一议筹劳
▁该村的主要产业为
▁很
乳房
睡床
退出
到现在
发生在
距离罗马斗兽场
eb
▁黑
不行
统治
▁来源
在全国
合金
基督
看似
主干道
的一部
原料
潜力
百货
要知道
最重要的
提供了高级
▁哈
去做
法定
稍微
记住
app
▁同时
是一位
党员总数
今后的发展思路和重点是
▁否
函数
扮演
理学
试图
日下午
目前该村义务教育在校学生
形状
提交
无力
真理
▁干净
研究会
传感
格雷
那一
最高的
大脑
疑似
主要有
哪家
里昂
▁特长
了自己的
,(
发酵
回头
开设
身为
广州市
法则
首尔
演唱歌曲
上周
专著
使其
出租
最有
碰撞
舆论
资质
资额
健康的
公里圣
怎样的
有一天
年末集体总收入
▁j
一台
不必
回事
▁这是
当时的
是怎么
%(
一辆
随机
公牛
勒斯
家电
谈判
质感
首都
▁手提
思考题
ational
▁布
发送
场地
遭到
防范
阳县
▁出处
不断的
今年的
劳均
教程
民宿
中医药
中国人
人民医院
恐怕
赶紧
世界的
布达佩斯
善于
诱发
▁每个客房都配有保险箱
就医
电器
系的
自从
较低
首选
充满了
比如说
农业大学
超过两米
气味不太好
带头
通风
钥匙
高峰
的前提
许可证
▁为什么
▁想
下载
其间
宝贝
融入
默默
的人员
的出现
的教学
注意的是
也让
大灯
太空
纪检
ens
int
可以用
春季赛
▁特长睡床
姐妹
普拉
科普
▁第七章
邮件
ack
▁Sh
了一些
严肃
任命
当事人
总决赛
的日子
足够的
教育教学
▁主产业全村销售总收入
前台
测定
中文网
大规模
回合
弹性
知的
花费
言情
党员中
创作的
给我们
还是要
西班牙广场
富有
机遇
热爱
有收益
会议等方式
别墅酒店位于
▁该村小学生就读到
受益
视角
这套
金钱
高兴
规定的
克拉科夫
值得一提的是
交往
从未
卫浴
约定
重组
面瘫
SCI
大家的
较大的
三次
内在
复苏
夸张
定点
学习的
的颜色
第二百
每个人都
修炼
医护
未经
每周
民生
顺序
首歌
学士学位
▁国土面积
MA
oy
四驱
基建
复制
尔德
指定
酒精
流动性
在前
政务
朝鲜
的分
这对
了自己
拼多多
出席
四年
导弹
巴巴
是你
流传
男生
较多
雷克
工业大学
▁名
主办
女排
手中
扩张
武装
遵化
北方
权力
象征
贯穿
年末集体有收益
▁信用卡仅作为预订担保
水分
联邦
诺斯
进去
也是非常
时预订取消预付政策
水库
找到了
推出了
几种
格栅
见面
询问
钟楼
经济的
一事一议筹资额
事物
变形
四季
在他
科隆
▁de
▁记者
之前的
必须要
北京大学
斯普利特
公示
华夏
投诉
排行
煤炭
祖国
遗传性
酒店评分
聚焦新型冠状病毒肺炎疫情
出院
家中
平常
沥青
行人
身心
能不能
医科大学
me
su
担忧
考古
发布了
还是很
会议等方式公开
和大
备受
总监
昨日
节能
个人的
每个人
较高的
▁闹钟等设施
使命
修道
报考
接到
性生活
TH
pr
▁将
罗纳
负债
▁ch
圣彼得
很多的
可以选择
党员中男党员
ah
不适
共计
后悔
帅气
总局
电磁
医疗保险
不止
会让
帝国
极其
深圳市
科学家
借款
这份
钻石
镇长
▁何
低保
手册
某某
涡轮
电源
账号
重启
有多少
▁汉
男友
针织
时间的
乔治
反思
响应
的名
罗德
ics
最新的
密封
巧网
得上
操控
洗净
界面
专属
国防
热线
转发
有一种
给孩子
和小
开车
要是
oliday
二次
弟弟
暴跌
来看看
巧网酒店评分
▁青
义词
仅由
吃的
自达
▁首发
影响到
▁杜
余人
前进
变更
天赋
情的
意的
所得
摄像
早在
月中
资助
的人都能
一道
传输
分辨
利斯
国会
话说
学生们
已经是
机器人
什么时候
▁防
卡斯
后者
思念
版的
蚊子
之后的
在内的
慕尼黑
南昌
并将
耐心
也非常
所以说
是我们
的优势
三国
哈哈
深化
见证
雷斯
GDP
ech
上报
处长
指令
正面
诗词
部门要
▁艾
出演
祛斑
本基金
没有什么
人性
决心
咱们
回落
增值
增添
威尔
微创
观的
二技能
产业链
管理和
都不会
ions
作为一个
收费是每夜
硕士研究生
if
一颗
下行
介入
兰州
凌晨
外的
手法
沉默
线性
维奇
PS
否认
商店
数码
电流
细腻
追究
Spa
▁如今
▁餐厅好
▁内
死了
被告
omp
仅由楼
▁高层仅由楼
▁高层仅由楼梯直达
不对
之心
古典
某个
渗透
豪斯
可持续
敌方
眼泪
露出
加强对
女性的
▁更衣室
一日
一本
例子
双手
陶瓷
套房酒店
提供了双人间
分会
创立
华人
和你
回国
头痛
抱着
正义
结石
这段
长春
便捷
外语
承办
邓丽君
DC
忽略
改编
政法
新人
oom
▁客房室内电压
▁德
净化
宽度
我说
走到
man
▁今年
▁with
啤酒
小米
担当
海滨
轮胎
场上位置
▁iPod
快递
招标
替补
河内
扩散
扶持
民办
个小时
▁服务很好
家乡
盛顿
见的
这张
年以来
▁额外的卫生间
战绩
礼物
言论
那是
竞争力
音乐基座
▁更多图册
市值
视为
里奥
齐全
%)。
更加的
的核心
等问题
退税点
复工复产
▁农民收入主要以
假期
堤雅
堪称
建于
让她
ite
▁词条图册
引入
激活
山西省
芭堤雅
举措
发起
小璐
年生
有你
预警
▁Al
冬天
困境
士尼
大方
套间
潜在
过渡
LED
实在是
▁懂英文
开学时间
的人都能感受到家一般的温暖
▁萨
万的
供给
进度
把自己
▁夏
中场
asa
经销商
有限责任
▁同
国美
散文
气管
的多
日上午
海南
空中
辽宁省
服务中心
▁单
一对
地形
水中
的声音
这款车
▁如
卫视
姿态
收盘
裤子
鞋子
ial
标准的
演唱会
▁第八章
FC
个别
慈善
在北京
代表大会
设党小组
下线
了几
回顾
誉为
降息
做出了
举报
今后
基点
定制
意志
领取
▁公司
美国的
可以看到
ST
▁*
内科
开工
男篮
的标准
详情英
的可能性
进村道路为土路
不幸
劳务
紧凑
处处长
看到的
迪士尼
发性
弥补
梅西
永恒
说不
世卫组织
▁手提电脑保险箱
;(
才有
焦点
▁附录
一次性
乘客
修建
入门
压缩
接送
江市
电气
肖战
魔法
▁出版
招待所
旅馆都为您想到了
~~
排队
火灾
街头
首批
骨头
如果没有
一支
之内
交付
勇气
拿出
日益
有过
了一下
感兴趣
购房者
占地
奥尔
社科
艺人
要么
ust
完整的
的女性
详情德
消费者的
Ap
一身
再生
历程
放大
热度
雷诺
典型的
无线网
▁其他面积
不受
产后
参观
构造
皇宫
的思想
之人
任职
众所
家园
库里
或成人
省份
行走
重症
铁塔
巴西甲
没什么
相关部门
圣安东尼奥
分解
央视
发生的
可提供
故意
ric
疫情的
的应用
▁Spa
万辆
佩戴
势力
可怕
号线
外线
抗体
热点
发现了
总人口
没有人
维也纳
▁出生日期
克服
军队
嘉宾
职场
题目
开始了
全村有耕地总面积
国家自然科学基金
坚定
希腊
手指
腹部
评选
▁re
先进的
公布的
真实的
解决方案
以便
优良
吉隆
太大
服饰
等的
阳痿
供应链
新德里
▁花
强劲
必备
顶尖
布罗夫
的造型
解决了
▁Mar
布罗夫尼克
每个客房都配有书桌
血糖
马自达
办公室副主任
代替
复学
外部
常识
红花
门店
▁IS
其他的
已实现
建设的
提高了
的安全
▁无烟客房
一时
失误
快的
形成的
从中
伟大
巴尔
延期
一般的
他们在
派出所
生物学
遗传学
布鲁塞尔
ti
古城
开通
想着
有的人
这时候
太过
成效
格里
缓慢
Pro
提供的
条件的
需收费
打底
岁需要
组织部
副本
卓越
普查
注射
穿上
蒙恬
高压
不可以
岁需要加床
▁人畜混居的农户
利息
贫血
只需要
极大的
无症状感染者
AG
ba
za
亮相
写的
夜间
少的
点缀
一个小
▁酒店距离机场
ta
▁让
北部
反射
溃疡
相处
的成绩
生态环境
▁风
参赛
本章
供应商
的规定
▁服务不好
ve
之旅
之际
完了
德斯
时报
引起了
更容易
最后一
▁携带宠物
受疫情影响
出于
变换
最具
泰国
和管理
的高度
境外输入
▁又
会对
兼职
动脉
挂牌
根廷
治安
注定
系数
推出的
甘肃省
做得
执导
水电
画家
简洁
雷达
▁Be
▁位于
吉隆坡
高血压
世间
十几
大盘
小儿
那时
APP
影响力
工程施工
房地产市场
上看
借助
储存
前脸
模具
笑容
编曲
稳定性
▁楼层总数
两者
余年
借鉴
华沙
水面
研讨
紧密
美联储
不一样的
不下
军区
分散
水质
目光
礼仪
隧道
的投资
信念
报表
林匹
已成为
的最后
囊肿
差别
跟随
指挥部
有限责任公司
两天
他还
助力
没人
石头
解说
▁道家
一个是
游戏的
仓储
克鲁
庄园
甜美
遮光
众所周
玩家们
信息系统
有一定的
维多利亚
▁工资性收入
书店
刹车
协同
失调
层的
护肤
近代
买入
喜剧
感恩
新城
欲望
球星
证实
选秀
马丁
oss
检察院
特殊的
科科长
艺术家
与此同时
▁该村目前正在发展
▁瓦
▁立
代码
宫殿
约束
美白
胃肠
太多的
方向盘
件事
哈迈
苏宁
风的
▁好巧网酒店评分
上映
先锋
兰克
商标
无可
比分
的路
调剂
导致的
冷却
分开
名词
四人
夫妇
把它
提起
进化
食堂
▁专家
对中国
我认为
人格
巨头
涵盖
茅台
eth
▁林业收入
OM
RM
▁赵
一带
一方
但却
和我
婆婆
巡视
暑假
王牌
负面
阻止
降幅
饮料
华盛顿
心中的
广播电视
服务时间
▁曾
内里
农场
多名
曲张
格尔
看的
立刻
老城
ana
led
适当的
道格拉斯
宁市
所致
新兴
款的
独自
人生的
是一家
非常方便
不满
丧失
可供
工学
斯堡
朝阳
欢乐
约为
纳税
集市
)、《
房费的
店铺
手游
节省
▁其中
时间内
服务的
硬化的
就是一个
PC
zh
多久
拿着
流浪
深的
点评
球衣
还原
风光
传感器
年中国
幸福的
别墅设施
或双床房
南部
商城
最强
村里
百花
送到
都灵
为自己
第四节
艾哈迈
公寓所有的客房首要标准
京东
会的
依托
家属
小于
情侣
裙子
要比
▁近日
大学的
已经有
粉丝们
了他
升降
印刷
当日
抑郁
生动
运气
可以让
感觉到
普通的
第二天
起来的
身体的
力争
增产
埃菲尔
国土资源
经济社会
义项
威廉
拆迁
斯蒂
洗手
真心
短线
般的
错了
违法行为
加热
友谊
崛起
概况
熨斗
爆料
三个月
杜布罗夫尼克
尔本
指甲
的开
衰老
避雷
长达
与管理
宣传部
的歌曲
距离圣
村内主干道
▁县
不已
无所
短暂
规章
在哪里
奥兰多
收益率
五大
加哥
带货
的全
红旗
诠释
豆腐
阐述
▁行政
就是在
芝加哥
二年
定律
电梯
胸部
高铁
。。。
分析师
的部分
的风险
学术论文
不接待儿童入住
一号
修养
士兵
家庄
很小
文书
永久
点赞
瑞典
莲花
来自于
先进单位
一百
只需
热带
公众号
▁Liu
Km
又能
女王
峰值
早日
的两
蝴蝶
随之
row
出来了
天津市
太阳能
最多的
的人物
会使
克尔
改装
流畅
色素
若是
▁项目
的操作
结构的
张婴儿床收费是每人每夜
公寓一直致力于为广大顾客
一同
发动
回收
战场
支援
旁边
期望
细致
遭受
也比较
交易所
装修年份
ld
不高
刷新
加长
协作
登场
预案
不仅是
的价值
位移
到来
复活
省委
紧紧
DNA
服务时间至
前台服务时间至
地亚
好转
当选
形的
表彰
科学与
笔记本
联合国
在你
大奖
靠近
室主任
讲述了
中小企业
还有一个
▁交通便利
委员会副主任
一会
万吨
信托
初级
卡罗
尔特
床单
档次
水晶
ere
国家和
▁亩
华丽
栽培
流产
牡丹
物价
降薪
李小璐
杜兰特
老百姓
这么多
三级
切尔
气场
的后
豪宅
这项
霍夫
篇文章
都非常
最大功率
了我
产值
均价
抗日
索菲
的一次
占地面积
主要销售往本县
IT
事宜
保暖
草原
菩萨
马特
old
▁企业
不愿
丰胸
区委
提名
相继
已经在
需要的
▁塞
▁蓝
各县
实地
护士
既有
显瘦
欧冠
该校
墨尔本
布鲁日
成都市
畜牧业
建设项目
埃菲尔铁塔
一双
列车
前提
听说
基准
活泼
炒作
立足
落在
这家
大数据
中型
包裹
愿望
手的
清代
试试
颗粒
该村到
众所周知
仅有
发改
扫描
肚子
刚开始
的角度
认为是
圣彼得堡
▁没有加床
▁额外两名
意甲
摄入
符号
熟悉的
真的很
▁卫生好
ournal
""
ER
不堪
几次
对他
已被
手动
杂交
独家
秋冬
莱德
ows
的不同
ib
几何
咳嗽
燃烧
立法
精细
维斯
▁因此
不允许
太平洋
▁整
垂直
密集
戛纳
指示
模糊
绩效
▁步骤
关注的
卫浴间
发表于
是否有
与之
悲伤
正好
乡政府
及其他
合适的
效力于
千万不要
倡导
均线
想想
成份
流入
▁政治
不适合
共用卫浴间
做事
夺冠
导向
当今
电竞
花生
说道
做一个
武汉市
的具体
食品安全
适宜种植玉米
他也
作文
分局
拥抱
如果不
是连载于
TO
抗击
报警
这台
最后的
阿根廷
绝大多数
公寓享受的服务与设施会有
不安
之战
场合
标配
模仿
直至
起步
难免
名成人
新农村
日常生活中
争夺
告知
家堂
水疗
精选
认同
为中心
医院的
如今的
收费的
静脉曲张
一口
为之
出让
分工
取代
增压
年报
幽默
步伐
诊治
▁山景
可爱的
拿到了
本科生
的爱情
里面的
▁第九章
▁时间
的作品
的皮肤
让学生
这一切
▁游泳池景
代价
录像
据悉
晋升
真人
眼镜
而出
高温
cel
▁一般
请联系
遇到了
》;
处分
排放
有害
极端
管道
▁工作
制造业
称之为
等多种
评论区
▁户外用餐区
pt
尼尔
是他
短短
住房以
具体的
port
专项整治
年起
接种
正品
气氛
身影
LAN
▁使用
▁演员
第二个
能力和
中的应用
OL
伴有
宜必
督查
花开
WTI
不到的
的球员
目前该村义务教育在校学生中
].
▁韩
上汽
尿道
庄子
度过
湖人
灾难
美学
原来的
特色的
当地时间
▁雷
抱怨
流水
膀胱
越南
迎接
就不会
意识到
汽车的
的伤害
不够完善
▁餐厅总数
▁唤醒服务闹钟等设施
安娜
富含
得多
栏目
缩短
own
▁性别
在家里
政府的
服务费
篇小说
背景下
还是比较
高等教育
关爱
山县
帮忙
截图
架构
正康
沼气
海关
▁国际
主任医师
科研项目
ss
不清
剧本
合计
拍照
索尔
雅典
▁这些
加入了
结束了
▁只
坏死
对接
开盘
早就
高跟
▁很多
注意到
olog
私人泳池
提供了双人床房
便于
划分
华东
华欣
复兴
打了
报刊
日记
的花
编码
说起
迪拜
如果有
有些人
体检
大地
灰色
白天
离合
第三百
▁景观好
▁注意事项
仍在
偶然
家用
平米
彩色
投票
澳门
和他
均衡
肥胖
脾气
路段
副校长
同样的
是如何
维利亚
过去的
北京时间
治疗方法
不利
友好
简历
美观
看待
真诚
轮回
运转
青睐
年出生
机构的
歌剧院
经典的
个自然村
可以看出
行政执法
外交
实质
常态
暴力
破产
信息的
水平的
流行的
这样一个
▁龙
台北
味的
回去
大衣
极具
标的
真皮
经贸
▁II
产能
基辅
多篇
户籍
副会长
博士后
发布会
和发展
销售额
度假酒店位于
▁此
合一
年任
悉尼
探险
放置
灯光
都说
门诊
▁其次
了许多
商品房
AI
▁光
▁等
含义
安慰
庄村
很久
打印
智力
热搜
萨尔
难得
车型的
一个人的
对阵
猜测
节约
资深
▁团员
内里费
特兰大
菲尔德
这句话
的一部分
不当
但我
切除
唐代
恶性
承载
收缩
福州
脱离
落户
讲话
评审
路灯
。)
优美
公证
兰达
文本
是为
河流
▁城市
在接受
消费券
的人们
实际情况
上演
修行
发文
多夫
嫌疑
很强
有力
标线
▁海滩
调研员
贵宾室
荣誉称号
▁全村有效灌溉面积为
*,
▁)
▁注
他就
促使
刺客
剩余
呼吁
命令
拉特
据说
梳理
眼里
终身
阿甲
很重要
玩家的
该如何
那么多
pe
公顷
司令
给出
配件
骄傲
高地
在网上
宜必思
数字化
爱好者
电动车
葡萄牙
Star
交通大学
▁普
上帝
在其
无比
优越
入境
剩下
北大
开关
爱国
监会
色斑
▁Ar
不好的
目的是
超过了
道真自治
▁卢
众生
元的
爷爷
电信
过滤
这几
门槛
直播间
ty
回升
泌尿
还是有
cc
ix
▁答
▁重
各界
排出
阻力
ish
这部剧
前来
头上
拖拉
极限
橄榄
犹豫
吉林省
研究的
程度的
rans
▁pro
▁其
受损
处在
底部
桃花
特尔
fer
做什么
高质量
不得不说
已经成为
配有书桌
套房酒店位于
ternational
均有
增高
态势
纠正
体现了
都不是
有关规定
做过
受理
太子
孔子
录制
编程
越多
▁英文
与其他
免疫力
打电话
条件下
这款皮肤
co
▁神
准则
惩罚
背包
野生
其中的
唯一的
的车型
的道德
这样一
充分发挥
师傅
橡胶
班子
糜烂
还可
降价
马斯
不确定
个基点
标准化
三星
不算
但这
吃了
同行
告别
大厅
激动
甘蔗
化妆品
的公司
综合征
宾馆位于
特内里费
▁ISBN
中年
块钱
演讲
紫色
min
强烈的
很强的
医护人员
▁因
找不到
曾经的
详情阿甲
▁道真自治县人民政府
唱歌
是用
权的
生气
▁皇家
大酒店
产业发展
AP
中毒
全系
关怀
模样
玄幻
痕迹
见过
iss
都需要
工程专业
te
▁i
烧烤
片区
直言
萨拉
ore
告诉我
能够在
身上的
过去了
room
先进个人
全景
厕所
大使
总量
指引
美洲
▁Ap
活动中
都已经
克力
出品
制片
外贸
打扮
标识
的地
色调
还未
金刚
ung
▁大家
的女人
▁热水好
工程技术
GS
千米
就好
线索
aby
ank
▁阿尔
告诉记者
和社会保障
▁邑
▁郑
发了
机理
诱惑
配上
金价
▁by
▁籍贯
价值观
和生活
▁问
严谨
主导
以内
拟订
柔软
盆腔
纳达
途中
▁目录
▁道勤
区政府
的话题
这是一
ater
▁设施好
▁遗传性
巨星
授课
法治
王朝
肝脏
驾驭
是美国
治疗的
的教育
饮水困难
EV
一遍
估值
后再
在新
就餐
气血
皱纹
脚步
银河
音频
ary
▁身高
在全球
AC
伊朗
向往
听力
奖金
如涵
情人
被迫
配方
风暴
THB
动物园
配备了
村内主干道均为
ON
▁每
众人
却不
变革
山的
省市
职员
西游
黑白
▁而且
收费的毛巾
▁额外收费的毛巾
ml
na
变异
就行
山大
拆除
珍珠
科尔
去医院
安全的
来源于
》)
就把
王建
的他
不断地
也是很
距离大
遵义县
媒体报道
▁餐厅很好
局限
赋予
一定是
呈现出
自然的
▁欧
一手
人人
但也
刘海
外面
奢华
推行
许愿
输卵
各级各
月中旬
营业收入
GL
人不
信访
可达
型号
宁夏
患上
探测
犹太
病症
钢琴
▁代表
为中国
很可能
的房子
相连房
问题和
可提供相连房
▁兰
丁堡
促销
奖项
女装
风云
因为他
基金会
整个人
等症状
背后的
优秀教师
的前提下
zi
按时
洗礼
滑雪
网易
通电
雅泊
办公厅
线城市
节目中
造成了
▁额外收费的毛巾床单
EN
▁卷
千里
变的
增大
学子
安德
投放
搭建
明明
着你
▁La
上发表
今天的
全村共
患者在
的生产
输卵管
发现自己的
▁每个客房都配有书桌
▁帕
分裂
对策
将是
山庄
获悉
身穿
the
相同的
保密
公正
后勤
唱片
场面
外援
安市
很是
想必
标景
沙漠
等职
越高
这座
首个
高职
很简单
的小说
▁Con
交割
前三
化疗
去的
又不
土木
斯卡
旋转
民营
进修
风情
而且还
主要从事
加婴儿床
小伙伴们
贯彻落实
人民代表大会
华中
图形
并对
开水
未知
李白
海上
王凯
这点
没有了
详情西乙
儿童及加床
农户住房以
▁该村设党小组
仅为
决于
史诗
心动
秋季
自带
ara
多少钱
公里巴黎
▁Wang
代言
券商
却被
受害
古老
我和
用法
与中国
主演的
即使是
非常有
不仅仅是
高等学校
书面
你说
动漫
土耳
夜晚
扎实
比锡
炎的
遥测
邮政
高手
不勒斯
的实力
▁Cent
墨西
少了
正如
第十
韦德
”,“
莱比锡
不差
光谱
六甲
包邮
压制
特定
皮卡
着的
命中率
土耳其
肯定是
以下简称
日常生活
给人一种
占农村经济总收入
▁也
万里
检索
淀粉
演艺
看完
美人
告诉你
常委会
政策的
国家博物馆
▁村民的医疗主要依靠村卫生所
安县
科目
常用的
的心态
的道路
综合性
CP
ET
三四
之作
学费
此事
汇总
通路
雕塑
为基础
每一位
的名字
▁去
▁车
协商
平静
旨在
标记
模特
玩具
ies
▁Ex
公布了
年轻的
继承人
▁初
一期
悲剧
满了
看过
紊乱
自在
anc
墨西哥
提升了
的比例
地理位置
农民收入以种植业
OK
情报
氨基
由县
皇冠
空军
莱坞
货架
霸气
按规定
注意力
▁如果你
对自己的
职业技术
国家税务局
大门
平等
患病
排列
新房
武磊
水准
涨停
甲状
纳斯
网页
裁判
其实是
还存在
▁参考文献
▁酒店不接待儿童入住
书欣
好事
成型
持股
撤销
用手
着急
纳米
虽说
yst
取决于
的意思
涡轮增压
一张加床收费是每人每夜
▁作
公用
变为
填写
天后
当作
或将
眼袋
苏丹
金银
内容由
发展和
可谓是
iPhone
我市
监理
结算
阳性
CAD
▁Pl
单位的
即便是
迎来了
信息技术
▁先
一声
亩产
内地
加斯
历经
口的
惊艳
棕榈
这三
镀铬
鼻子
aya
关系的
▁梅
▁贝
他和
倒入
喝酒
彩虹
柠檬
要把
警惕
enc
▁Pr
也不要
甚至是
的一面
▁政治面貌
▁书
两条
住在
宁静
客场
登陆
道光
副部长
开拓者
进入了
管理部门
这种疾病
镇下辖村
该村今后的发展思路和重点是
▁定
免去
公式
复旦
完毕
尾灯
星星
租房
给她
走在
迪斯
个床位
了一种
然后再
的一款
ower
Model
mp
下列
不成
口服
愤怒
着力
LGD
元电视
有不少
来到了
的动力
首歌曲
艾哈迈德
▁吉
使人
区分
反正
司马
对决
悄悄
感和
此类
立场
ica
的文化
稳定的
交通便利
女性朋友
小时接待
越来越多的
再见
到处
占有
繁殖
红灯
▁第三百
▁网络好
张双人床
一所
仓库
元年
出身
周一
拯救
比起
混乱
清单
碎片
脆弱
膨胀
薄弱
中西医
医学会
财政局
SI
ux
不容
由电
管控
ich
人成交
月合约
索菲亚
虞书欣
镇政府
▁据了解
哈尔滨市
提供了豪华
中外
人之
总之
清爽
知识的
统计局
雅泊思
一直以来
亚特兰大
人民群众
▁数
底盘
童年
胆囊
运河
麦克
▁噪音
▁截至
小时候
届全国
partamento
全民
均可
方程
百搭
盲目
道县
不喜欢
才知道
旗下的
副秘书长
医疗机构
尼亚加拉
阿里巴巴
▁作者简介
▁步骤方法
高级双人间
科技有限公司
岁的儿童在使用现有的床铺时免费
印花
好奇
火爆
血症
%),
CBA
▁sh
▁产品
为主的
巧克力
的搭配
酒店及
社交媒体
▁Stud
蓝色清真寺
艾哈迈德清真寺
EI
修订
怀念
插入
明年
晒出
菜单
怎么看
有效地
ax
天才
姿势
延迟
张家
攻略
状元
相差
签署
糟糕
ash
两个月
两卧室
生产的
也是一个
自行管理
果然
而过
伴随着
所说的
拖拉机
生活在
管理专业
ostel
博士生导师
一轮
严峻
内有
升高
投标
有钱
温和
著有
马逊
▁主演
▁这一
全方位
发行的
一定程度上
三是
横向
豪车
违约
要及时
监督检查
艺术博物馆
ee
▁莫
利物
名校
整顿
直径
移植
管辖
精确
裁员
隐私
和个人
平台上
的质量
▁第十章
武汉大学
▁高层由电
▁最近装修年份
▁高层由电梯直达
▁现
杜绝
热的
特价
万欧元
的各种
实施方案
写字
就很
终结
罚款
进气
十一五
甲状腺
为他
干事
支队
概论
毛衣
热闹
衔接
轮廓
防水
ice
哥伦布
宫打车
赢得了
图书目录
硬化的路面
主要种植玉米
ru
一共
光学
华南
心病
排在
时段
格外
▁尽管
在学校
将继续
建设和
知名度
离不开
专业技术
年被评为
TV
不明
仙女
再到
和尚
套路
建材
成品
故乡
榜单
民事
致富
角落
ron
und
▁饰演
了一条
利物浦
时间为
留下的
的最新
自助餐厅
是建立了农村公益事业建设
▁▲
▁叶
▁相
作风
加州
同级
调侃
阴茎
面料
▁制作
动力方面
Al
▁费
▁近
保守
兰德
减龄
加成
卢卡
的起
苏梅
装有
还得
▁不要
以来的
但由于
的时代
都会有
ZI
保安
只好
尖锐
月起
杠杆
正当
洛阳
行李
赫尔
追踪
▁姓名
▁比如
▁负责
▁遗忘
服务器
来进行
公安机关
从前
会将
另有
团委
得好
没了
没能
车子
门户
ase
ath
也需要
使用了
很高的
管理系统
中国科学院
工作领导小组
▁酒店前台服务时间至
AD
▁石
一番
优异
内膜
刚需
各有
圆满
必需
旋律
无效
矿产
福德
越大
选拔
除非
▁现任
的健康
的活动
▁还
一律
不详
例外
少许
暗示
月亮
白云
直属
兰克福
科学历
▁威尼斯
▁+
一九
中南
乐队
切换
她说
左手
晚期
更能
立方
讲座
我知道
指导下
有机会
上路
化解
大事
珠海
粉色
远的
▁Fl
布莱克
组成的
学院教授
常务理事
详情巴西甲
上来
不便
任意
列入
大批
大火
弘扬
条纹
湿疹
结核
马可
▁机场
十年代
零部件
业余
会同
她是
妇产
庆祝
肤色
间隔
圣保罗
旗舰店
有一定
的因素
ML
▁江
商贸
坚强
有无
终止
院士
到医院
实用性
拼音是
是一件
林业收入
的重要性
TA
假设
全区
携手
毒素
犹如
erv
以后的
传染病
关键词
及相关
类型的
自己在
详细的
▁该村目前存在的主要困难和问题是
▁做
▁含
▁学
万达
下属
彝族
恶意
手里
杨幂
注入
答应
一技能
一辈子
是成立了民主理财小组
CN
康宁
感应
无关
样式
猪肉
▁日本
▁这种
几个月
▁道德经
ps
一中
以其
又要
命名
备考
少吃
开创
万元的
十分的
将成为
的生命
集团有限公司
上门
下旬
信赖
机体
水肿
腹泻
蘑菇
豪门
一下子
创造了
更名为
硕士生导师
▁道路交通事故
之力
了个
他对
去看
坚守
大致
折磨
爱我
英镑
蟑螂
避风
▁is
▁这里
已下线
无痛人流
Villa
??
AU
军人
动员
尾部
杜甫
畅销
素材
脱贫
表格
释义
食材
黄河
下一个
改变了
的所有
马克思
▁云
下设
主打
伤心
成名
摩擦
日后
波尔
版型
该车
谷歌
这让
▁伦敦
人体的
红色的
▁佛罗伦萨
历史博物馆
IC
”?
也好
出国
南路
日产
滨海
给您
计生
调解
的风格
公共卫生
农村财务管理实行自行管理
"¥
亲切
信贷
公社
减速
和高
当成
玩笑
男士
ide
分公司
四周
德育
感叹
搅拌
杰克
特里
耳朵
页面
▁百度
却没有
忍不住
▁带阳台
了解一下
副总经理
工作的通知
距离罗马斗兽场打车
六年
归来
磁性
缺失
计量
长久
同样是
成交量
才发现
的知识
之星
小镇
意乙
感慨
村的
相机
矿山
致命
配送
风水
香蕉
副处长
数据的
材料的
就可以了
▁市
▁把
▁经
不像
原有
执业
机电
继科
预售
了起来
出一个
和服务
性功能
被誉为
一层
不佳
从不
发烧
妙的
往事
必定
抢救
提问
肺癌
蜂蜜
调动
间接
事务所
保护区
发病率
更高的
mi
to
▁曲
乙肝
五十
人与
在本
▁据悉
▁第六节
yí
▁乐
▁徐
一杯
世的
中和
中所
人说
合物
处级
外形
序列
成像
浓度
珍宝
短信
附录
高原
MVP
▁英国
就需要
的速度
新能源汽车
ys
不难
余额
外卖
子上
数值
眼神
脱落
苏联
触摸
企业家
历史的
如果在
建筑物
排行榜
现金流
表现出
竞争对手
接送服务费
▁=
▁遐
中部
卖出
吉祥
头脑
好多
定向
精子
面板
复杂的
客户端
不为
低的
无穷
防晒
饱满
▁环境
亲爱的
价值的
大面积
单身
叹息
君子
多万
大哥
尤为
按键
有益
罕见
辛辣
▁传真
巡视员
绝对是
塞尔多夫
血液循环
起点中文网
下车
专职
书写
土豆
已在
抛弃
指责
明亮
测绘
湖景
原因是
多功能
的穿搭
身份证
住房公积金
小平
师资
直升
神殿
较小
▁个人
不愿意
为核心
之一的
如果说
度假村位于
业的
你想
减产
单词
占用
向下
总理
断面
油菜
涂抹
溪镇
视力
长约
另一种
因为在
年参加
的结构
的说法
进行的
村隶属于
▁Journal
于此
交给
多国
对着
川区
精灵
获利
这名
透过
高档
▁所属
依然是
女人的
赛季的
部门的
传统文化
工程建设
海滩打车
▁埃
不应
我很
收视
李佳
瑜伽
电量
讨厌
hem
一句话
大家好
沼气池
等方面的
书院
光的
无忧
是非
有意
杰出
畸形
疑难
迹象
钢铁
发改委
黑色素
特内里费岛
残疾人联合会
公寓酒店都为您想到了
▁十
不怕
你能
侵犯
卫衣
嘉悦
巴特
床上
恶劣
情形
放到
汇报
电台
而后
自愿
花钱
轨迹
suv
做到了
同一个
中午
厂长
叙述
地段
大人
客服
户口
无敌
沉淀
的原
眼球
自律
观音
走过
路易
迪亚
颈椎
ult
再一次
已经被
当年的
每一次
▁浴室好
组织开展
▁道真自治县
ない
一夜
却在
哮喘
学说
崩溃
污水
生猪
的五
纵横
遏制
长得
不同于
会影响
技术和
林匹克
的照片
的角色
的责任
积极的
针对性
▁不适合亲子
两家
也为
何况
削弱
外资
整车
民俗
的神
的钱
编委
试用
高位
IDR
的项目
还是在
发展规划
工程项目
”!
天涯
实务
小白
张伟
柴油
火花
筛选
为主要
可能性
indows
选择上述公寓时
不通
售后
新手
星座
极致
气体
洋房
液体
礼拜
范畴
iew
不准确
理论和
纳广场
▁Inn
操作系统
男科医院
Sh
▁太
七年
互联
伯特
克制
列为
喜来
多彩
房源
托里
日电
武术
气势
法术
病理
过分
报道称
有两个
第二章
遇见你
ites
格拉纳达
。【
一面
之意
传动
儒家
历代
李沁
相邻
翻盘
聚会
视线
▁基本
也开始
留下了
第二届
办公室关于
▁冯
南山
国籍
夜市
字母
损坏
机动
理疗
而非
肾脏
了一场
分辨率
国民党
氨基酸
的人群
间住宿
完全可以
ations
▁购物很方便
PG
▁朱
严厉
临沂
剧组
医务
印发
大海
提及
搭档
攻坚
汽油
用水
科级
蜜月
鲁斯
INR
总冠军
都是在
内容包括
▁整间住宿
人大常委会
家协会会员
值得注意的是
三天
不顾
切成
名额
并于
执着
新娘
牛肉
稳健
自查
西甲
那天
金币
发言人
新一代
资源的
ance
大教堂步行
提供了一卧室公寓
................
▁壁
买车
产物
原名
双眼
实物
所能
测温
碰到
自学
血量
设在
转身
青海
为代表
公交车
各样的
或其他
非常大
手术治疗
kW
▁版
奢侈
星光
通俗
餐馆
▁任务
▁遥控
性疾病
汽车站
胡志明
集中在
按摩浴缸
会是
刘诗
实话
康熙
投影
晋级
流失
润滑
畅通
监护
细分
议会
追逐
阴谋
UZI
吸引力
让大家
妇科医院
工作部门
Th
中单
也曾
岩石
平淡
拜仁
搞笑
明代
率达
而知
inc
会计师
较好的
如有侵权
一分
一阵
北海
卡塔
州的
巴赫
希尔
打法
淋巴
肝病
荒山
遗体
长廊
饲料
上面的
影响了
环境的
市场营销
▁气味不太好
提供了标准双人间
乾隆
人是
伯格
依照
得太
秉承
纯粹
芝麻
过长
遗赠
不会有
亚马逊
子公司
就是要
影响的
中国经济
af
举动
来临
登上
相传
联手
▁经济
下半年
两人的
学生在
一直都是
这些都是
go
不觉
亲密
克利
写道
冷静
前沿
恩斯
打的
报纸
牵头
疾控
累积
蒋凡
见解
观赏
货运
部级
一点点
副市长
的主题
变得更加
少数民族
IF
▁托
上传
别克
参照
有余
腰线
误差
PPO
▁Th
学专业
才能够
的同学
遇到的
接下来的
安心
情怀
时不
熟练
爱上
花了
超声
也会有
医生的
等功能
▁服务好
ection
回购
外汇
无形
涂料
的家
饮酒
▁你的
地亚哥
无障碍
的人才
看不到
红细胞
密切接触
死亡病例
▁次
但不
光荣
八年
分区
地利
开口
性状
意愿
燃料
猎狐
维拉
观测
古罗马
左右的
价格实惠
保险公司
包包
执教
放假
源头
特大
瓦尔
眼中
纤细
胜率
调味
这边
都将
CEO
的整体
许多人
选择的
RS
▁°
▁序
▁词
二者
伊斯
伤口
减免
在意
多为
媳妇
帽子
梅尔
比利
用人
纺织
网课
诺威
进取
会造成
内心的
的一点
的国家
皮肤的
▁西班牙
改革开放
觉得自己
研究生学历
:‘
内搭
分割
奇幻
底线
新颖
残酷
现身
ign
平台的
杭州市
而且在
儿的
加剧
右脚
叶片
带走
救治
教导
社保
红的
脊柱
适时
防火
风吹
ale
▁数据
专家组
修道院
应用于
第一季度
▁装
体积
前方
参谋
填报
年薪
性好
总支
无尽
毛囊
的重
监狱
眼的
空白
约会
触发
违纪
ork
又一次
在疫情
是目前
次会议
短期内
红花岗
自然资源
严禁
仍有
加达
台词
岁时
氨酸
汉典
神的
订购
赛场
阻碍
!!!
本科学历
ystem
全村共拥有
AB
SP
▁非
上场
两委
口感
右手
拼接
支柱
时常
红利
肠道
船舶
节日
邻居
饱和
▁面对
先生的
小朋友
百公里
的意义
第三方
经纪人
葡萄酒
基础设施建设
一书
五一
刚好
千克
协和
城的
座位
怀旧
无锡
死的
海报
肠胃
血清
路径
选举
不符合
饮食不够理想
%-
倾斜
力求
即是
吃鸡
布朗
葬地
ail
ous
▁an
之类的
旧金山
普通人
科学的
业内人士
严格按照
这意味着
距离埃菲尔铁塔
上限
中原
会给
位居
克西
出一
前所
如您
播种
教训
洛斯
韩信
pro
▁la
▁按照
有网友
的心理
的成功
reet
企业管理
其中包括
▁道路交通
▁论
作了
冲动
凝聚
增收
妹子
山村
教会
村级
温州
繁华
考入
至此
财报
走路
金牌
雕像
▁对此
和技术
级别的
▁不可以
这场比赛
▁....
下辖自然村
并组织实施
,,
三维
天猫
天生
帕萨
沙特
法庭
泡沫
诸葛
长了
鲜花
ern
omm
▁应用
了中国
卫生部
可作为
的艺术
这样做
那时候
还是非常
雷克萨斯
每个客房都配有享有风景
不让
不该
之口
体力
入党
创伤
利好
将近
小康
少量
影子
说出
酱油
量化
魔兽
▁也许
在今年
朋友圈
right
▁网络免费
▁桑
买家
公认
再来
塔林
平乐
建国
感悟
杀手
的她
童话
载体
驻地
副总裁
服务业
球队的
许愿池
OPPO
land
一般来说
管理制度
▁夜
丝毫
保湿
博览
可怜
名师
局的
洗澡
用力
繁荣
要多
音响
参考文献
遥感图像
▁章
包围
呕吐
工地
核算
群岛
进食
迪纳
隶属
音效
▁世界
带头人
张继科
的做法
非常高
技术研究
业有限公司
▁河
北美
得益
推理
搞好
攻关
根源
洛夫
过大
金色
ery
ona
内容的
及时的
吃什么
▁标准房
还有很多
一群
中枢
传闻
伦堡
分成
又名
启示
精度
终点
腰带
腿部
航班
起伏
跑步
身后
长征
雪佛
ada
▁后来
塔利亚
外国语
家长们
智能化
的品牌
等因素
欧雅泊思
▁道路运输
共和国广场
▁弗
▁英
入侵
出众
加持
发声
广阔
澎湃
猴子
筹备
西藏
过往
震惊
que
就算是
想到的
搭配上
无疑是
理事长
的一大
高跟鞋
年的时间
生活中的
▁Home
博物馆打车
高级工程师
▁丁
今生
值班
共青
方可
普顿
槟城
澳洲
生姜
瘙痒
登录
的我
立马
续约
配色
uan
与发展
希望能
并不能
雅加达
科学发展
▁标准双人间
▁成
制备
半个
定时
封锁
手工
木材
杀人
竣工
阴影
ree
▁他们
主要的
在我们
新浪网
ition
▁不可以加婴儿床
CO
▁由
▁遵
上年
为准
伍德
僵尸
制动
好人
山路
心疼
提倡
更强
未必
珍贵
科院
缩小
评定
跨越
轻微
▁at
不应该
的支持
这不是
马六甲
▁防过敏
充分利用
新冠肺炎确诊病例
▁郭
一心
不相
开朗
描写
放射
更具
更快
热议
票房
穿出
红外
衡量
鉴别
阔腿
功情况
月毕业于
gl
与你
买到
判决
头皮
夺得
柔和
港元
遍地
及发展
得不到
我们也
电影节
行为的
基础知识
yn
一眼
不来
两岸
倒是
冰冰
外表
恶化
按钮
自救
▁al
凭借着
和中国
知道了
而对于
book
组成部分
一定要注意
公寓都为您想到了
;《
▁乔
三月
五千
京都
合伙
拉开
显现
白酒
立项
跟我
各方面
已完成
确实是
▁豪华房
▁「
之初
单片
双向
威斯
特斯
着手
神庙
荒地
ick
▁体重
举办的
只要你
才可以
父母的
管委会
尤其是在
艺术中心
需要注意
▁Beach

【
伦多
剧场
对称
折扣
波罗
腐败
致使
越好
路人
逍遥
遇上
ons
及应用
环境下
降低了
去年同期
布莱克浦
▁交通很好
▁牺牲时间
笔记本电脑保险箱
AV
▁凯
▁分
▁达
参编
悬挂
浸泡
爵士
致病
谈到
▁壁炉
▁疫情
▁遗失
但如果
我自己
离开了
第一章
iang
作者简介
占农户总数的
世人
光线
在中
无意
避难
当我们
流行病
的危害
胡萝卜
风格的
首先要
▁事实上
从来没有
▁交通不好
EL
▁丹
万亩
伴随
叠加
喝水
室外
开花
房东
故居
散发
检疫
概括
特意
禁忌
谁能
起亚
ook
▁可是
单人床
吸引了
比赛的
比较大
只是一个
大学学报
▁第十一章
酒店仅接受客人使用现金支付
▁@
▁仙
▁方
▁百
不尽
保值
债权
君士
四十
小幅
最美
活着
演练
热量
筛查
虚假
送给
错峰
领袖
君士坦
布鲁克
第三章
高科技
基金份额
▁牺牲地点
的收费是每
分别占农户总数的
公寓酒店所有的客房首要标准
▁会
▁春
供电
名家
器件
多月
标本
核实
纳沃
草地
一体化
加长床
和工作
微生物
第一名
纯电动
这对于
阴道炎
etme
全国各地
混结构住房
公寓酒店一直致力于为广大顾客
分化
分明
发掘
困惑
官宣
常住
日制
演变
的本
穿的
老虎
ese
▁深圳
据了解
是通过
用户的
的一项
的方向
饰演的
▁近年来
▁生前职位
耕地有效灌溉面积为
光泽
导体
布里
性与
样本
泉水
演示
进来
门的
专注于
公安部
和治疗
并且在
我们会
的家庭
这里的
高级房
子宫内膜
这样才能
▁生前部队
▁副
亲戚
吊带
大跌
感知
找出
深处
点点
盘中
衬托
误区
遮阳
阶级
▁苏丹
举行的
办主任
教职工
零件盒
的小伙伴
自动驾驶
副主任医师
▁迷你吧等设施
▁引
保定
尺度
帝王
收窄
确立
联络
这辆
逆转
道口
震撼
静电
▁至于
也能够
先后在
内马尔
慢慢的
是我国
form
ings
▁梁
之称
太太
履历
日系
普尔
纠结
调度
阁楼
存在着
沃尔沃
满满的
不孕不育
恢复正常
药物治疗
的治疗方法
って
出具
剧烈
双重
将对
我都
文中
无缘
汉堡
破碎
至关
这支
重心
不存在
好莱坞
是由于
这个世界
提供了单人间
▁机场接送服务费
:。
了对
价位
内斯
扩建
描绘
暴发
有三
根治
混动
艰苦
西兰
谣言
邓国
个性化
克里斯
功能的
整体的
爱丁堡
的一生
的味道
毕业年级
立即前往
%)
▁向
一汽
交所
依次
保卫
师大
带给
总共
楼梯
泽东
漏洞
矿业
负值
购车
邓世
降至
高低
▁作曲
伦西亚
及以上
投资人
拥有的
的医院
遮光布
整体感觉不错
住宿加早餐酒店位于
▁酒店的房型有多种选择
,”
AN
▁真
上单
事迹
产妇
仍是
光滑
凝血
后人
地狱
开的
我对
排位
某一
次的
盘点
葡超
迷人
高管
魔术
▁Le
他认为
显示屏
相对于
股骨头
农村经济
出入
单曲
意图
我校
质地
趣味
难过
风口
ins
ory
。”《
时间和
突出的
▁安葬地
人才培养
▁立功情况
Apartments
MO
▁情
▁武
两周
两款
候选
出战
分红
异性
树木
浓郁
清淡
论述
走上
arr
不小心
乳腺癌
的压力
的技能
同时也是
▁牺牲战役
委员会主任
内衣
包容
可使
器材
器械
四处
外地
完小
平行
月光
玩的
长相
预告
▁王者
就应该
等相关
乳腺增生
劳动力的
发现自己
科研成果
▁China
分别占总数的
▁格
不分
不禁
做人
加特
原子
夕阳
审理
尤文
扬州
期内
考艾
裤机
质的
贵阳
车载
马来
▁小说
▁德国
微企业
规范化
中心主任
峰值扭矩
温馨提示
真理之口
不准确或不
街道办事处
不着
何处
偷偷
同类
多位
杨紫
火锅
狮子
大家在
的有效
▁Sun
▁含早餐
合法权益
宣传教育
已经开始
球衣号码
词条内容
克莱
又一
地域
大龙
普瑞
睾丸
要说
配音
下面就
展现出
的控制
的音乐
共同编辑
可以帮助
宫颈糜烂
平均亩产
广场打车
格拉斯哥
词条编辑
货物运输
属于自己的
更重要的是
演唱的歌曲
种植业为主
公寓酒店享受的服务与设施会有
iy
▁若
伤病
前者
即时
各方
品味
地带
展望
庭院
性强
恶心
持久
无一
灿烂
熬夜
现已
短裤
老家
行道
输送
产业化
总投资
深刻的
百分之
的最高
使用本人
研究工作
▁百度百科
儿童或成人
周转
州长
开幕
数百
森纳
津贴
美金
行程
诈骗
部落
鲜明
为一体
全面的
戴口罩
汉兰达
参与修正
发布会上
岛已下线
内容由网友
欢迎使用本人
词条编辑服务
不准确或不完善
如您发现自己的
内容由网友共同编辑
如您发现自己的词条内容
欢迎使用本人词条编辑服务
▁百度百科内容由网友共同编辑
一根
不全
口味
想过
打得
晚报
暹罗
歌唱
精湛
贵族
香味
就能够
君士坦丁
很多时候
管理人员
▁家
吕布
备用
市的
整齐
眼霜
禅师
而这
身价
邋遢
额度
小游戏
毛泽东
版车型
王建裕
的到来
合作伙伴
高新技术
君士坦丁凯旋门
▁时
万豪
乒乓
体外
儿女
兰卡
发电
呼应
就此
折叠
早晨
科幻
血脂
道之
夫斯基
月至今
李佳琦
比对照
省政府
▁双人间
堵塞
整洁
有利
较少
长途
难怪
面子
oll
万神殿
不是很
指的是
新生儿
申请人
知识点
▁Sci
▁遥远的
损害赔偿
纪委书记
(《
▁玉
保时
几分
刻意
在那
娃娃
嵌入
年华
手感
敢于
暴击
杀死
欺骗
烘干
片的
美景
还好
进士
道琼斯
可以直接
生产经营
一举
万个
交互
保温
充实
平原
德勒
忙碌
的说
督导
罗尔
衍生
西瓜
贝拉
辞典
▁出场
▁禁烟
喜来登
日报道
是一场
系列的
都不能
▁一卧室
为什么要
天使城堡
就是因为
成为一个
把自己的
人民检察院
:「
ox
▁页
。-
党政
兼顾
分校
半岛
固醇
城县
年限
教你
教科
毁灭
羁绊
观光
金斯
▁演唱
▁然后
上半年
伦理学
保持着
是真的
认识到
证监会
雪佛兰
地方政府
美术学院
一起来看看
先进工作者
▁无烟客房楼层
aw
万字
书的
仡佬
加勒
对战
手臂
文体
注明
的脸
米尼
蓝天
赛区
过高
重重
锈钢
严格的
原则上
我没有
主要包括
苗族自治
额外两名
▁牺牲情况
不吃
主场
准入
出汗
动手
化石
增幅
射击
尼拉
弱势
心思
戴着
暹粒
死后
若昀
%);
性遗传
植物园
近几年
所以我们
社会保障
纳沃纳广场
配有享有风景
?(
中新
光灯
再现
备注
多余
有何
治好
穿衣
负荷
购置
鉴于
在这种
并不会
科技成果
中西医结合
房地产开发
届人民代表大会
by
▁回
万桶
乡长
分级
压迫
又会
外阴
布林
广汽
应在
探究
海峡
爆破
矫正
而被
自杀
进场
▁be
▁本文
▁此前
也已经
烧烤架
病人的
的事实
的真实
迈克尔
通过对
▁布拉格
也不知道
复旦大学
ology
丢失
偏向
其后
几率
自家
译文
远方
选项
道奇
香水
And
▁作词
▁汽车
▁电子
不一定
冠心病
苏梅岛
蓝色的
那样的
每个人的
OG
不小
人对
八一
勾勒
名誉
层层
届时
崇拜
支配
欧盟
滋味
演奏
着重
碎花
跌破
车上
限度
▁公里
教师的
第四章
roid
这段时间
高度重视
酒店位于巴黎
所有额外年龄较大的儿童或者成人
▁像
不等
九年
保利
参合
圣人
忽然
接连
日线
歌声
的白
科室
轮毂
边境
通水
避开
为我们
了一次
人们对
合作社
大幅度
年出版
的习惯
的对象
医学观察
该村目前
交界
先行
制订
名义
天海
天王
开支
淋漓
米塔
绝望
起码
转入
里有
锁定
陆军
骨折
黄褐
▁No
▁人生
完成的
要求的
学会会员
情况进行
▁全村有耕地总面积
▁International
▁诺
人身
我有
旅程
班加
首位
▁An
制造商
和大家
的处理
转化为
▁烧烤架
▁计算机
青春有你
不忘
买的
了呢
只为
国安
富贵
山上
得牌
斯勒
油腻
盖茨
称赞
粗糙
编著
蜘蛛
要做
道州
量子
难点
ier
▁学生
交叉口
体现在
你知道
升降机
回到了
在未来
客户的
年全国
续航里程
内蒙古自治区
▁Resort
cr
”:
▁莱
前行
家村
帮你
把他
抢断
振动
搬迁
更显
的无
装扮
骨骼
▁治疗
基因组
紫外线
起到了
国会大厦
文化遗产
▁第十二章
监督管理局
▁Resid
▁所有额外年龄较大的儿童或者成人
hu
上也
上身
不被
克罗
八卦
哥华
帮扶
并与
惊讶
意料
枢纽
没错
海鲜
解毒
近视
一个个
董事会
面临着
▁道格拉斯
万余
中专
临近
之余
又在
唯有
埃及
小小
已是
忠诚
接壤
漫步
端的
跑车
▁lo
▁视频
创业板
副科长
宝宝的
我们都
的形成
不断提高
▁阿姆斯特丹
Ex
九龙
借贷
几点
当局
急救
把我
排毒
收回
收拾
求职
清热
耽误
芽庄
辨识
▁di
▁有些
但斯克
保时捷
和使用
纽伦堡
还有一些
sp
▁血
不爱
亚军
供水
其在
制图
前卫
启发
大便
失踪
奥拉
学业
强行
消灭
湿疣
眼光
羊肉
起床
醒来
我们将
文化教育
威尼斯广场
作息
你我
加里
妆容
寒冷
火山
珠宝
疱疹
穿过
老化
ood
▁全国
▁网友
对孩子
开启了
设计与
中华民族
未硬化的路面
▁梦
与众
为本
反击
发力
宋代
本着
波段
王鸥
的总
重返
铁道
黄帝
▁相关
不再是
洗礼堂
的形象
的理论
财政部
管理办法
酒店允许客人带宠物入住
一处
不做
仙人
同名
名气
多头
房租
挣扎
斯托
物体
种族
籽麟
陷阱
食欲
MPV
▁欢迎
不低于
以至于
前所未
实践中
小说网
的身份
自己是
通电话
研究人员
言情小说
那不勒斯
金融机构
占劳动力的
可持续发展
大家都知道
主帅
人选
公子
加深
四月
恰恰
等你
频频
风波
OSS
下一步
中文系
太极拳
工作和
应注意
积极性
塞尔维亚
塞维利亚
英雄联盟
货币政策
▁Suites
"(
ms
切割
周五
图斯
接地
江淮
清朝
烟花
言语
逃避
AUD
▁基于
导致了
洛尼亚
温哥华
的一位
的大型
会议中心
距离埃菲尔铁塔打车
AS
上行
不信
之事
低价
做个
把你
揭示
沿海
金奖
颈部
不代表
临床上
之日起
先天性
就会有
心血管
成熟的
打破了
青岛市
高品质
从业人员
▁Hostel
CH
EM
不一
区长
在与
奶粉
绽放
键盘
▁Un
病患者
研究和
贫困村
其他面积
基金项目
有很大的
▁客房很好
宠物酒店允许客人带宠物入住
借口
再用
几百
步入
法人
溪县
的可
目岛
等着
薄荷
过得
▁Cl
居委会
网络上
研究成果
▁个
三百
会馆
号召
国道
明朝
是无
最小
特卫
的你
终究
美味
论证
起诉
转为
ini
▁Br
▁比赛
不小的
创新的
剩下的
历山大
我的心
男人的
的决定
贝尔格
委托管理
熨衣设施等设施
一组
一股
古人
复出
好在
孤单
能为
高山
▁Gr
▁Tr
▁我国
全日制
到这里
宽松的
比较多
领导下
建立健全
领导干部
▁home
古罗马遗迹
杜塞尔多夫
亲人
仿真
公立
大帝
太原
安卓
库塔
改动
榜样
欧阳
淡淡
滋润
烟草
税局
联动
西湖
选育
锦标
ata
乌克兰
双离合
宫步行
特卫普
▁you
产品质量
只有一个
VG
▁谢
。」
加之
宁县
它在
收支
星空
痛经
相识
破裂
麒麟
与社会
仡佬族
的功效
经历过
和平精英
特大号床
新农村建设
▁▪
下路
个子
乏力
他会
美军
课后
贝格
跌至
长生
长袖
问我
。”“
决定了
罗德岛
虽然是
布达城堡
资料显示
arrow
最重要的是
于一
分批
医保
卫健
台阶
外媒
大神
巴克
心肌
报复
胶囊
色列
走的
面粉
▁现代
不少人
也无法
人类的
基本面
还记得
中央党校
城市道路
毫无疑问
精神文明
骨干教师
ction
▁没有热水
土木结构住房为主
▁微
两百
丽的
函授
并无
很长
得起
既是
曾获
术语
穴位
约瑟
花椒
▁学习
分析和
国内的
的建设
肯定会
XT
▁~
上游
位列
光源
党建
合影
在对
天机
局势
差的
求生
滴滴
王国
生前
石材
ino
女孩子
干正康
特酒店
这才是
综合治理
▁图片来源
▁热水浴缸
▁Holiday
**
一无
之王
二代
制约
务必
勤奋
匆匆
名叫
太高
忍受
明翰
桂林
汉书
没事
监局
短板
罢了
脚下
通告
高尚
高清
▁而在
企业和
切尔西
石家庄
特别是在
职业教育
建有沼气池
”

▁常
▁超
事后
压抑
去找
图尔
奔跑
学派
戏曲
才华
抓紧
报送
攻读
旺盛
的金
相较
窗户
者和
营运
证件
长裙
骨科
▁天井
为主题
充足的
到底是
多伦多
就像是
没办法
研讨会
科技感
生活习惯
科技创新
混合宿舍间的
ts
传达
公孙
大臣
怪兽
怪物
打通
新品
流感
爱人
疲惫
ain
▁系统
▁进球
可分为
技能的
比较高
直升机
获得的
部部长
内容介绍
是巴厘岛
▁Zhang
公里每个客房都配有空调
不服
交办
人街
入校
典雅
十佳
喜悦
回暖
国学
在内
悬架
所说
挫折
春夏
标杆
班的
赞助
量产
锦赛
ton
▁不管
万籽麟
于作品
会引起
半导体
在这一
所有人
清平乐
等部门
下达
军团
南通
原著
塞纳
头晕
女主
引人
微微
心目
总值
洋芋
活血
白的
票据
秋天
签证
脾胃
螺旋
适度
锅中
颇有
ari
▁国籍
▁针对
小小的
开发的
的想法
的粉丝
商业银行
培训机构
解决问题
马克思主义
▁Guest
▁冰箱等设施
两国
从容
偿还
全长
冷水
尽早
幕后
异味
悬浮
毛病
赛后
车位
边路
这在
迟迟
靠着
▁Ad
▁发行
▁操作
▁社会
▁这次
伯明翰
呼吸道
处副处长
用自己的
豪华双人或双床间
;“
ef
为我
人造
做成
减退
区内
句子
哪儿
四肢
广电
开播
得不
拟定
日军
有色
热血
落于
讲授
赛车
附件
鼻炎
主人公
依旧是
指导价
最重要
月下旬
收益分配
又被
大王
干预
开局
放开
济州
生化
笑着
紧身
胶原
颇为
回来了
张若昀
斯酒店
的大小
省部级
第三届
而来的
联赛的
这本书
龙目岛
专科学校
医院专家
治疗效果
详情德甲
课堂教学
职业技术学院
苏丹艾哈迈德清真寺
为顾客营造宾至如归的氛围
上分
中断
国立
寻常
比重
深渊
薪酬
警示
首付
会产生
引发了
思想的
投资的
版本的
知识和
虽然说
较强的
控制系统
集团公司
▁不适合家庭
%~
代尔
六个
关羽
干练
排尿
故宫
时要
照射
留意
痔疮
白带
的黑
矩阵
肝炎
药材
行列
长款
难忘
鼠标
com
ild
▁技术
休斯顿
在上海
放弃了
有人说
海南省
的运动
各项工作
EE
二的
几位
发售
当做
当我
征服
所作
新高
火热
烟台
章节
脸部
道真
道经
针灸
麻醉
▁广西
▁案例
也可能
了一件
信息网
就不能
层次感
录像机
摄像头
明确的
等多个
财经大学
密切接触者
农户住房以土木结构住房为主
一首
之美
低温
单调
捐款
收割
果断
番茄
红线
羽绒
而去
接受了
有许多
的最低
管理学
行政区
迪拉克
ated
▁熨裤机
城乡建设
有自己的
贝尔格莱德
的收费是每人每夜
的收费是每人每夜房费的
ea
▁各
▁皮
▁索
」,
中海
丽莎
会展
全场
变身
和对
寺庙
开采
扣除
数的
油脂
的山
离去
蒙德
衬衣
首款
党工委
命名为
在没有
第一位
胆固醇
背包客
运营商
为一体的
全球多国
因为他们
基金管理
很有可能
私人浴室
yl
之以
之子
五官
停摆
国人
天文
威力
尔街
思议
战国
房的
文档
板栗
港澳
生机
短款
门票
ime
出租车
化学品
始建于
等情况
责任制
锦标赛
阶段的
在自己的
尖锐湿疣
资本市场
高级教师
床宿舍间的
爆发新冠肺炎疫情
cl
▁却
一笑
专营
传球
出任
操纵
曹操
来得
的自
腰部
蕾丝
解脱
迄今
还真
ave
哲学家
对学生
托里尼
规划和
设备的
进出口
共产党员
市公安局
户居住砖混结构住房
RW
前排
动感
和新
敬业
祭祀
道法
得到的
未达标
相比于
神秘的
第一批
ount
人工智能
作家协会
视觉效果
进气格栅
edroom
国际机场打车
▁路
三位
人座
及早
堆积
大蒜
异地
有两
游击
的书
舰队
薪资
限于
▁综合
在我国
这些人
这首歌
产业结构
别墅位于
旅馆让您在
公里威尼斯广场
▁电烧水壶等设施
全球多国爆发新冠肺炎疫情
CR
与他
亮的
亲属
人次
光绪
入户
全文
厚度
友情
哈拉
尼古
征地
总队
明珠
梦中
止痛
美股
蓝联
道义
静静
Car
ohn
▁经过
和国家
在他的
给出了
阔腿裤
颜色的
BOSS
哥伦比亚
消防安全
特大床房
环球蓝联
管理学院
▁富
一二
云中
亮眼
出炉
出资
剖析
容积
挂号
教委
时装
残留
火焰
答复
运算
造车
龙王
▁生活
有关的
贯彻执行
▁私人游泳池
疫情防控工作
▁冬
一贯
主治
五行
司职
头疼
宽容
尽力
民进
源自
皮质
色系
闪现
克西姆
奥尔良
必不可
电电机
的气质
的经典
陈代谢
▁出版社
介绍一下
距离圣家堂
▁额外的浴室
还存在饮水困难
▁纳
▁许
一千
你不
只在
吉他
寄宿
对她
我院
机能
棉花
清醒
用脚
电网
百合
组的
轻度
son
▁会议
▁相信
加拉塔
▁厨房好
准备工作
埃尔米塔
过程中的
重点项目
▁场上位置
提供了双床间
村内主干道均为未硬化的路面
兰登
哪种
复式
开辟
异的
朝廷
欢喜
特罗
秒杀
股指
肢体
育人
被打
转债
辞职
边界
里克
hys
▁可以
▁定价
地下水
理想的
等内容
都有着
面临的
冠军联赛
神经系统
车身尺寸
马来西亚
ivers
提供了双人或双床间
公办
所著
排气
早晚
最快
查找
精髓
钢筋
III
▁Sp
▁实训
也算是
也表示
体育场
可通过
我现在
或者说
新世纪
新华社
特有的
的电影
▁客房好
法兰克福
oo
佛法
壮大
并购
日语
是小
格子
潍坊
班长
着实
终极
网膜
节点
中的一
工程系
新基建
普通话
的关注
的意见
立方米
驾驶人
▁有蚂蚁
价格偏高
四川大学
式零件盒
中央火车站
党支部书记
▁沙
▁滚
▁鲁
了好
但从
冲浪
墨联
密尔
息肉
患儿
施行
模板
深夜
的呢
而无
腋臭
腐蚀
衰竭
装配
触及
费尔
长远
到最后
玩游戏
的男人
第五章
享受低保
家庭套房
▁浴室很好
▁生前情况
▁孟
一笔
不含
丛林
六十
对症
强力
拼搏
掌控
日照
时有
望着
核查
沿着
看点
评级
走红
集训
食管
▁Hu
嫌疑人
很安静
我相信
有一次
细胞的
舒适性
专科医院
思想政治
日博物馆
经济增长
";
tr
▁遣
之所
他又
和中
夜店
救灾
晋江
泰山
祛疤
站点
阿布
马甲
▁生日
单片机
意义的
所在的
无路灯
阿森纳
严格执行
学会理事
就是为了
住宿加早餐酒店
埃尔米塔日博物馆
HR
▁洛
初始
口号
台上
右侧
是被
桥镇
田园
病虫
看不
缴费
脑海
误会
这笔
难受
▁no
▁中文
▁习题
▁套房
他表示
可以将
各部门
的文章
还是会
格但斯克
汉语词汇
Holiday
仡佬族苗族自治
净值
大夫
子孙
封面
尿酸
手上
抗议
滩岛
用书
白斑
稳步
纯电
而上
股的
褐色
躺在
转动
镜子
阿姨
马尾
也都是
现有的
的传统
的身材
类专业
老城区
这次的
和洗礼堂
百花大教堂
百花大教堂和洗礼堂
聚焦新型冠状病毒肺炎疫情责任编辑
ka
▁听
。’
下次
世上
做多
导入
无聊
明清
是的
武侠
行使
赠送
近平
黄瓜
在国际
的女生
车辆的
还会有
需求的
道路工程
农村财务管理实行委托管理
主讲
低迷
催化
再说
前途
委屈
山镇
应有
春风
普攻
景色
每位
潮湿
面膜
马路
fic
▁发展
▁外观
共青团
开展了
道路上
正是因为
进一步加强
▁吕
低位
停留
再去
功法
只想
同情
噪声
因果
国足
外来
征集
抬头
流泪
溢价
生病
相爱
肌瘤
遗弃
铃薯
阵营
青训
ann
▁于是
在自己
太大的
完善的
庞大的
支气管
电子书
的一天
的综合
这个人
临床表现
班加罗尔
科研工作
及发展产业
水质未达标
!(
▁史
万科
卡牌
回了
我心
注释
片段
留给
米亚
羽毛
肩膀
车牌
钱的
二十四
代表作
的未来
着一个
纪念馆
短时间内
.(
Pl
一小
伊兹
利普
勇于
年到
并以
度和
得名
戈尔
批判
摆放
水源
率领
症的
红星
维萨
进出
门将
限定
随即
雕刻
饲养
▁人物
习近平
关节炎
微电影
该怎么
安塔利亚
详情西甲
豆瓣读书
微信公众号
提供了三人间
公里西班牙广场
、,
世俗
全家
可视
后遗
四方
大有
宽高
微软
江区
种养
绿地
走廊
这块
长寿
RNA
ero
▁ex
▁新京
▁特别
万亿元
个赛季
张伟丽
人座餐桌
教学工作
最大扭矩
酒店距离
发展思路及发展产业
TE
举例
乘车
全是
尸体
恩爱
手套
抽象
文的
清明
用电
疑惑
石化
花卉
阴性
▁具体
▁此次
停车场
搭载了
橄榄油
的收入
的美好
读音为
针织衫
安全隐患
最后一个
非常重要
▁Street
旅馆都会是您住宿的绝佳选择
一头
不俗
互通
休斯
光电
变迁
城墙
所示
提案
放缓
炸弹
生效
自称
表扬
说我
阻挡
雅思
一点的
你们的
呼吸机
帕萨特
独立的
的一年
锂电池
历史文化
国有资产
地面楼层
客房不好
很多玩家
荒山荒地
高等院校
乡镇道路为
各级各有关部门
)《
▁来
不懈
两张
中之
二维
人际
卖家
声称
带你
抉择
排卵
权限
治病
要看
车间
迪森
▁道真
人为本
只有在
坚持以
是否会
是需要
水资源
的理解
也是一种
任何一个
在线咨询
第一作者
其中小学生
酒店位于罗马
▁受
▁里
农机
巧妙
建模
徘徊
我又
标致
灵感
自有
转折
颠覆
▁市场
斯特拉
时尚感
经验的
食品药品
各种各样的
酒店位于伦敦
励志
呵护
就来
年和
摇滚
江山
深厚
病灶
绍兴
网球
ade
eck
但对于
在游戏
应有的
电动机
的认识
都比较
黄褐斑
也是比较
农业生产
就是这样
核心期刊
简易别墅
▁第十三章
不绝
农家
出轨
加的
助听
取出
可选
品类
国资
坐标
天真
尚书
引资
排量
果实
汇聚
狗狗
站长
要用
诸如
造就
ali
中国画
了下来
其他人
同时还
喜爱的
快乐的
最好是
美国人
脸上的
假日酒店
数字货币
等一系列
行政许可
公里许愿池
BP
au
ào
一篇
中方
代的
加厚
咽喉
图中
帕尔
把手
探岳
本市
等功
老旧
耳鼻
至尊
花的
行星
银屑
间隙
ors
▁推荐
你自己
减少了
制作的
反映了
就读于
是罗马
模式的
的增长
职员表
部主任
受到影响
az
▁康
传言
备战
定理
州区
急需
掩盖
收官
救世
校正
看重
缩减
还款
ley
乒乓球
党组织
半小时
很好地
教学楼
管理者
▁有蚊子
不仅可以
综艺节目
我是余欢水
Ar
dp
丽舍
仲裁
伪装
兴起
合唱
得出
整天
文稿
湿地
苗族
超出
迷茫
▁太阳
▁本章
惠斯勒
是不会
汇川区
世界各地
希望大家
红花岗区
这是因为
▁Deng
环球蓝联退税点
BC
”)
不调
复仇
大纲
实事
歇尔
死者
焊接
特种
筹集
走访
足坛
车头
集合
龙岭
不锈钢
以色列
公司在
半身裙
在那里
家庭的
形式的
抵抗力
教育和
朋友的
材料卡
管理与
资金的
马铃薯
乡卫生院
国家重点
爸爸妈妈
▁景观很好
适合自己的
整体感觉一般
acebook
二期
势必
原谅
地基
多方
岁了
我还
捷克
水田
火的
良性
课外
它们的
对不起
抗生素
摄影师
新车的
男主角
的土地
目的地
凯迪拉克
卫生健康
告诉我们
海滩步行
长期从事
▁该进村道路为土路
在使用现有的床铺时不需付费
▁姜
▁都
兵团
减弱
十余
口岸
名医
后备
大鹅
容器
寂然
左侧
当他
无处
法官
特区
疏通
白皙
看病
美德
育种
该片
说说
选取
▁什么
上选择
为企业
主教练
也是有
卫健委
原有的
对方的
漂亮的
的遗传
老师们
道教的
▁录像机
▁本基金
▁马德里
科学研究
这样一来
ering
▁王者荣耀
上天
传授
入围
听了
国服
学金
流星
翅膀
翡翠
脆皮
con
mer
▁专业
▁热销
市残联
教研室
最强的
最美的
月份的
echn
县人民政府副县长
上是
传出
入市
则为
制剂
回调
大声
导读
将被
小水
就越
带上
底层
廉政
弯曲
心得
情景
拼命
泪水
物料
直观
精密
达斯
食疗
ral
公元前
卡斯尔
参考书
孩子在
迪斯拉
▁Man
▁地标景
可以根据
物业管理
疾控中心
道真自治县
有效灌溉率为
ca
万名
个大
之门
佛山
分支
动人
发扬
哈佛
坏了
塔拉
宪法
巡航
平民
所述
抄袭
招募
有大
永不
游玩
童装
缘分
良心
起义
起草
躲避
较差
避险
闻名
上世纪
以前的
公开发
女主角
学习和
空间的
第六章
oint
先进集体
相关负责人
装有太阳能
▁晋
住户
匈牙
周刊
开门
油画
流出
绘制
腰椎
菩提
衰退
达拉
迈阿
也只有
四人房
在下列
的资金
第五节
辖区内
道德的
▁花园好
▁儿童加床
或水质未达标
提供了一室公寓
▁于
▁摄
二中
四种
土豪
天鹅
头顶
就可
就更
恐慌
我来
提要
散步
烹饪
瓦斯
而行
背心
门派
非凡
iao
out
▁看到
但是他
停留在
生殖器
看不见
该项目
起来了
▁Casa
涡轮增压发动机
酒店位于巴厘岛
PE
VS
▁o
一行
万多
不离
为期
之神
兼容
悠久
想念
打进
拉动
的真
眼圈
航母
近年
OMG
▁南京
▁教育
▁概述
不影响
可根据
多义词
烘干机
物理学
罗尼亚
过多的
目前为止
矿产资源
eStar
CM
万例
不定
之大
共识
华侨
坦言
垄断
大国
大片
官兵
尽头
平房
律宾
德堡
断裂
方正
村人
狐狸
要去
这所
追捧
青山
靠谱
公里处
布里斯
礼拜堂
菲律宾
专业学习
▁Comp
距离苏丹艾哈迈德清真寺
▁每个客房都配有享有风景
一向
不平
丝绸
中性
了两
俗称
倾听
做起
反转
商铺
嘲讽
大庆
大豆
姓氏
富豪
居士
平县
归纳
惊人
拉多
男主
碾压
维权
考上
蝙蝠
诚意
话语
该剧
运会
长发
mac
一切都
也是在
匈牙利
因为它
在治疗
就在于
心脏病
本身的
正能量
的经验
第三次
管理层
精致的
绿色的
及时治疗
我们需要
文物保护
纽卡斯尔
▁基本信息
不错的选择
股骨头坏死
公里纳沃纳广场
万亿
三元
不准
低下
加尔
古镇
呵呵
大巴
征战
文集
新秀
毫升
现将
监委
进军
逐年
ink
保持了
当地的
明白了
经营贷
安全管理
由此可见
标准双人或双床间
FF
be
加那
后世
商户
喇叭
四分
因其
在她
就没
开业
情境
我家
秘诀
腹痛
貂蝉
辩证
迷窟
追寻
uff
▁天津
不少于
业务的
为了让
什么呢
分数线
在日本
对我们
年获得
打造的
的一般
的人气
长期的
中国古代
素质教育
访问学者
布拉迪斯拉
▁卫生不太好
不死
丘陵
中也
人有
势头
外伤
大同
强迫
既能
易于
景象
智商
比尔
沉积
眼科
而有
艰辛
该书
马云
▁去年
▁成语
为广大
党总支
加那利
基本的
攻击力
矿物质
迈阿密
都能够
泳池别墅
▁除此之外
之间的关系
大教堂打车
位于地面楼层
布拉迪斯拉发
建有沼气池农户
▁整间住宿位于地面楼层
旅馆通过提供优质贴心的服务和
ck
gr
▁千
不由
不胜
估算
入驻
剪辑
勉强
外在
多见
存放
学前
差点
廉价
投篮
文人
新村
晓明
环绕
登山
网民
解题
踏实
降临
飞翔
amp
▁内容
▁前言
个义项
使用权
市场中
红灯区
维斯塔
铝合金
也越来越
但是对于
健康发展
请在下列
apter
▁第十四章
上选择浏览
问题和困难
请在下列义项
这是一个多义词
请在下列义项上选择浏览
CV
▁今
▁者
东路
久了
伦特
侵害
做空
可行
基部
如其
富裕
悟空
扶养
擅自
斯图
深情
着我
礼服
胜负
致敬
隐瞒
麻痹
▁联系
一会儿
了出来
原材料
怎么说
支付宝
盆腔炎
相当的
发明专利
外观设计
生活方式
那个时候
BM
▁已
中未
全校
参保
团长
复读
抚养
振兴
排序
有道
来袭
海湾
短发
经络
薪水
赶快
连胜
道藏
雷锋
ios
众多的
停车费
合同的
想要的
的分析
老子的
自然是
领导人
非常适合
▁卫生不好
▁伊斯坦布尔
一副
他与
元气
大米
太上
奈何
应届
托斯
机油
权重
物种
的了
短裙
签名
车速
风采
饭后
饰品
体现出
半山区
参合率
多样性
奥斯汀
就必须
每个月
爱情的
的制作
的费用
积累了
学生返校
实在是太
投资组合
更多的是
旅馆是您来
▁Trans
sc
▁冰
主教
人称
介质
别说
土超
巴斯
微量
打球
晚会
梦泪
武帝
河道
的红
立案
血栓
言之
贴息
赌博
▁简介
的个人
驾驶证
orld
▁from
▁以上就是
▁泰
▁结
主观
之物
倒车
削减
包茎
喜好
图谱
契机
悬疑
感激
掀起
泉州
炒房
罗特
说服
起源
超高
分钟圣
国际化
日凌晨
的身体
直播中
等领域
不可思议
出场进球
我们应该
招商引资
earch
请联系删除
▁玛
▁简
一字
不完
乐团
使之
分娩
制药
受访
商圈
在该
小事
开除
根特
桃源
江县
潜能
狭窄
老鼠
而生
肛门
花花
西洋
规矩
过剩
预备
马里
KPL
ove
▁当时
▁随后
一般在
仅仅是
作出了
做一些
充分的
化合物
因此在
就成了
是一所
的视频
第七章
范冰冰
观众的
视网膜
过敏性
进入到
Casa
TP
三板
业界
中了
二号
住不
劣势
国债
子弹
干涉
放手
教务
汉姆
热烈
的内
肾病
苦恼
落到
跳舞
较强
阿德
ium
了一段
准备好
情况的
每人每
的组织
迪纳摩
绝大部分
该村的主要产业为
UB
▁余
▁校
俏皮
副总
博主
古装
号的
听见
命题
和军
子和
山顶
德鲁
恶魔
生平
纯净
过早
釜山
降温
交易日
伊维萨
叹息桥
大概率
奠定了
安东尼
每一天
的经历
维罗纳
要根据
达不到
中国社会
加那利岛
如果我们
山东大学
常务委员会
双人床房或双床房
▁姚
但其
农药
回避
征求
技艺
柏油
洛克
白糖
知情
联想
苍蝇
街区
表态
表述
镶嵌
LNG
▁原来
因为我
年至今
并通过
得益于
灰指甲
班学习
的女孩
等课程
虽然在
转会费
错误的
附近的
xing
中电电机
优秀论文
建设工作
房贷利率
森林公园
的比赛中
详情意甲
estar
▁浴室不好
前所未有的
两名年龄较大的儿童或者成人
HK
似的
但她
八字
共建
区块
南宁
品德
商人
固化
大涨
子村
宁愿
指向
沧桑
消极
混沌
点亮
短袖
葫芦
袭击
谷雨
通车
重回
▁幸福
▁或许
▁研究
全球化
控制在
日开始
是自己
每天都
的帮助
的重点
避雷器
中国足协
前段时间
建设工程
演唱的一
疑似病例
酒吧总数
OR
SA
cp
▁字
▁能
三家
为她
也对
你还
公约
冷漠
奇瑞
安居
寨村
寺院
尊严
巴德
普陀
朴素
窗帘
组立
越是
透视
非农
▁it
▁今日
▁存储
的事业
的努力
的性格
的父亲
▁Bar
人员名单
和信息化
基层组织
音乐学院
企事业单位
IM
▁义
产地
化身
发票
孕期
将有
废弃
往返
打败
抗战
拓宽
杀菌
歌舞
私立
遮盖
高一
▁中央
▁地址
▁希望
也不用
参与了
戴维斯
的建议
给他们
维加斯
舒适的
在生活中
直播带货
精品酒店
进行检查
主要种植水稻
吹风机等设施
经济社会发展
▁遵义市残疾人联合会
PH
▁离
万千
两边
任免
关卡
同济
多地
学问
很不
无情
昔日
次于
死于
洗车
浦东
消炎
深远
独具
用料
病原
病房
筒式
精通
西奥
附有
韵味
ike
▁历史
代表着
仪表盘
加大对
基金的
控制的
病毒的
类似于
纪念柱
歌曲歌词
泰罗尼亚
▁Chen
▁值得一提的是
别墅酒店一直致力于为广大顾客
!)
TG
rs
’,
▁它
▁秦
专卖
供需
侦察
全真
制成
务实
占领
武警
点燃
玩耍
百里
粘膜
精美
▁我想
不规则
优缺点
多元化
就知道
给出的
舞台上
身边的
贷款利率
龙岭迷窟
EP
mb
▁指
一如
便会
劳斯
北宋
土的
复议
天上
山脉
得更
抽烟
方形
理智
理科
白宫
的海
睡前
衣物
角膜
车门
较长
通往
逝世
道破
野外
res
分钟后
卫生局
商学院
收到了
满意的
高拉特
哪家医院
▁设施很好
公里共和国广场
かな
三名
五菱
传人
原告
唐朝
国米
女方
本村
束缚
水产
清晨
火星
的初
神器
线形
跑到
远处
eas
▁大学
▁审核
▁患者
中心的
后面的
大家对
学研究
拿下了
汉诺威
激烈的
电影院
的一致
约瑟夫
▁Eng
在游戏中
完全没有
年轻人的
心理健康
规划教材
豪华套房
装有太阳能农户
▁齐
一刻
万年
不经
以致
保管
加德
史记
图文
就得
尽显
持平
普雷
索伦
细则
艾尔
路边
遥遥
高点
att
ene
ile
ism
org
▁En
▁广州
优秀奖
增加值
好消息
家里的
我国的
救世主
新闻网
涉及到
特广场
的销售
的需要
优秀成果
位于罗马
这款游戏
还存在饮水困难或水质未达标
仙侠
伤亡
信誉
加点
性命
惠民
澄清
瓦拉
皮蓬
考点
自卑
薇娅
评委
踢球
车队
高潮
erg
一起去
二季度
几年来
是根据
的动作
的商业
的销量
这两种
▁遇见你
汽车市场
澎湃新闻
这样可以
适合家庭
汽车旅馆位于
Fl
LC
七八
万事
五月
伴侣
先是
决议
口语
吸气
存量
就让
巡回
往来
抖音
晶体
渐进
红枣
约克
诱导
贴近
身旁
阶梯
阿水
麻疹
▁做法
▁总结
▁黄金
会议上
华尔街
可靠性
女朋友
很明显
执行人
抑郁症
生产线
的任务
中小学生
体制改革
公共交通
常染色体
新闻出版
简直就是
磁性材料卡
▁反
▁连
上百
了你
亲情
仓位
但它
北路
午餐
华美
大佬
天窗
开团
换代
无名
汉字
没法
温德
的道
直肠
米拉
莱梅
获胜
▁乌布
▁怎么
于网络
避孕药
▁San
伊兹密尔
公里万神殿
公里古罗马遗迹
fl
▁发
事儿
京津
偏偏
古今
哭泣
塔罗
墙壁
夏日
尊敬
山药
开阔
抽动
改建
此刻
潇洒
牢固
胰岛
要从
践行
迷失
追溯
▁就在
▁文章
▁未来
三大杯
元暖气
制度的
副所长
增值税
波尔图
规范性
长滩岛
累计确诊
▁子
▁崔
▁旧
不舍
你有
内丹
几千
她还
小火
屋顶
日落
杀害
树林
站的
篆刻
裙摆
讽刺
路的
重生
驾车
rap
▁Re
乘用车
二十五
企业在
副主编
发现的
可以从
媒体的
平时的
广泛的
有力的
资产的
▁Pla
复习思考题
BO
▁利
上榜
不失
不计
之谜
会更
哭了
巨额
平和
想去
意为
搜狐
明了
有种
棕色
毒性
气囊
溶液
满分
火力
签字
蔚来
违章
选购
err
▁武汉
和经济
度假屋
所以我
甚至还
第八章
都无法
黑眼圈
几乎没有
种植面积
拉斯维加斯
的基本概念
科学发展观
自然村隶属于
SE
判定
北上
参演
妇联
封城
持仓
攀升
时节
有用
液压
牛津
神州
笑话
肾虚
试剂
还算
▁do
▁荷兰
但是却
合作的
是国内
毛利率
第四届
试用期
读音是
负责任
etic
代表球队
详情德乙
)-
RX
之争
你对
全额
动了
坚实
城管
多姆
干脆
德瓦
忧伤
榜首
牵引
画廊
等候
诺富
足联
▁柏林
他自己
任何人
在微博
宁波市
方法和
等各种
雌激素
风湿病
一线城市
切实做好
客人在阿
▁餐厅不好
公里圣天使城堡
▁严
不予
不掉
中说
体型
先秦
养猪
凭证
南宋
和她
处女
婚后
巴士
年月
开往
涨价
湾区
湿度
滋养
瓶颈
电缆
痤疮
白菜
的对
省长
网的
自如
草药
赌场
野区
除外
▁He
什么都
保证金
几乎是
我已经
病防治
的大招
组组长
设计和
一直没有
参考资料
水面面积
这件事情
残疾人事业
距离红灯区
创作的网络小说
之年
人参
传导
剂量
前世
医治
厅长
名列
学与
常有
底蕴
强者
接入
村村
的发
细心
输了
这不
送上
▁编剧
个月的
惯用脚
的程度
这些年
遥控器
里米尼
▁...
大专学历
是不可能
服务平台
轨道交通
OO
一类
一经
以待
农林
在小
日惹
来做
每当
的梦
的面
Uzi
▁Lu
世锦赛
中医院
也只能
休斯敦
分泌物
助听器
和方法
扎达尔
的分类
的心情
的画面
的语言
角色的
马尼拉
中国足球
国民经济
图像处理
存在主要
年期以上
水上乐园
相比之下
采用的是
PK
▁福
下游
以防
南海
后天
在看
多尔
奶茶
扁平
换成
李某
武将
离职
租借
穆里
糊涂
绪论
能把
能有
芭东
草莓
调试
谈话
质押
跨界
雨水
领衔
▁fi
▁wh
▁早餐
▁选择
一步步
不论是
也希望
也应该
你需要
基督城
天然气
开始的
的条件
的范围
两名成人
临床经验
志愿服务
现在已经
生产总值
ference
主要种植等经济林果
zy
▁■
▁转
上月
上架
中西
典礼
冲洗
剧集
向外
哈里
地在
孙子
孵化
户数
投机
报到
收纳
木兰
毗邻
沉浸
清纯
真经
聘为
规程
谈论
避暑
陵王
零食
顺应
专营店
体系的
成功率
控制器
目前已
紧凑型
▁Pal
卫生组织
这是一种
▁Part
▁图书目录
中国人民解放军
存在主要问题和困难
▁道真自治县人民政府办公室关于
La
▁村
世家
个小
交汇
少儿
并为
房费
搜集
整套
方言
是将
本期
欺负
项链
lex
▁成都
▁米兰
一年的
主教堂
会显得
会选择
全社会
尼克斯
更适合
的感情
脑血管
认真的
还不错
▁Car
快速发展
航空公司
▁热水不好
已实现通水
一说
万象
丰满
丹麦
主宰
之三
停产
加分
合力
墓地
好吃
差不
拉升
拨打
脸型
表皮
趋于
返场
违背
食宿
高专
龙岩
▁这样
不过是
兰登堡
变化的
增加到
往往是
所得税
指导和
无所谓
是不能
的人数
的办法
说什么
马拉松
高性能
▁很安静
勃兰登堡
客房总数
虽然没有
▁位置安静
理论与实践
ae
iu
▁查
三千
二世
互补
亚当
你看
做饭
克的
全天
劳累
否定
国乒
意向
散热
每桶
活塞
派的
莫名
菲特
西蒙
赛中
高腰
鱼尾
鲁班
▁四川
▁让我
和孩子
嵌入式
的单位
的局面
的用户
▁滚筒式
也是如此
位成年人
圣地亚哥
意义上的
▁巴塞罗那
和计划生育
组立式零件盒
▁滚筒式烘干机
全村共拥有汽车
ND
▁飞
东海
之二
全能
写在
卢浮
只见
号称
大阪
天内
奇葩
孟买
学霸
小虎
山地
底下
无不
无声
树脂
沿线
火了
置业
肉类
背部
迫切
酒廊
酸盐
颁奖
风味
ote
▁只是
上市的
该村以
ISBN
ased
梦幻西游
自主品牌
西班牙人
中央电视台
▁豪华双人间
公里君士坦丁凯旋门
▁道真仡佬族苗族自治
▁沈
三部
住所
克里
名牌
哺乳
坎坷
大腿
将为
小伙
帕岸
平装
应付
建华
拥挤
支行
无视
曲折
来回
格纹
灯具
老大
蓝光
货车
遍布
ros
▁Wu
▁无论
▁邂逅
▁里昂
与环境
代表性
在使用
多万元
对人体
效果好
消息称
系统和
观众们
路易斯
ella
但是如果
▁City
▁Mark
▁Room
勃兰登堡门
两项
化了
升学
去掉
奥德
应力
德华
格斗
测算
游览
磁场
笑了
膝盖
解散
让其
赛道
足迹
较量
阵地
any
seo
wit
▁喜欢
▁曾经
了一套
二十一
和他的
局比赛
民进党
理疗贴
的两个
计划的
赫尔辛
▁这样的
科副科长
税务总局
维尔城堡
▁第十五章
酒店接受的银行卡类型
SS
▁信
下肢
之夜
乾坤
传送
元件
十月
华语
司长
吉尔
国企
定量
开办
强悍
或有
曙光
灵敏
的头
私募
签下
缺口
美居
芒果
误解
首轮
高分
App
▁总之
▁科隆
不利于
不清楚
仅次于
但他们
作品的
保证了
决定的
大自然
新时代
最适合
的一本
第十二
银屑病
▁Yes
特酒店位于
距离罗马斗兽场步行
二月
南开
变色
图的
在心
德罗
攻速
治国
涉外
相见
见效
话剧
ven
▁De
他人的
分析与
区块链
后遗症
新东方
根本上
比利时
汉普顿
济南市
理论的
的来说
给人的
中国当代
其实就是
如果不是
社交平台
这些问题
存在的问题
适宜种植水稻
▁设施不够完善
每个客房都配有花园景
RO
da
▁孔
一脸
不息
做工
典范
功德
双腿
售楼
对冲
整整
更改
比喻
毛孔
海绵
特长
的很
瞄准
虚弱
街上
诉求
诚实
遨游
采矿
顶配
acc
ake
isa
▁参加
▁商务
也十分
也因此
二氧化
住房和
公里的
制定了
尔多瓦
意义上
所有人都
还有什么
ccess
中级人民法院
Un
▁空
▁魔
不惜
专人
乐福
住建
全镇
化为
医用
友们
听取
堆放
川县
念头
恰当
标注
每人
河口
洪水
相思
米饭
结实
胖子
脚踏
议员
评议
跟你
通胀
韭菜
魁北
鲁迅
黑马
▁语言
不要太
只是一
员工的
和家长
夜总会
失业率
很快就
成份股
第一天
运动的
uest
▁第七节
以及其他
副研究员
在这样的
市场经济
积极参与
道德教育
很大程度上
SH
▁q
▁广
不留
主机
会把
公关
半夜
卡比
口袋
同等
大一
对了
封建
尔巴
开着
或多
捕捉
格勒
烟叶
略有
芙蓉
莱切
贝克
贵人
赵小
▁纽约
▁进入
和学生
太多了
思想家
日消息
现如今
的权利
的美国
也是可以
投资策略
自然保护区
进村道路为土路路面
▁/
专访
习俗
传祺
分期
创下
墙面
山林
年中
慰问
数目
旅店
既往
昭君
更要
比萨
燃气
特产
痊愈
蒸发
设想
评比
迷惑
香榭
ode
way
不免费
但我们
在过去
的评价
第十三
而成的
若房费
阿拉伯
▁道康宁
不少网友
中未包含
全新一代
联赛等级
该村截止
night
不允许入住
若房费中未包含
gt
中途
之法
他为
传来
修理
共鸣
加固
后代
尽致
工农
数千
文史
斯的
时而
昆虫
星球
极度
江镇
泡泡
真爱
绿豆
赞美
轰炸
通关
门外
马赛
","
▁西乙
不合格
中学校
为学生
体内的
展示了
带领下
新赛季
是一本
最大化
的地位
的趋势
看一下
类似的
营造出
魁北克
严重影响
新陈代谢
行政处罚
是一个汉语词语
▁流
一池
凡是
华山
南阳
印记
反光
商会
孕育
学区
徐州
拳击
普里
果树
点位
直流
羊毛
自豪
觉醒
议题
责令
车尾
逃离
阿雷
首家
上网课
不稳定
了一张
但其实
区域内
有一位
的一条
说明了
避免了
实体经济
很多网友
截至目前
月经不调
公寓式酒店
高级双人或双床间
▁打
不振
事的
储物
兴建
写了
多达
奇特
嫌弃
字典
巧合
思域
换挡
时长
构筑
示例
科鲁
经纬
缘故
聘请
胡椒
诸子
▁Ro
▁主持
也同样
住不炒
你觉得
对应的
开玩笑
当选为
我们是
我可以
时尚的
曾多次
的梦想
的都是
米歇尔
风景区
一般都是
动力系统
圣托里尼
晋江文学
最好不要
局党组成员
每个客房都配有市景
一文
出家
勘测
名声
固然
国庆
多米
女星
学系
封印
就说
尿频
年由
未婚
民航
滥用
牵手
由来
编织
而他
股民
起飞
跨国
顺畅
香气
ise
les
会发生
大衣哥
将自己
展现了
惊人的
文化和
有一点
物质的
的学校
的营养
能够让
还包括
陌生人
plic
▁有蟑螂
▁贵州省
中国市场
可以达到
奥林匹克
详情英甲
香榭丽舍
圣母大教堂
属于半山区
一世
与否
世代
丰收
便可
出装
动能
博格
原地
县的
后在
周岁
并被
归属
数额
早早
明日
海东
答题
筹资
索赔
航线
西路
辟谷
雷恩
露天
▁塔林
▁避风
东南亚
人们在
副镇长
婚纱照
当然是
必须在
总公司
政治局
运动鞋
个村民组
在线教育
居家隔离
距离大英
公寓让您在
岁不允许入住
▁圆
三缸
主线
俄超
加装
天道
往下
慎重
文科
时任
期末
歧视
沪深
海边
爸妈
特质
王某
礼貌
称呼
逾期
道明
二十年
区域的
小孩子
式设计
支球队
是我的
游戏机
球员的
目标的
精神的
视觉上
还不如
▁什么是
房住不炒
浙江大学
▁Chem
▁与此同时
丁汉
万家
三中
业态
倒在
大局
弗洛
新京
日渐
曾被
松弛
楼的
税费
能使
自古
该国
通勤
那年
防空
难关
风衣
ver
▁印度
丝毫不
产业的
体育馆
作用的
俗话说
保持在
和军械
常态化
有问题
的情绪
著作权
一级学科
死亡人数
研究决定
金融危机
儿童和加床所有
we
▁行
▁霍
二百
人畜
其为
切断
后又
奥特
字塔
布雷
延安
托尔
早年
月上
未见
校级
歌剧
生肖
的第
红尘
绯闻
试卷
输给
这波
鉴赏
防腐
预定
BTS
ffi
倾向于
战斗中
技术与
排名第
无线电
永远的
济州岛
的最好
遵化市
▁北京市
和军械馆
淋漓尽致
详情意乙
珍宝和军械馆
科技进步二等奖
DG
▁导
一枚
中职
争论
免税
六大
刚才
卡特
可想
吸取
品的
填充
声乐
患处
放宽
激进
留守
芬兰
身处
轻重
那亚
陵园
ool
ual
▁不是
▁孩子
一生的
不只是
他已经
以为是
制作人
基因的
女演员
就好了
来形容
漫长的
爱的人
的法律
的秘密
经营者
辨识度
▁Ant
世界冠军
搜索引擎
生产企业
艺术学院
我们都知道
▁道路交通安全
主产业全村销售总收入
▁深
▁潘
▁雪
下巴
之城
仅供
仍旧
传销
失落
店的
承德
明尼
派遣
白领
祈祷
而易
谎言
轩逸
间距
青铜
黏膜
get
ott
▁国内
仍然是
以下的
会成为
妈妈的
打底衫
无新增
时间里
独一无
的类型
的观点
采访中
也可作为
多吃一些
esign
iversity
别墅酒店所有的客房首要标准
"、
▁瑞
▁麦
万怡
不光
低点
余亩
克雷
兑现
变了
固体
她和
如来
已于
底的
延缓
拇指
招收
收于
昭通
梅花
款项
涌现
热播
用量
痉挛
穿透
立交
若有
螃蟹
还被
阻断
预报
▁万元
和支持
圣母院
她们的
完成后
引发的
影视剧
拥有了
最主要
目前在
节目的
阶段性
▁遵义县
圣母教堂
教学质量
本科毕业
汉语成语
社会各界
▁卫生很好
▁第十六章
的工作人员
名儿童或成人
县人民政府公众
淋浴设施等设施
ze
▁片
下手
为宜
五通
交谈
们在
像素
党内
入睡
全会
兰萨
内置
发光
喝茶
嘴唇
四级
填补
壮族
往前
微型
挂钩
推测
最长
河村
洋葱
清澈
特雷
男装
磨损
纳德
落下
贯通
远古
退还
陈旧
雅阁
默认
EEE
ire
一些人
你怎么
发展到
只剩下
和一个
在家中
效果的
新鲜的
更何况
环境中
第十一
而这些
国有企业
道路交通安全法
:【
Su
▁星
▁沃
你也
勤劳
南瓜
吸睛
和非
塔纳
换乘
生了
相近
要对
赛的
这只
遗留
防线
阶层
顿时
领悟
▁――
▁医院
▁女性
不会再
交易的
他们是
公孙离
托马斯
杰克逊
状态下
的事件
的交通
责任人
▁维也纳
作为一名
智能手机
最大限度
职业选手
范围内的
豪华品牌
为大
之类
前十
劳德
博弈
品尝
夜里
小板
川市
愈合
本是
渊源
眩晕
给力
苏轼
道格
青龙
颁发
高出
ano
itt
▁就是
了这个
借款人
就行了
是国家
最喜欢
正因为
的组合
纪念塔
耳鼻喉
说实话
这三个
这部分
..."
妇科疾病
正式上市
胶原蛋白
该村属于
通知如下
公寓式酒店位于
▁库
下班
全线
共分
其所
助手
勃起
太难
宝贵
很低
托管
斑点
无非
枸杞
气功
汇编
牛市
疙瘩
美化
观望
语法
过年
遮挡
”——
▁罗马
▁老子
▁自由
▁韩国
也只是
女人味
小水窖
就比较
来说是
死亡率
病虫害
英雄的
词条由
说自己
ency
可以使用
宏观经济
希望能够
教学成果
更多的人
的主要原因
人力资源和社会保障
FL
PV
不合
互助
例题
储蓄
到家
契合
定为
对线
将从
恋人
无缝
本的
权证
泄露
然的
脑袋
色泽
造价
间断
隆鼻
骨质
One
ani
克萨斯
全明星
只要是
大城市
极高的
表达了
过程的
农村居民
工艺美术
流行病学
马德里王宫
固定资产投资
提供了标准房
农民收入以种植业等为主
de
▁考
▁陆
三改
上千
之源
他将
六月
叙事
圣诞
天子
手足
收敛
真情
累了
花样
茨堡
解锁
达人
还需
连线
露娜
oci
▁爱情
▁软件
万左右
不具备
亿元的
他们会
千万别
各自的
和安全
困难的
康福特
彻斯特
我还是
理事会
第一部
第九章
经常会
近距离
音乐会
领导的
高级感
工作方案
本身就是
的一系列
让人觉得
一般情况下
采访时表示
距离布达城堡
▁知
▁追
■·
三点
佛寺
偏离
十条
古堡
国画
坚信
张扬
必将
招牌
揭开
摧毁
无常
无愧
服从
极高
樱花
汇率
汗腺
满贯
维度
花鸟
长腿
陈列
陪同
需付
高额
黑客
WWE
▁内饰
▁创建
▁开本
些什么
制片人
可能在
委书记
帕岸岛
总工会
环境和
现实的
的成本
皮肤科
黄色的
able
oran
因为疫情
基金经理
规划设计
队伍建设
距离威尼斯
早到入住时间
镇党委副书记
别墅酒店享受的服务与设施会有
wh
▁编
▁魏
他曾
佩服
全美
兹南
化和
奇的
师从
戒指
文旅
晚餐
灵宝
白起
的单
直辖
相伴
纳西
美瑞
者在
赶到
起初
逆袭
▁曾任
一直都
小程序
当中的
心灵的
的一家
的专家
的老师
经济师
这几年
银行的
体育锻炼
劳动模范
县公安局
发生变化
子宫肌瘤
官方网站
市场份额
教育工作
日出生于
inese
危险化学品
▁Plaza
每个客房都配有暖气
VI
cd
不甘
主营
偏方
农历
受贿
失常
定语
寓意
开封
报销
排骨
法拉
湘潭
申购
这才
颇具
orn
▁截止
很适合
手术后
打出了
深厚的
的开始
的模式
的衣服
表现在
证明了
ther
▁实际上
了一系列
你会发现
大多数人
教育学院
经营管理
表示自己
魔兽世界
press
提供了客房
有什么看法
BU
▁辛
也从
也算
了近
初恋
办案
启用
宝藏
尼科
拉丁
无私
汇集
测评
班人
盐湖
看书
稻瘟
美感
脱颖
莫斯
菠菜
迪克
金的
阐释
阿斯
阿特
雷霆
霹雳
领军
飙升
高价
龙泉
ame
▁只有
也成为
参与者
和企业
奥地利
的女儿
短视频
给学生
蒙马特
----
▁俱乐部
▁很多人
。。。。
为代表的
原油价格
教育培训
治愈出院
百货公司
纪检监察
距离商业
东京奥运会
县人民政府公众信息网
▁关
一出
以北
伽罗
再也
性地
救济
朝着
用以
要将
车祸
▁备案
不莱梅
农民工
同志任
委党校
文明的
旅游业
的数量
蘑菇街
赵小棠
这几个
amil
人均收入
▁第一百零
▁第十七章
新闻发布会
别墅酒店位于巴厘岛
别墅酒店都为您想到了
度假酒店所有的客房首要标准
uk
亦是
兵线
后台
嘴巴
在乎
存的
完工
宽带
就去
往年
得住
找回
放学
日出
服药
杆菌
村是
桌子
温水
真菌
红斑
调和
陪你
高雄
eld
▁后记
▁土地
▁活动
不能够
候选人
功能性
新一轮
普拉多
民政局
添加剂
羽绒服
设置了
说的是
不知不觉
为什么会
公用浴室
地质灾害
所带来的
没有办法
行政酒廊
计算机基础
床混合宿舍间的
职业足球运动员
度假酒店一直致力于为广大顾客
户还存在饮水困难或水质未达标
)“
──
下垂
乌布
交友
亦有
体操
修真
全局
内障
划算
回首
天师
如意
宇航
宫廷
影院
显微
每亩
渔业
漫长
生子
痛风
纵观
置换
职于
背叛
赞同
道林
门前
ble
oly
▁客户
一般是
下面的
不仅能
不过在
关键的
准确的
复印件
景观好
有很大
由中国
的产生
还能够
道尔顿
都应该
eter
jing
不确定性
瓦伦西亚
电动汽车
这样的话
发展和改革
Android
":
▁曼
下发
下山
两只
休假
低头
厨具
天线
好吗
完后
拿来
放量
敦煌
汉超
灵顿
玛格
相逢
稀有
纠缠
脉冲
补水
视镜
试行
说他
踏上
道和
随身
顺势
黎明
▁所谓
▁法国
你是否
刺激性
发生后
对身体
小时内
应及时
很不错
的智慧
而导致
iver
macd
▁You
▁性价比
▁胡志明
政协委员
经济技术
中国人民大学
▁◎
一到
事发
京城
伦斯
健脾
公厕
受阻
园景
在县
威海
当场
性交
总站
推特
是其
痴呆
米克
腹腔
药师
菠萝
转速
过硬
限量
颁布
鲨鱼
▁为何
▁品牌
中长期
养老院
几年的
十足的
学会了
往往会
温州市
的背后
选择题
▁家庭间
发布公告
网络安全
职业学校
性功能障碍
公里真理之口
在使用现有的床铺时收费是每人每夜
▁佛
中被
乳头
全都
冶金
勘探
向东
大体
头条
存活
富国
对立
将以
就想
平坦
当当
或缺
换了
旧城
波利
熊猫
百家
盎司
称作
网购
考证
花朵
车顶
邓伟
配偶
酸奶
饰条
龙门
▁Fi
▁不仅
但现在
分布于
只能说
并进行
我爱你
手中的
打造出
持有的
最容易
有意思
每年的
波兹南
温暖的
父亲的
首先是
不可避免
分钟左右
阳光海岸
具有一定的
宾馆所有的客房首要标准
DA
sa
wo
▁通
】,
下身
冲刺
到大
发货
唯美
妮莎
富力
山景
快船
情愿
推销
新风
段位
海口
管制
至上
药店
蓬勃
订阅
说来
课本
配角
馒头
oft
中控台
可以使
的区别
的好处
课堂上
一池三改
资产管理
针对性的
高职高专
博士研究生
▁Science
不畅
价钱
企图
光芒
华北
又将
反响
和镇
商量
密的
工信
弗雷
总有
改良
明月
春装
极了
汤姆
湿润
热火
率高
纸质
誓言
重型
门托
上来看
也有人
了一点
云计算
可以把
好好的
必要时
研究与
达拉斯
▁Air
副调研员
效力球队
族自治县
目前已经
职业资格
至关重要
详情墨联
三卧室公寓
"

三峡
之分
了她
亮度
人也
伊尔
侦查
口气
哈特
嘲笑
坝区
天之
并向
得的
意境
昨晚
求助
潜心
端庄
翻炒
聆听
范儿
薄膜
调入
跟他
迁移
龙湾
olo
▁Ph
▁备注
不舒服
中青年
会更加
同时在
婴幼儿
或其它
斯蒂芬
癫痫病
精神病
都喜欢
都是有
中共中央
为自己的
以人为本
共同努力
办副主任
培养学生
应急处置
微量元素
的人来说
集体经济
非常大的
▁作品目录
学院副教授
水泥混凝土
优秀共产党员
这间客房不可加床婴儿床
度假酒店享受的服务与设施会有
RC
▁u
乐器
以求
儿科
勋章
反之
后被
呼叫
和水
围观
城南
塔尔
安妮
密斯
开头
悬念
毛发
浓缩
直销
置于
肇事
肛肠
莫拉
试题
贝尼
辨证
道勤
都想
铭文
阅览
陈某
领口
鸡肉
▁as
▁下面
三年级
不完全
二维码
单纯的
在这些
处理器
慢慢地
消失了
的汽车
艺术的
书法作品
初三年级
将自己的
来自网络
法律责任
生长发育
非常好的
▁该进村道路为
▁该村的主要产业为种植业
Le
▁强
▁或
▁遂
两地
产出
停滞
全员
利兹
卡通
双子
大唐
子牙
布斯
战神
文联
有心
村落
此举
看房
知晓
细细
自强
英里
萃取
读物
这片
适中
量为
除去
首饰
▁人口
▁电影
▁那些
以及对
才能让
是多么
特定的
王柏林
疫情对
行政房
规模的
设计上
部分的
采取了
集团的
▁Par
全球经济
兰萨罗特
制度改革
副巡视员
发送给您
尽量避免
行政套房
▁酒吧总数
国家和地区
ization
村委会下辖自然村
li
万一
两点
为道
之于
区和
召回
吴哥
喷泉
在做
孕妈
徒刑
查阅
河畔
深层
用房
等同
经期
缺席
胞胎
苦苦
藏着
补肾
见了
譬如
读本
遴选
银色
RUB
▁之后
▁遗产
▁都市
一对一
为客户
卡尔斯
市政协
怎么做
所需的
现阶段
的有关
的理由
稻瘟病
综合症
葡萄糖
不必要的
博洛尼亚
吉林大学
方式公开
比较好的
联系方式
规章制度
配置方面
非机动车
项目建设
主要是因为
村民委员会
自己的身体
行政主管部门
▁Studio
岁的儿童一张加床
岁的儿童一张加床收费是每人每夜
▁保
上次
专心
人情
何种
全网
农庄
变量
向来
品位
地价
已然
带到
拉长
改正
整容
时隔
清净
生鲜
红楼
结尾
维尼
综上
说着
逃跑
酒厂
问世
间盘
顺化
飘逸
高贵
▁he
▁这款
但还是
健康码
新媒体
有趣的
椭圆形
男朋友
研究室
社会上
第十章
能力强
足球场
都觉得
▁双床间
中国女排
作品简介
医疗服务
这么多年
这款车的
这篇文章
▁第十八章
公里每个客房都配有禁烟房
与我
为民
亲近
内设
写出
减持
千瓦
吉安
始于
实效
平板
弥漫
心智
恰好
悲观
木屋
潜艇
特级
硬度
红薯
网点
脊髓
蒂巴
远近
道岔
遗漏
金星
闺蜜
限购
▁每天
▁编曲
▁遥远
与现代
他就是
关心的
凯美瑞
因为你
就不要
延续了
支队伍
新三板
方法的
日晚间
最初的
甚至连
的第二
看电视
轴距为
长沙市
随时随
领先的
ysis
▁And
▁VIP
世界上最
医务人员
常住人口
经济学家
野生动物
革命烈士
黄金海岸
香榭丽舍大街
体能
充血
初心
助教
双层
同胞
声誉
嫉妒
对该
情歌
戒律
拦截
星辰
母乳
波音
热心
电站
督办
空的
节课
蒂芬
过户
逮捕
雨天
馨予
高脚
ats
▁家庭
工学院
有两种
消费品
示范区
等专业
自媒体
高新区
ural
▁英格兰
另外一个
新奥尔良
详情葡超
ution
专营店最近
养殖业为主
▁带私人泳池
▁凡
」。
して
三菱
劳工
县治
周二
均在
尼日
护盾
支架
景德
曲目
月刊
植入
波浪
灰尘
爱尔
王的
皮炎
缓缓
萨克
表的
赫特
过着
问答
首部
ett
▁香港
一般人
了一批
交通局
今河南
兰卡威
在去年
增添了
新中国
朝阳区
的业务
西安市
通电视
遭到了
采用的
▁Sch
▁意大利
不是一个
两个人的
主要用于
亿美元的
医疗卫生
可想而知
城镇居民
文学作品
水泥路面
突发事件
▁出版时间
专业委员会
公寓是您来
世界卫生组织
BS
两面
交替
享用
人头
伊藤
出不
意想
气和
溶解
热力
现行
瓜子
界定
的张
草丛
西山
路虎
集结
ala
▁yo
。——
一直到
不足以
中含有
从一个
从而使
信号灯
充电桩
几十年
后期的
和完善
在选择
如果能
拥有着
期徒刑
标志着
水平和
特点是
的实际
等多项
佩戴口罩
定点医院
应急预案
是最好的
本章小结
越来越高
▁游泳池好
标准大床房
的收费是每晚
演唱的一首歌曲
ny
一间
主攻
以南
低端
傍晚
出镜
分隔
华晨
吵架
地去
学堂
将他
我爱
报酬
日程
本病
林木
洞察
父子
珊瑚
瑞斯
痘痘
癌的
眼周
糯米
纹理
耶稣
荣威
采样
钱包
链条
锅炉
难的
面目
顶部
龙的
arm
▁来自
乔丹的
了一款
亿欧元
兰陵王
农业部
我们对
水泥路
要加强
这方面
不同的是
企业文化
四驱系统
根据美国
行政复议
Letme
中小微企业
社交媒体上
劳动和社会保障
▁吃
▁点
▁袁
一室
为啥
你来
刺史
半天
占总
卡片
嘴里
奶油
客车
小腿
就看
廉洁
或在
拿起
料酒
期盼
海港
磷酸
约有
缩水
脖子
解译
试着
跟进
▁Bl
▁全新
▁想要
▁赛季
▁近期
人性化
唐人街
固定的
照片中
理论上
的性质
纤维瘤
荨麻疹
表面的
reak
不仅如此
克拉门托
入住客人
年龄要求
相对来说
美国总统
老旧小区
该怎么办
▁Zhou
语言入住时间
距离马德里王宫
▁丽
▁没
一侧
亚太
人寿
出击
千古
名将
名胜
多大
奖杯
客座
家务
对付
微观
性病
打架
掉落
擦拭
放电
机型
毛里
法宝
深造
湛江
终生
自尊
艾伦
角质
言行
走来
错的
▁一是
上一个
为指导
也不敢
也有着
句话说
同级别
奥斯卡
战斗力
的特殊
的车辆
紧接着
胰岛素
贵金属
收费标准
文化艺术
文章内容
毒副作用
涅夫斯基
越来越大
集中隔离
▁景观不好
试用期一年
配有花园景
AA
Sp
▁户
交房
他不
余名
供销
刊登
各式
周某
岛屿
年会
想的
战中
技工
月被
有小
欧文
率的
电阻
画像
荷花
襄阳
让它
转到
适龄
量身
队内
鹿邑
ock
str
▁电脑
二年级
向上的
和美国
奖学金
并获得
成长的
抗氧化
新西兰
月入党
的疾病
的这个
籍烈士
胆囊炎
还表示
Zoom
▁Vol
安特卫普
建设用地
心理咨询
未成年人
营养不良
一卧室套房
出版的图书
一味
上手
了的
制冷
单体
呼唤
四海
在水
堡垒
士顿
大展
将要
幻灯
念佛
总能
承压
拖延
政权
时就
替换
条形
沉重
浑身
游走
留住
站台
编排
老实
要以
跳跃
轴承
邮电
雨量
飞船
饮品
骨髓
黄昏
TOP
UFC
▁本次
仅代表
其主要
净资产
制定本
十一条
十三年
去年的
只是在
后来的
大概是
妇产科
开学后
我一直
的自然
简直是
要认真
说不定
颁发的
▁家庭房
在国内外
抗日战争
相关工作
知道自己
职业道德
个自然村已
▁欧洲三大杯
▁欧洲冠军联赛
▁印
上加
中锋
光大
刻画
北与
南与
原型
吸血
和不
四面
处方
复查
大山
如是
封信
尼迪
岭南
开出
得意
急于
我省
所欲
放出
新星
木瓜
波特
流的
破解
积水
穿梭
绿茶
荧光
菊花
这把
这本
非要
骚扰
麻木
Vil
▁注意
▁道格
了他的
到一个
十二条
在香港
地下室
尔酒店
恢复了
意识的
拿出来
日均线
晋升为
月开始
有限的
沃尔夫
脂肪酸
跟大家
▁出生地
▁早餐费
做的事情
发展战略
季后赛的
尼日利亚
机械工业
管理机构
结合起来
▁英文名称
入住客人的最低
遵义市人民政府
Apartamento
入住客人的最低年龄要求
一站
丽丝
供奉
出名
前辈
卷一
叶子
向后
平整
弗拉
扭曲
挽回
教书
朱婷
村镇
灯塔
犀利
率和
疏导
监视
相望
福尔
翻身
肿胀
茫茫
邪恶
风筝
▁声明
▁家长
▁重庆
丽莎白
凤凰城
古老的
年之后
日正式
月参加
有能力
索伦托
调整为
适量的
长宽高
▁are
中国传统
包皮过长
大学英语
根本没有
玄幻小说
脱颖而出
▁网络很好
特色社会主义
位于里约热内卢
▁遭
▁香
一动
上岗
仰卧
佛爷
兽医
出路
利落
单单
南县
厂房
可知
图表
坐着
外用
奇妙
妥协
定居
座谈
强直
怀抱
扭转
拘留
楚国
看作
着他
祛除
而我
超玩
车市
rit
▁sp
▁这位
但没有
吃一些
在我的
在整个
安全感
少不了
月以来
母亲的
球迷们
的儿子
的药物
为了避免
体系建设
有的时候
省教育厅
眼部肌肤
提供了公寓
iphone
一万
三亚
上港
不忍
东与
光辉
初次
可寅
君主
周易
团购
圈子
天尊
尿液
师父
并能
急剧
截然
技法
抗癌
改厕
日式
曼城
水市
沉稳
油门
潜伏
片中
省会
空头
胡军
装的
见识
迎合
道生
ena
▁建筑
与道德
也不错
了大量
什么样
史上最
命运的
处理的
失败的
安全和
收录于
敌人的
的计划
网站的
肝硬化
血小板
通讯员
▁Bou
乡下辖村
人民日报
及其应用
就会出现
年一季度
脱贫攻坚
配有暖气
重要作用
防疫物资
▁Phys
▁网络不太好
农村合作医疗
有关工作部门
VR
ui
▁施
一门
侧重
倘若
内线
冰雪
升华
回味
处境
外事
妨碍
实业
年仅
挪威
政委
最先
楼房
特丹
的诗
益智
红柿
纵向
网剧
老君
胚胎
西与
词典
领克
马刺
▁装修
不方便
动力学
半个月
可以去
在身上
对他们
或许是
林业局
的实施
的这一
让你的
这其中
邓小平
鲜明的
▁单人间
▁海滩好
不用担心
分析方法
尽量不要
详情欧洲
这种现象
▁众所周知
▁热水很好
党组副书记
▁干
不输
乐坛
二字
他被
会很
停工
冲锋
功底
勘查
单价
塔特
增至
大宗
失恋
如期
带的
弊端
折腾
新年
旗袍
无心
昌市
易懂
是与
校外
每股
浩特
生源
笔试
筷子
维特
请你
这首
逃生
锅里
闪电
▁我是
▁资料
▁需要
刘诗诗
副区长
取消了
在一些
坐落于
存在于
完全是
就显得
无任何
是巴黎
服务式
白内障
的水平
着自己
确定了
给宝宝
莫过于
通过了
line
上汽大众
大学教授
我不知道
技术人员
有关事项
理工学院
经济效益
配有市景
博物馆步行
建有小水窖
镇人民政府
▁Station
no
▁台
▁左
▁班
一幅
一来
下水
入伍
共济
募集
后就
多特
审视
就用
年版
快要
救护
正值
灾区
热衷
球的
的要
的陈
石灰
粘连
群的
补血
表白
语种
问他
防汛
▁At
▁杭州
▁歌手
不停地
住宿费
在世界
大股东
密封胶
政治部
的一名
的主体
的人都
系主任
马拉加
高脚椅
▁停车费
主任科员
了解更多
科普中国
管理中心
职业技能
等荣誉称号
高级大床房
酒店位于伊斯坦布尔
Apartament
圣母百花大教堂和洗礼堂
ii
▁z
也更
你好
入场
勘察
单打
吸附
周迅
喂养
地势
大乔
宝骏
小便
崇尚
投身
招呼
提议
摘要
放过
服役
朗逸
朦胧
梦里
的超
盛世
纸上
经侦
综述
老将
色谱
被害
这与
alk
ico
▁全球
一种是
不仅要
了一波
什么的
会发现
发表在
在一次
城镇化
房子的
服务好
看出来
眼中的
离退休
经济性
药物的
错过了
环境卫生
克西姆广场
距离布拉格
▁儿童高脚椅
发表学术论文
埃尔米塔日博物馆冬
▁秋
一见
三项
下半
个点
仰望
充值
刻苦
前言
千金
地将
增设
大树
奥里
她就
展出
山寺
归于
拍到
本月
板的
核准
梅根
樱桃
步步
相依
置疑
美职
马洛
”。“
▁ro
但随着
元左右
十二年
危险的
只要有
基督教
我们有
把这个
淡淡的
现在是
的国际
系统中
home
▁Jun
具体情况
影响力的
海洋世界
的影响力
纤维蛋白
经济作物
▁View
▁交通事故
中华医学会
▁浴室等设施
新闻发布会上
NE
不自
于小
切入
划艇
华永
卵形
历时
口头
大牌
太华
奖章
安定
寒假
小子
巨人
应收
挽救
早盘
时时
曾是
涉案
热窝
特约
监制
神圣
而为
致的
访谈
译者
车厢
通畅
钻研
长裤
附后
dào
eta
▁巴西
书法家
其次是
到时候
在当时
容易被
张床位
正处于
青春期
...(
丰富多彩
扶贫开发
穆里尼奥
遥感技术
ffect
▁舒适度作为阿
提供了高级双人间
宾馆享受的服务与设施会有
▁战
上半
上司
中信
也比
五星
余项
借此
到校
同程
国语
圣地
字数
就将
帕拉
德系
改名
敬请
早点
晚间
最受
朗读
桂园
此地
武林
河边
温特
烦躁
界限
眼看
破位
站立
老牌
聚餐
舍得
规避
议论
重度
雄厚
顶端
▁就像
上赛季
下一代
中科院
为一个
关键是
占据了
妊娠纹
宝贵的
当下的
海景房
物理系
生态学
的交易
的选手
编辑部
获得者
被告人
辛德拉
遗传病
上年同期
也不例外
剧情简介
容易出现
我们一起
斯图加特
▁第一百一
两卧室别墅
▁代表国家队
双离合变速箱
基本医疗保险
▁值得注意的是
▁高层仅由楼梯直达等设施
IV
▁?
▁半
▁田
▁网
不给
为首
之多
交际
代号
功课
卡组
古特
古迹
后方
多亩
多加
多半
失衡
宣告
家湾
家门
弱的
打入
最少
爆款
甲醛
皆是
秀丽
篇章
约合
肿块
自清
苦难
蕴含
转运
追随
oma
▁东京
▁山东
▁排名
▁角色
不注意
也很难
学校和
家长的
年以上
有蚊子
毕竟是
活动室
甚至在
的保护
精神和
网友的
赛场上
领导和
▁我们的
▁苏丹阿
▁英文名
让自己的
语言文学
国家税务总局
▁雅
不解
中东
之光
之名
充沛
典籍
加班
善恶
四缸
圆润
在建
在高
好几
安宁
尔根
山坡
幽灵
庆生
开赛
德云
拳头
日夜
枯燥
爱护
用在
的摩
祖师
肺部
透气
通透
铸造
ram
▁米拉
万人次
东北部
博览会
就会被
护肤品
的一半
的几率
负责对
贵阳市
▁Col
如涵控股
应该注意
资产配置
还有就是
金融市场
大加那利岛
文物保护单位
▁交通不够理想
该村目前正在发展
距离圣母百花大教堂和洗礼堂
dc
▁鬼
下单
不复
不远
专栏
乐于
二战
从头
冻结
凝固
名录
和张
如愿
巴勒
并用
库萨
庞大
打团
接纳
时速
植被
死去
民用
氧气
沟渠
渤海
登顶
着眼
石路
私家
稍有
红河
结肠
花瓣
西侧
设法
面团
饺子
首创
▁信息
▁奥斯
▁投资
不得已
不能再
人才的
女性在
家公司
对你的
年龄段
很喜欢
性研究
我喜欢
教学中
无人机
次助攻
生命值
的记忆
皮划艇
目标是
艺术品
还不是
还是挺
▁接下来
不可或缺
优惠政策
但是由于
副理事长
工作项目
市委常委
总体规划
指导思想
服务工作
本词条由
美国经济
是怎么回事
现实生活中
▁网络不免费
▁System
▁咖啡机等设施
▁Research
宾馆一直致力于为广大顾客
Co
▁钟
一刀
一顿
万户
交代
亦可
代夫
伤痛
单日
城中
壁画
大仙
大棚
女的
惠州
提振
旅社
无量
本体
杨建
检修
水县
水土
河镇
洗脸
浓厚
淡化
狂欢
猫咪
私下
耐磨
诗丽
调料
赢家
跻身
运送
ora
▁na
个篮板
二十八
做好了
周围的
有多大
百分百
第一人
纯中药
较多的
这都是
避风塘
防护服
总工程师
第三产业
网络营销
赛事时间
进行调整
▁适合蜜月
住房和城乡建设
.“
TM
du
▁伯
▁菲
上个
上图
为先
也给
五百
亨利
亲友
保鲜
刘备
占了
大屏
属地
德经
效能
日讯
时会
此项
确切
祖父
窗外
缓和
联通
草本
落叶
虚空
谓之
足了
那位
金科
降到
韦尔
顽固
鲜活
鲜艳
默契
齿轮
hao
▁二是
一流的
不少的
了解了
他没有
党中央
后视镜
好朋友
小姐姐
怀旧服
是一次
期待的
瓦妮莎
的母亲
碧桂园
等疾病
群体的
能看到
苏格兰
这样说
需要在
餐厅好
公园打车
医疗器械
布拉大道
应急管理
投资基金
抗击疫情
生产基地
elect
▁第十九章
也是非常的
道真自治县人民政府
度假村所有的客房首要标准
pc
pm
▁价
▁永
▁种
一新
七月
不听
与时
个字
之声
交织
使他
使馆
净土
出世
则在
制止
取胜
坦帕
多利
尚香
巴马
年少
悲哀
才行
招股
时应
每章
波兰
生生
的同
福田
租客
胰腺
能手
自制
自幼
跆拳
跳水
辨析
重磅
霉素
ans
▁到了
体育局
增生的
天左右
掌握了
的建筑
的行业
第二代
自我的
艺术馆
节假日
高风险
appy
▁Del
公里柏林
其中一个
最常见的
萨拉热窝
▁Hall
▁布鲁塞尔
养成良好的
工作委员会
律师事务所
▁标准双人或双床间
▁Residence
gh
xi
▁建
▁获
下周
中标
会所
低估
全队
包谷
坪村
外星
夫子
完备
市人
忧郁
我村
我看
执照
拉姆
挤压
推崇
斯普
是她
晚年
木耳
校舍
洒脱
洲际
环卫
珀斯
瘦身
的去
相亲
经商
返还
道场
酸性
长短
▁or
人物的
促进了
写字楼
发电机
少女感
得上是
性脊柱
有蚂蚁
的主力
的危险
的合同
第五届
第十五
等单位
纯天然
肾功能
自治县
自适应
芭诗丽
要保持
迷人的
通知书
非常多
全面发展
农业农村
出生日期
日常工作
没有一个
相信大家
进一步提高
村民的医疗主要依靠村卫生所
"!
EA
▁列
▁哦
▁未
一再
一碗
三叉
之说
判处
动荡
反抗
名贵
地名
复盘
失控
套餐
嬴政
字号
家家
对的
张力
抢险
撞击
月供
有名
末日
本能
李耳
殿堂
狠抓
稻谷
纽斯
考量
著称
起着
转弯
过关
逛街
高大
鲁厄
dis
▁me
▁小编
为重点
于一体
先后任
内容和
办公楼
加油站
受访者
在市场
想办法
拍摄的
收视率
是怎样
波利斯
的训练
直辖市
眼前一
神经痛
科诺斯
第三代
系统地
经验和
而现在
西北部
诸葛亮
那么的
问题上
leas
▁哥伦布
从根本上
卡尔加里
卧室套房
大学文化
航空航天
距离库塔
上发表论文
编写与应用
MC
五脏
仁宗
他所
便民
充裕
关门
况且
则会
制导
前人
十万
呼和
回血
多是
妥善
总成
批复
方块
早起
有权
汗水
海底
狼队
环形
现役
白金
的歌
监事
稽查
约占
组装
绞痛
花香
血浆
讲的
诸侯
那你
重伤
雅图
韩服
ady
▁%;
▁小型
▁还是
一个大
不排除
他们对
任务的
变得更
培训班
满足了
研发的
约翰逊
群众的
自己也
自然而
要做好
诺富特
那一刻
重大的
baby
ream
▁如果说
功能障碍
市场需求
政法大学
最近成交
研究领域
质量管理
首席执行
龙头企业
ement
国家统计局
主要种植核桃
词条编写与应用
县政府有关工作部门
词条编写与应用工作项目
Hz
▁冷
▁灵
今夏
何必
南非
和县
尘埃
我去
技师
挂职
排斥
杜鹃
林肯
民居
波澜
海事
消退
病菌
白血
精益
虎牙
诗文
谈谈
赢了
重叠
鳄鱼
▁my
不合理
与研究
中发现
于汉超
优质的
十三条
取得的
可不是
可选择
小企业
新产品
的一段
的不断
的介绍
的措施
esth
▁One
▁四川省
但是我们
文艺复兴
男性朋友
高级中学
▁本章小结
不同程度的
兰萨罗特岛
是什么原因
▁Count
哲学社会科学
玉米等农作物
HO
▁火
▁除
三连
不败
东邻
中网
公会
写着
原定
向阀
哈德
够了
宣称
德甲
想你
暴涨
村委
查理
格斯
水域
浪潮
田间
礼包
简化
绑架
群里
聊聊
自理
虚无
试驾
起始
追赶
道氏
▁东方
不出来
会觉得
刘诗雯
参加过
女明星
必须是
的心灵
的魅力
要不要
越野车
▁Can
可能导致
工业园区
斯特拉斯
渔业收入
现货黄金
相关规定
泰罗尼亚广场
距离红灯区步行
formation
酒店接受上述银行卡付款并有权在
FX
▁佩
▁基
上都
不肯
之气
修长
公演
凯恩
刑法
半径
卡车
可有
史料
吉米
后有
向好
品格
实木
宫观
居多
庆县
强磁
心跳
悠悠
投产
月末
格调
洋溢
研判
结晶
行事
解剖
辗转
追击
途说
),《
era
ien
▁不得
▁公路
国税局
尔巴鄂
泽拉斯
清晰的
的特征
组织和
说明书
道路与
中国书画
中国文化
人口普查
学术期刊
开学复课
每人每晚
毕尔巴鄂
社会治安
被认为是
青年教师
hotel
▁Park
▁第二十章
国土资源局
标准单人间
▁服务非常好
需付每人每晚
▁豪华双人或双床间
aj
之久
之乡
了然
仪的
分院
叔叔
召集
各家
妇幼
平底
当晚
惯例
成败
揭露
数次
新乡
无知
特邀
良种
财物
身亡
车展
镇的
露露
靓丽
静态
预言
▁小结
▁最新
▁浙江
三十年
十四条
地标景
对他的
工信部
提到了
效果图
曾经在
物联网
的全部
的正常
的身影
真实性
第一课
等特点
金字塔
reen
▁莫斯科
平方千米
很多人的
用人单位
赫尔辛基
尼亚加拉瀑布
ineering
提供了两卧室公寓
距离威尼斯叹息桥
▁每个客房都配有暖气
▁每个客房都配有花园景
fe
▁君
一族
丢了
中美
中风
也太
仁爱
仍未
以西
做大
偶遇
兼具
刘国
北极
听听
埔寨
守望
屏障
彼岸
打折
找个
承接
无机
格力
横扫
正宇
水流
河乡
洗涤
海姆
点半
皮革
盖罗
稳重
花纹
触控
计数
贫穷
贵妃
过头
选中
那份
霉菌
高频
gdp
▁分管
▁图片
▁建议
▁音乐
出现过
劳动者
就这么
就非常
局机关
帅气的
总觉得
教学和
斋普尔
是伦敦
最终的
来不及
柬埔寨
的主人
的季节
西红柿
责任感
转移到
郝海东
ific
政务公开
是什么呢
程序设计
还是可以
适合亲子
都是非常
领导班子
iness
岁的儿童加
公寓酒店让您在
yd
▁性
一目
万万
久之
之势
优于
传记
切宫
区位
区划
右边
周六
唐山
园艺
学到
尽了
山中
床和
开机
总分
林斯
校友
此处
此种
求精
河东
流血
眉毛
科创
窗体
绝不
绿洲
胳膊
草根
调制
辟谣
选址
野心
首相
鼓舞
▁El
▁le
▁咨询
▁生命
不明白
与国际
个性的
也许是
人人都
会增加
副科级
各单位
听起来
在当地
在进行
客运站
归属于
房产证
文学奖
早期的
的特性
让观众
记者从
谢可寅
运动感
阐述了
ival
今年以来
公共场所
公共服务
发动机的
大学毕业
实验学校
巴赫切宫
广州恒大
特殊津贴
生活保障
社交距离
私人海滩
▁遥感图像
占农村经济总收入的
▁该村今后的发展思路和重点是
ft
▁刚
▁换
▁演
也得
人了
佣金
出游
北区
图象
在被
地为
基调
多重
大笑
失利
尔克
尾声
山下
年年
庄周
廉颇
怎能
手持
抵御
旱地
昆仑
极品
树下
殡葬
求斯
法系
波斯
现今
硬朗
艾滋
蛋黄
诗集
说得
课间
轻型
连招
连连
金曲
飘飘
ife
ose
▁pr
▁故事
事物的
又一个
合伙人
和文化
在国外
就不是
建立起
怎么能
我发现
王昭君
生育期
的提升
精彩的
纳税人
表现的
预期的
领导者
也有很多
全系标配
反复发作
战略合作
有期徒刑
毛里求斯
的时候就
的时间内
社会保险
积极开展
联邦政府
详情英冠
购物方便
配套设施
风格独特
项目负责人
套房酒店所有的客房首要标准
套房酒店享受的服务与设施会有
?!
▁威
▁阳
》“
一角
享年
亲手
今晚
停靠
别再
反派
合著
圆圆
埃德
学府
巡查
打动
挂在
推送
无遗
日元
最爱
橘子
汪峰
泄漏
活得
浮动
湖泊
牙龈
用作
短的
硬派
红包
经办
考评
蔡文
赛程
邢台
重现
高了
高新
ict
——“
▁Ed
▁既然
不要再
几分钟
只能在
将根据
强磁贴
忘记了
更需要
欢迎在
玛格丽
的希望
的开发
的最终
等行业
运动会
这一个
道德与
▁不知道
但实际上
作为一种
工程质量
文化传播
统计数据
进一步提升
],
eu
nm
之手
乱了
倒了
冷的
北站
原先
在某
奔波
妲己
媒介
小三
工伤
帮我
弱点
森特
甲级
胆清
腌制
运载
部剧
限额
鱼类
黄花
GBP
ays
▁日前
▁歌词
▁特拉
▁自从
▁设计
中药材
养老金
分布在
华美达
参谋长
地进行
多样的
庆余年
旧城区
是一项
正处级
网络的
过来的
颈椎病
▁del
专家指出
中心小学
县委常委
对手首发
建议大家
普瑞米尔
曼彻斯特
有关事宜
科学百科
阿尔盖罗
abana
大酒店位于
评论区留言
代表球队比分
对手首发出场进球
代表球队比分对手首发出场进球
一两
不负
中队
乌鲁
做完
关口
升至
华德
吃到
吞噬
和睦
大全
奥秘
好感
始祖
庆典
征兵
或少
护航
提斯
时许
更低
机票
欠薪
沉迷
法和
海域
灭火
画的
瘦肉
省钱
短缺
红酒
维埃
而定
语录
语气
量级
阳人
顺便
▁控制
一家人
事件的
休息室
加拉太
可以是
家企业
很干净
患上了
明确了
更重要
极强的
的新型
确定的
神奇的
论文集
负油价
长春市
音乐人
atic
▁邓丽君
加勒斯特
劳动合同
劳德代尔
可以获得
售后服务
家庭成员
被执行人
这种方法
▁没有网络
亿元人民币
▁浴巾等设施
客房早餐入住时间从
科学百科词条编写与应用工作项目
▁商
▁毛
▁蒙
から
争吵
争霸
人房
任性
侵略
冬瓜
冷冻
净水
刘晓
剑桥
努尔
即为
口径
在哪
大户
天河
天际
头村
如图
容貌
少见
慈悲
所见
抄底
拿地
捞出
日光
景气
更像
有待
架空
流向
牌子
甲亢
磨合
祖籍
笔名
网游
美满
老龄
考取
联防
胃癌
补课
被查
裙装
过量
都可
量大
门市
问道
隐居
隐形
雨绮
预示
黑的
New
uck
▁卡萨
▁页数
不仅有
与我们
做到的
公司和
卡罗拉
市场化
市面上
建立在
我个人
的人文
的股票
的节奏
的高校
跆拳道
长大了
ital
roup
▁三人间
▁安全性
三个代表
专项资金
刑事诉讼
有所帮助
遵义会议
长时间的
首席执行官
▁平面电视等设施
代表球队比分对手首发出场进球得牌
全球多国爆发新冠肺炎疫情责任编辑
An
DM
▁程
不乏
不言
之举
使者
内裤
写真
决战
发音
可口
四是
基数
墙上
宾客
总督
您好
抗病
抗菌
断了
极易
沟村
流派
爱美
玲珑
百亿
离家
稳固
纯棉
藏在
赞赏
路况
这道
锁骨
锅内
零封
▁即使
他们都
价格的
分配到
听途说
尤其在
工作组
的战绩
的经营
结构与
给患者
色系的
edit
一点都不
也有一些
二级学科
可能会有
学习成绩
投资者的
格林德瓦
欢迎留言
电商平台
直接影响
相关信息
组织领导
结构调整
行政管理
区人民政府
这样的情况
aa
▁包
▁易
▁给
不愧
义工
仇恨
侵入
倡议
先用
前线
厄斐
友人
可乐
吃完
团的
围剿
地表
大成
建房
托福
拍戏
捐献
敏捷
日月
正文
炫耀
疏松
种的
突击
章程
绝缘
耳鸣
莆田
阻塞
gen
▁商业
▁屏幕
▁湖南
▁特殊
▁采用
东南部
今天就
会议室
健康宝
厄斐琉
叙利亚
并不多
想象的
找工作
日出生
是否能
是无法
格兰德
的时刻
opac
▁吸烟区
▁惯用脚
▁高级房
仅供参考
信用风险
切实加强
可以考虑
呼和浩特
国际贸易
积极配合
遗失声明
国家美术馆
学科带头人
XX
▁#
▁恩
一圈
一米
不敌
与前
串联
他却
件套
供货
全解
加水
卫冕
只剩
后会
夺取
套利
孔雀
完结
帕克
平平
年均
建构
托纳
提琴
救人
斯是
李子
殖民
毛细
盖帽
眼下
硬币
统战
继而
维克
肾炎
脑子
课件
近些
郊区
马龙
黄冈
irl
▁独立
▁道士
世界里
丰富了
侯英超
做出的
儿童的
在他们
在欧洲
实在太
小龙堡
尿道炎
峡谷中
有以下
正科级
死亡的
洗干净
润滑油
特异性
相较于
突如其
统一的
一场比赛
专业毕业
作者本人
共有人口
密切关注
广场酒店
无论如何
比较大的
治疗方案
研究发现
第十一章
维尔纽斯
趋势天机
距离阿尔
青年旅舍
领导职务
perty
▁克拉科夫
结构的住房
请输入您的入住日期
农民收入主要以种植业为主
▁画
上诉
为数
九月
住的
八角
军的
凯酷
十里
叛逆
可比
同伴
国度
增进
天花
屁股
平日
年了
应聘
弥陀
影节
推移
敬畏
新股
有情
清扫
熟知
牢记
生发
田径
略显
祖尔
空空
职权
胃炎
莱多
课文
课时
选为
造假
道与
随手
食盐
骗子
ole
▁zh
▁华沙
习惯了
从这个
另一位
学院的
对患者
对社会
年全年
普卡比
模型的
波士顿
的根本
究竟是
等原因
等活动
结构和
场比赛中
心目中的
混合宿舍
科研课题
突出贡献
普卡比故宫
的一个重要
萨克拉门托
北京师范大学
无线网等设施
道破趋势天机
巴塞罗那凯旋门
距离勃兰登堡门
度假村享受的服务与设施会有
Cl
El
▁放
一键
乔恩
也称
修补
假装
光彩
出新
切勿
勃朗
勒姆
味精
器具
城里
墙体
小号
巡逻
总计
拉尔
教职
既要
杨杰
正气
死角
流域
滨江
特蕾
的四
祖先
筹码
精气
绝地
背诵
自私
西站
贬值
轻盈
还很
进驻
道是
雀斑
齐鲁
ony
▁号码
▁怎样
一定能
作用于
关注度
十二五
卢浮宫
可以为
增强了
完整性
年时间
才会有
教学班
现实中
理性的
的时尚
第二名
等现象
类小说
继承了
购买的
高度的
不断提升
交通方便
人流手术
体温检测
作为一款
城市中心
家庭教育
工作任务
水利水电
汽车品牌
记者表示
▁动力方面
房地产行业
标准双床间
Facebook
▁该村目前正在发展特色产业
公寓通过提供优质贴心的服务和
RE
mg
▁廖
▁远
上车
不强
中日
中证
事事
京飞
但对
凉鞋
剖腹
助残
基亚
少将
庆幸
延误
性情
我能
执政
旧址
暑期
桥村
沙拉
流逝
海淀
淄博
演化
潘粤
环路
畏惧
真空
科委
管家
质保
近乎
隔壁
car
▁NO
▁专辑
▁材料
▁邓国
世纪的
之中的
京津冀
副处级
发挥了
召开的
史密斯
显示出
污染物
沈阳市
的了解
的表情
自由的
视频中
陷入了
berg
亚历山大
印象深刻
安全事故
就会发现
▁温馨提示
▁第一百二
房内游戏机
旗舰店最近
▁Techn
▁第二十一章
女性宿舍间的
ections
皇家珍宝和军械馆
每个客房都配有阳台露台
距离布拉格环球蓝联退税点
No
万起
三界
东站
丸子
为己
之风
像个
先端
光环
减小
千亿
南站
双双
可控
名利
听从
喀山
噩梦
地标
坚固
学友
封为
尔尼
局中
得主
扩充
抗性
排便
插曲
摩根
柔毛
派对
流淌
滤芯
演戏
爆竹
的非
盯着
眼角
破了
社长
粒重
背着
腹胀
谋划
谓语
输掉
这事
郎朗
页岩
顺着
魔鬼
USB
▁Or
▁可能
一口气
不相同
使学生
保险杠
可实现
各高校
和普通
家人的
巴菲特
干什么
并根据
张馨予
当然了
意识和
所以他
支持下
有任何
有必要
温德姆
的概率
知名的
诺丁汉
这么说
远距离
高分子
公里暖气
基础教育
成为中国
指挥中心
没有热水
附属医院
▁Yang
交办的其他
局党组书记
aterial
距离马德里王宫步行
▁道真自治县人民政府关于
▁宝
▁首
京剧
会儿
公爵
内侧
南湖
卢兹
发炎
可观
右京
吃瓜
同款
图为
圈内
地貌
坚韧
奥利
好呢
察觉
射精
年夜
张建
折射
摄取
故名
杂质
此书
残血
民兵
治之
淮南
牛米
牧师
红茶
美诚
耐用
荷叶
行长
解开
试探
还说
进阶
那边
都对
金华
霍尔
高雅
齐达
ext
▁同样
▁终于
▁遭遇
与实践
代理商
余万元
和我们
坐落在
多年前
姜子牙
最小的
橘右京
的状况
盖利亚
聚集性
不可否认
于一体的
公园酒店
其他国家
年出生于
感受到了
技术创新
演示文稿
理论研究
这个名字
这个赛季
残疾人就业
盖利亚市场
规范性文件
主要研究方向
简易别墅设施
届人民代表大会常务委员会
度假村一直致力于为广大顾客
▁土
▁异
▁犹
▁独
▁选
▁邀
一格
三明
仅需
先把
出局
厚重
启蒙
周四
城关
填空
天府
宏光
就近
打个
拉伸
操盘
比特
油田
沿革
浓浓
海棠
牵挂
紧迫
红场
组件
缠绵
老爷
脏腑
舒缓
藏书
装箱
辨别
道中
邮箱
里加
重修
陆地
隆重
隐蔽
顺风
领略
黄豆
▁他的
▁过去
个城市
也正是
了一位
事业的
你就是
关系到
到正规
包含了
发表了
和相关
它就是
少年的
就有了
州市委
怎么会
我希望
投入到
款皮肤
沙发床
生产商
的定位
等信息
管理处
经营性
而是在
谈恋爱
over
人大代表
传说中的
基因突变
总裁夫人
民营企业
消化不良
现货白银
行政审批
认为自己
详情美职
违法违规
都不知道
▁球衣号码
玛巴赫切宫
科学与技术
距离布达城堡打车
opacabana
▁Conference
▁额外两名年龄较大的儿童或者成人

“
一词
七个
上部
两端
两类
人所
他能
全心
升值
审议
密歇
已达
愈发
战的
改厨
易康
江河
沐浴
海水
湄潭
满都
盘古
硬核
精液
纲要
纳克
结节
美团
联席
肥皂
胡子
蠕动
赞誉
送货
陈述
马桶
黎世
GTE
bon
ita
ull
▁et
▁一位
下降了
停车位
南宁市
向社会
和自己
团战中
基本功
成立的
收录在
旅行社
月销量
村两委
比例为
癌细胞
的气息
的调查
第一届
老佛爷
被网友
都属于
不好意思
中文名称
如果你的
实战图谱
尤文图斯
已经有了
成为一名
报告显示
教育科学
短篇小说
第十二章
资格考试
Excel
▁双人床房
标准三人间
▁复习思考题
▁瓦维尔城堡
在日常生活中
户居住于其他
科技进步三等奖
新冠肺炎疫情防控
HS
Wh
▁合
▁曹
中层
中环
体贴
全乡
半月
华润
和人
奇异
山谷
岛上
已成
帖子
往后
您在
撤离
无毛
暂行
楼下
狠狠
男方
盛宴
离别
粉碎
红豆
绿灯
罗宾
翻倍
聚合
轿跑
退费
遮天
风俗
风貌
nba
▁pl
▁道县
不干净
也有了
剧中的
十六条
卡利亚
却发现
县财政
和一些
因为有
奢侈品
密歇根
无烟房
此时的
的部位
节目组
要学会
运行的
▁gen
世界文化
加拉太塔
发达国家
学院院长
最喜欢的
详细信息
通行能力
饮食习惯
▁Sant
重要的作用
▁一卧室公寓
人员名单附后
提供了高级双人或双床间
公寓都会是您住宿的绝佳选择
.;
QQ
▁号
▁越
万历
也应
些许
光纤
公文
决胜
分行
双色
发于
可为
吃过
废物
彩票
循序
憧憬
托尼
操场
株高
海尔
瓦多
眼底
私营
线和
脸的
臀部
谁的
调任
豆类
轮换
造诣
里尔
金沙
闪烁
额头
魔王
鱼的
▁综上
优美的
创业者
大巴扎
孙尚香
年收入
很高兴
是人类
海内外
渥太华
的教师
的课程
第一条
经理人
觉得很
认识了
非物质
ames
eshy
▁con
中的一个
关键时刻
厄斐琉斯
文化产业
星光大道
民办学校
眼前一亮
美国政府
都是一个
阳痿早泄
马尔代夫
斯酒店位于
......”
▁歌
▁玄
中秋
亚鹏
他把
使我
保洁
刀片
切片
区级
卡的
厅级
受众
响起
器和
处世
大江
夫兰
完好
小巧
御史
把她
拉尼
据此
插电
改制
改厩
斯利
术前
株洲
残忍
水管
演义
灵动
点多
特权
老爸
茶园
辩论
遗精
食谱
ETF
net
rol
▁ev
▁se
▁获奖
▁设置
单位和
受害者
受影响
外国人
年荣获
晒出了
更多人
民主党
的人口
的命运
的宣传
的款式
让人们
cept
ound
中国书法
也成为了
代表性的
元洗衣间
埃尔公园
我们知道
有明显的
生活质量
科技学院
设施不好
加拉塔大桥
大巴扎集市
Viloran
▁浴室不够理想
esthouse
适宜种植玉米等农作物
ZD
▁”
▁紫
东侧
亲和
人社
会说
传世
写下
减薪
化名
卖掉
口水
各省
和李
坚果
学年
广义
戴上
排泄
推向
有其
木质
梦境
正午
求是
汕头
沿途
海带
渲染
病程
睡着
糖果
膜炎
裂缝
贾乃
软化
还想
集镇
Mar
erm
osh
▁有人
▁直到
▁自然
一时间
中草药
在不同
工程的
布伦特
我们来
是一座
是这样
涵盖了
生产力
的客户
的正确
的父母
确定为
▁优缺点
▁多媒体
专业知识
公共关系
初级中学
南京大学
地下水宫
大家可以
我们已经
操作建议
的一句话
▁that
人民出版社
疫情的影响
教堂地下水宫
索菲亚大教堂
距离大英博物馆打车
OU
cn
▁彭
▁配
▁钱
。[
万隆
三层
之感
伊利
修仙
修缮
切忌
听着
图画
天人
失信
宿迁
寄托
年春
并肩
微分
心想
批次
报讯
插座
搬运
日均
曝出
村容
棋子
止血
油气
犯了
狙击
珍藏
留校
白了
细微
者为
耳机
蒂斯
螺丝
跟上
邮报
雪儿
风靡
▁关注
▁摄影
▁经典
下半身
专业课
准备了
勃朗峰
南大学
反映出
增长率
外交部
如何在
对这个
小时的
巴勒莫
报告中
是不可
的内饰
的合作
的情形
的职业
的话语
的调整
管理员
而这个
被淘汰
这么做
atal
▁Xia
▁数据库
伊丽莎白
值得我们
国家标准
法定代表
的一个县
计划项目
负面影响
距离米兰
输出功率
长期以来
▁安全性好
布加勒斯特
斯特拉斯堡
科技进步奖
的重要组成部分
cs
一滴
一筹
一辈
东汉
丰县
书本
买单
人意
优生
佳琪
侵蚀
保修
其一
分歧
助推
升温
卫队
古籍
备课
妄想
寄生
尿急
打到
抵制
拉德
拖欠
拥堵
挑剔
时分
是人
本性
杀了
极佳
步兵
渣男
牌照
牢牢
牧场
玛尔
电解
秒钟
笑笑
赫迈
越发
路与
都已
阿克
马竞
▁Bi
▁上述
▁例如
▁只要
▁青春
不了解
不变的
专业化
举办了
准妈妈
回来的
因疫情
是属于
然后用
生产和
的剧情
篇论文
综合体
距县城
▁机动车
控股股东
纪委监委
综合素质
遗憾的是
▁第一百四
乳腺纤维瘤
卡尔斯鲁厄
赫迈特广场
发展有限公司
我们可以看到
累计确诊病例
ectionsection
DS
NI
eh
▁员
一想
不争
伸出
但仍
低了
保费
借用
农学
利差
办发
动工
南区
变现
口人
后羿
听众
安区
安琪
宾语
开后
愿景
承租
无从
普罗
暖心
漂流
烟雾
燕子
皇子
粤语
索引
罗布
置身
老爹
联社
花期
论著
词曲
谴责
跑了
里达
闪耀
青花
骨架
高产
ADC
▁中新
为目的
主要为
云中君
代表了
做的事
儿子的
出入口
十七条
司令部
名学生
奥尼尔
我真的
把这些
的网络
第十四
系统性
范围的
表现得
设计感
霞慕尼
饮用水
will
人物履历
依法行政
工会主席
技术监督
整体造型
有不同的
汽车行业
法律制度
目前来看
详情英乙
可能会导致
胆清强磁贴
精神文明建设
详情欧洲联赛
已建立了农村公益事业建设
UI
▁复
东边
为由
举止
也想
会比
供养
充当
出土
制宜
另类
向南
吹灯
嗓音
圈的
在华
在和
外加
大都
对口
帆布
年为
开黑
徒弟
惊叹
成仙
房地
手脚
打磨
把控
挣钱
揭秘
新蒲
有毒
水瓶
汲取
热刺
现款
用工
瘫痪
的在
离谱
立的
笑脸
紧致
繁忙
胜任
航海
荆州
要塞
郑爽
采光
问到
随性
雪山
add
ova
▁SE
▁cm
▁常用
▁技能
▁艺术
主题曲
了一大
付出了
击败了
号文件
团队的
宅基地
实力的
总书记
才开始
更喜欢
用什么
的眼神
粉丝的
红十字
舍不得
课程的
轻松的
都不敢
icha
从而达到
全面工作
厦门大学
工作会议
污水处理
环境污染
生命科学
都有一个
▁第一百五
▁网络不好
Access
▁游泳池不好
▁高级双人间
━━
▁头
▁扎
▁精
一章
不长
丽江
伤残
倒闭
冰糖
双边
可将
名副
听过
周三
多变
女足
寝室
将与
尚有
左边
常德
干旱
张国
当家
恰到
感人
政工
新桥
显高
有声
沦为
烂尾
照亮
独创
甜的
相聚
脸色
菏泽
贝托
软骨
运势
门窗
降准
高空
Har
ald
▁教师
▁暹罗
▁每个
以保证
几个人
发出的
告诉他
和应用
在其中
在里面
完成人
就一直
尼亚州
尼西亚
思想和
的天空
的幸福
的现实
胡八一
那个人
▁III
应对疫情
开业时间
恶性肿瘤
想到的是
着自己的
职业学院
负责全市
进行全面
长篇小说
工业和信息化
+,
br
两手
亲身
伴奏
俱进
假冒
功劳
卖的
向他
吸纳
因病
契约
姻缘
封神
少于
师德
年产
情缘
掌声
推介
教改
无事
昏迷
武当
毅然
没钱
油炸
洁净
海盗
王后
琳娜
疲软
耀眼
西里
谁是
调校
迅猛
这将
酸痛
隐身
霸主
▁am
▁一些
▁替补
》(《
一件事
万英镑
三分球
体中文
分之一
半决赛
可能有
年年报
收入的
无限的
是十分
有多么
机构和
来实现
理解的
的代表
科主任
突破了
第二季
蔡文姬
观点或
质量和
都必须
一点也不
农民增收
告诉大家
和谐社会
城市规划
张大号床
权威专家
特殊时期
生产生活
继续保持
意想不到的
浴袍等设施
进一步完善
▁第二十二章
会同有关部门
▁Apartament
▁组
万台
上前
下沉
下部
久而
之歌
互换
价差
兔子
八月
军舰
剪裁
勃勃
厨师
反差
受邀
多岁
女团
守候
徐坤
打压
拉格
摸索
收音
施肥
明朗
板上
棒球
植株
法式
渔人
滞留
禁令
私密
科莫
站稳
繁琐
虚构
赶上
身着
车窗
逐一
避税
集聚
雪纺
ane
enn
ori
▁功能
▁我要
举行了
代言人
但是我
在其他
在路上
在面对
孙中山
容积率
总是在
感染的
没必要
的场景
的外观
罕布拉
蔡徐坤
解决的
rist
为什么不
党员干部
出现问题
协和广场
国际足联
学院学报
工作岗位
常务会议
房价上涨
指导意见
科尔多瓦
角度来看
这个角色
现在效力于
研究所所长
假日酒店位于
在一定程度上
agement
▁每个客房都配有市景
距离威尼斯叹息桥步行
年主产业全村销售总收入
Ad
GP
MB
▁酒
一战
不时
丽娜
之首
他有
代购
偏低
列表
加密
吃得
吃药
同仁
圆领
大为
失效
套件
子弟
山河
年终
式神
往上
忽悠
悬崖
报废
拟提
排污
方能
无偿
未曾
橙色
毋庸
沉着
滞后
热销
药用
要好
警务
赏析
趁着
近百
逃脱
错时
长效
革新
鼻窦
rop
▁不知
▁中医
▁西安
专门的
主体的
你的心
内部的
前几天
在国家
塞纳河
女生的
小编就
情况和
指定的
收获了
是一条
智慧的
深深的
特蕾莎
的人民
的良好
诺贝尔
这辈子
雷克雅
面积约
▁Ind
▁布鲁日
伊藤美诚
再也没有
加德满都
永远不会
留下来的
西装外套
隔音设施
劳德代尔堡
必不可少的
专业委员会委员
公寓酒店是您来
距离商业广场步行
▁低
严密
中欧
亮丽
会诊
做为
再加
准时
分段
十个
危房
守法
展会
年就
应邀
引来
心如
指点
水池
洪武
深沉
炼丹
玉石
琵琶
白虎
的李
相声
稀缺
筹划
粒子
纯洁
编纂
血丝
血脉
西邻
调配
赖堡
道滘
遵照
▁利用
不仅在
与传统
东莞市
主办的
也更加
介绍说
会比较
厦门市
年加入
条形码
消化道
的定义
的情感
的黑色
股东的
获工学
贾乃亮
问题请
▁Son
二氧化碳
协会会员
可以进行
名副其实
投入使用
抗体检测
整形美容
服务不好
详细介绍
▁不得不说
▁塞维利亚
强直性脊柱
华中科技大学
提供了家庭间
疫情防控期间
提供了豪华双人间
户居住于其他结构的住房
vs
▁§
▁铁
专员
五五
五金
人而
们都
倒数
倒霉
内脏
劳恩
同心
围墙
埃斯
多部
大叔
大意
大风
天山
婉儿
宏伟
射门
座堂
开来
忙着
情趣
抽屉
掩饰
放映
最难
水务
洗漱
猎人
瓷器
白沙
纪要
见于
谈及
途昂
邮寄
都与
配以
队史
饭菜
▁MP
▁数学
人员和
具备了
出版的
可用于
可转债
合格的
在剧中
多样化
我不是
教育学
新势力
时空中
村民的
构成了
甚至有
的妻子
的联系
的色彩
的距离
等项目
精美的
衡阳市
超玩会
Stud
ange
arge
boss
同比下滑
新闻记者
特殊情况
目前正在
纪检组长
美元盎司
skaya
▁基础设施
副主任科员
变得越来越
总建筑面积
自己喜欢的
▁第二十三章
精品酒店位于
并成立了民主理财小组
▁哥
▁满
▁潜
▁甘
▁破
▁走
一回
一览
三代
两市
两篇
乱世
五四
倍感
党和
出货
切记
南边
吉奥
同为
周日
宿雾
就和
尾巴
山乡
山寨
带队
开会
引爆
归母
所用
打扫
沉闷
湖区
灌木
疏散
目睹
看清
纳尔
绅士
联控
花岗
蚕桑
解雇
赢下
超强
轰动
迅雷
这天
这身
迷信
酿酒
随心
雷丁
霸道
飞天
香的
高配
ama
▁da
▁分析
▁德里
▁都灵
不至于
与方法
了一句
出不穷
前期的
十五条
反而是
周期的
增长了
多余的
尽全力
所学校
服务于
的政治
那么在
高中生
鬼吹灯
▁俄罗斯
▁救世主
▁这就是
化学成分
特别注意
累计报告
结合我县
负责组织
▁第一百三
▁联赛等级
中心副主任
▁两卧室公寓
▁交通非常方便
是连载于起点中文网
▁Engineering
▁边
▁遛
三轮
丽颖
五六
人妖
亿的
假的
再多
博大
口红
名片
吻合
哈根
外籍
大肠
小兵
帅哥
未免
朴实
港股
点头
现存
男神
突围
管局
脉络
自此
草木
蓬莱
退耕
道人
都比
配饰
随笔
雪花
震动
驱逐
齐齐
eam
▁Wh
▁Yu
▁im
▁开始
▁电磁
上来说
主要由
也逐渐
低收入
和规范
哪怕是
年春季
恢复到
的眼睛
的路上
薄荷岛
许佳琪
风险的
bert
▁Wei
▁res
▁在这个
健康状况
劳斯莱斯
层出不穷
年轻球员
最后一次
研究表明
视觉冲击
违法犯罪
在此基础上
经济双人间
高等专科学校
度假酒店更合适的选择了
距离圣母百花大教堂和洗礼堂步行
▁宫
▁社
▁董
万方
不老
也叫
仙境
刘某
南充
南极
各行
坐骑
塔莱
季报
实拍
小鹏
年头
异议
情商
感触
所辖
批量
掉发
改款
料的
日间
明智
易购
消杀
清风
溶血
煮熟
特聘
王一
的字
票价
穿了
者是
背带
花儿
行者
讲堂
豆浆
还为
黄油
och
▁Is
▁台湾
。’”
不在乎
件事情
但因为
作品有
在城市
在英国
大满贯
已久的
带孩子
彻底的
快速的
换向阀
然后在
爱上了
男性的
的一场
的优秀
的特色
的长度
第一家
类游戏
考生的
设备和
车联网
▁带风扇
免疫功能
另行通知
因为这个
工作中的
循序渐进
数据中心
萨尔瓦多
内分泌失调
舒适双人间
酒店位于圣
镇党委书记
原油期货价格
▁Chinese
宾馆都为您想到了
▁Guesthouse
▁傅
▁表
一发
两部
中去
乖乖
五谷
交错
以赴
何以
列颠
单车
双塔
取缔
后驱
听课
威夷
容颜
小红
应以
忧虑
成形
打着
护栏
文昌
板桥
标普
海岛
爆出
王室
白石
白马
益气
相通
真题
知性
老是
聘用
芜湖
裁决
视图
计较
顾虑
饥饿
高超
黄石
▁三是
▁健康
▁妈妈
▁昨天
中控屏
为宗旨
为患者
伊斯兰
公开赛
前面的
化管理
可直接
在孩子
将持续
极大地
率达到
的氛围
的网友
的还是
等诸多
绝对的
至今日
认定为
记忆力
这只是
▁去景点
▁带露台
▁教育部
中山大学
也是十分
国内市场
市场上的
环比上涨
生态系统
督促检查
自己的孩子
计算机应用
▁County
非物质文化遗产
▁每个客房都配有阳台露台
LE
▁赫
一朵
不善
不求
临终
以东
伸缩
体征
先将
前置
午后
卡洛
名城
后宫
向我
告白
呼声
命的
因地
基尼
大军
奠定
官司
宠爱
打好
斩获
易舒
枪手
查验
标兵
港湾
球形
直呼
稿件
等位
篮网
联谊
背影
胜地
视听
说要
达克
迷宫
途观
项羽
▁好了
▁当前
▁组织
不属于
个国家
为他们
人死亡
以达到
保留了
卡罗维
原作者
哪一个
圣马丁
套房子
已经很
总产值
播出的
日内与
是很多
显得很
本人的
步行街
满意度
的平台
的本质
的材料
的比较
第一步
能有效
规模化
责任的
这个词
闪光灯
青海省
ngel
▁New
不断发展
俱乐部的
因为我们
对于一些
武器装备
理财产品
身心健康
这样的人
这种方式
造成伤害
▁特别声明
经济开发区
计算机网络
最高人民法院
Windows
人畜混居的农户
仅代表作者本人
▁苏丹阿赫迈特广场
别墅酒店更合适的选择了
▁拜
▁银
一卷
个个
书房
人居
佼佼
侦探
党风
共和
军官
凹陷
力气
动向
厌恶
县内
各州
嘴角
图纸
在场
声望
大名
安倍
引援
得当
必有
晶晶
月和
本寺
来访
毒品
水族
海豚
滑板
皮下
盖上
米率
素有
缓冲
考场
而下
芹菜
西至
论语
进校
选出
限时
集资
颖莎
---
▁ph
▁圣母
也随之
了一把
产业园
华大学
在很多
增长的
大队长
如有关
宇航员
成长为
战斗机
战队的
据统计
更应该
有帮助
潘粤明
珍贵的
生活和
痛苦的
的病因
科维奇
线上的
这是我
道路的
部位的
面对面
▁思考题
与众不同
世界大战
使用寿命
接受治疗
文化交流
科鲁尼亚
进行调查
今年一季度
正常情况下
提供了标准双人或双床间
MS
ja
下定
丝丽
事了
五代
位数
内需
冰冻
分层
刹那
单个
卡马
唐诗
堪比
外围
大码
央企
孙杨
宜宾
小花
已久
希洪
幼稚
强队
得其
得失
悲惨
抗原
敏锐
暴雨
柑桔
比率
法案
波西
火龙
点滴
科大
科罗
穿法
索契
肇庆
背面
荷甲
被子
褶皱
西斯
贪婪
踏板
逆势
遂溪
遥望
郁金
醉酒
附魔
▁ab
▁cl
▁参与
凯尔特
分别在
包括了
南北朝
受不了
可行的
大饭店
好不好
它可以
工商局
建设局
拒绝了
本学期
横断面
浓厚的
热水器
的主角
的大量
给我的
要坚持
这一年
郭京飞
ruct
一个好的
其中之一
发表后的
国家公园
尼古拉斯
应急救援
彻底治愈
每一个人
注册资本
游戏中的
经济数据
这部电影
重大项目
Power
etter
ility
▁Fran
到目前为止
以上文章内容
尼亚加拉瀑布城
该村小学生就读到
仅代表作者本人观点
▁–
▁教
与小
乳宝
低谷
内尔
减缓
几家
出头
则有
功利
卖点
博会
印尼
去买
可不
因缘
外包
大水
太宗
对人
德的
心底
怀着
患了
手下
抓获
捍卫
斩杀
机床
林允
桂花
油漆
流年
海牙
激增
的首
祝愿
筹建
缠绕
缭乱
肆虐
艾克
计时
超车
连败
邮票
问卷
防雷
陪我
CVT
ris
ury
▁三星
▁兄弟
▁合同
▁简单
▁职业
个月内
人民网
向中国
听说过
在学习
实实在
年北京
座城市
指数的
挖掘机
文学家
易乳宝
有蟑螂
疯狂的
的战略
的起源
短暂的
血管瘤
ello
ling
orth
rain
▁RNG
与时俱进
布里斯班
普通高中
最伟大的
没有那么
自然吸气
进一步的
销售收入
▁奥林匹克
于作品内容
版权或其它
观点或立场
随着时间的
问题请于作品
图片来源于网络
距离圣家堂打车
如有关于作品内容
客房早餐入住时间
问题请于作品发表后的
套房酒店一直致力于为广大顾客
以上文章内容仅代表作者本人观点
版权或其它问题请于作品发表后的
公寓酒店通过提供优质贴心的服务和
个班
也与
再看
出彩
列举
包袱
千秋
发利
可道
周恩
大卫
奠基
字的
实证
小狗
工部
左脚
已知
底气
惯性
摆在
放进
景亮
有独
机身
李世
柔弱
核定
欠缺
欣慰
沙龙
洞天
潇湘
照样
献血
的身
眼查
窒息
笔墨
等都
统统
罗瓦
股长
花序
英才
茉莉
虔诚
诊所
诺克
货的
遗物
邓华
闲置
靶向
题型
鲁能
%)、
RPG
Res
▁Ge
▁最终
个疗程
具有的
农业局
回家的
国资委
孙颖莎
我开始
月上旬
月底前
有关系
永远是
的考生
的那个
第七届
粉色的
经过了
结束时
能达到
见证了
让很多
还不够
道家的
郑州市
都是很
长三角
▁Hom
临床症状
主要原因
但是现在
就是我们
排名第一
显性遗传
案例分析
玛格丽特
管理规定
米克诺斯
造型设计
集成电路
当预订超过
▁Suite
▁第二十四章
图片来自网络
出版社出版图书
XG
▁尹
▁戴
】

不正
专户
东亚
丹佛
偏爱
内罗
决算
前茅
动静
北边
印证
叫我
大兴
大叻
大妈
好运
学时
将它
平仓
平市
弗罗
成一
抽样
拿了
时下
暧昧
月饼
木齐
松鼠
沸腾
活在
滴血
病害
的古
着想
离散
空洞
竹林
缅甸
肉眼
胎盘
胎记
蜜蜂
诅咒
赵云
车库
通话
钱财
闭合
防盗
随处
随风
颠倒
高龄
air
als
▁ya
▁包邮
▁女人
▁广东
▁格兰
▁结果
▁说到
▁郑州
▁问题
一般为
三部曲
也一样
交易者
使用者
分析了
卑尔根
因为她
小时后
层面的
岁月的
床套房
技术在
教科书
数量的
斯特里
有人在
没有被
玛利亚
的事物
银行业
集装箱
雷迪森
ator
▁一季度
▁噪音大
▁巴西甲
华永电机
基准利率
服务质量
深入开展
苏宁易购
课程教学
这方面的
ethod
年第一季度
老佛爷百货公司
▁Copacabana
岁的儿童加床的收费是每人每晚
)”
-"
▁之
▁勒
▁官
▁治
不入
不顺
中式
九九
他以
供求
傻瓜
僵硬
光盘
典故
分枝
分流
前夕
动词
危及
变相
同治
周星
嘉兴
回想
土方
奥格
孤儿
学好
安康
宋朝
工装
异侠
当红
快来
我把
打拼
抵挡
文凭
比甲
溶剂
玄宗
耳聋
评析
误导
跑道
车标
车轮
转眼
逊色
那加
金牛
金马
雷电
ior
ura
▁之前
▁平装
▁绪论
不同意
个工作
介绍的
付出的
价格为
佼佼者
动人的
受到的
可引起
和研究
坚强的
大流行
是全国
村民们
的大学
的种类
监察局
第六届
等形式
给予了
自己去
辅导员
做好准备
是否存在
汉族为主
省委党校
witch
▁另一方面
▁文化教育
学院副院长
年人口普查
玉米等作物
在这种情况下
▁Bedroom
▁该进村道路为属于
距离皇家珍宝和军械馆
IA
よう
三生
三联
上古
不减
东至
中线
也已
人设
他用
共赢
军医
出走
刘邦
北至
口中
后半
周杰
地里
城际
天宝
她与
就曾
得一
心律
性欲
抗拒
指望
收紧
昂贵
有为
杀伤
柔情
桌上
沃特
碱性
福音
私有
科仪
端午
组队
细化
者杯
药剂
蓄力
财运
赚取
赤峰
远超
采摘
重来
银价
风气
风流
黄山
龙湖
龟头
▁pp
▁以下
▁巴黎
不动产
不起来
与分析
优势的
南京市
另一半
可以多
和市场
夏威夷
干细胞
总统府
是用来
更年期
查尔斯
涉及的
男演员
真的太
▁一个人
一个新的
一如既往
世界第一
人民武装
但是因为
值得关注
发展趋势
妇产医院
始终坚持
实施办法
容易导致
市场价格
文字原创
烟花爆竹
电话五通
贝尔韦德
贷款市场
距离红场
返校复学
门户网站
市委组织部
我们的生活
犯罪嫌疑人
这种情况下
ichael
▁位置很安静
▁第二十五章
越来越多的人
酒店距离市中心
の中
久期
五种
仅限
价为
你了
俨然
修剪
元代
农牧
前任
变性
台山
咖喱
地把
坡度
娘娘
容忍
岳阳
师兄
录入
必究
惨遭
战力
抢眼
数理
文库
斯达
昼夜
期权
法力
激战
牵着
的二
移栽
罪恶
胸前
请问
谭德
面具
麻辣
黄埔
齐奥
IPO
MLF
▁多尔
▁白色
▁职务
▁说起
一年级
一直被
万公里
中大型
从小就
凯恩斯
创造出
副厅长
副省长
后汉书
在日常
如果要
就直接
岁生日
弗赖堡
思考与
才不会
指导员
控制和
摄像机
方法是
既可以
未知的
次住宿
玩家在
的新闻
的灵魂
社会学
等其他
练习题
自己和
道康宁
▁For
个人信息
个行政村
实实在在
实际控制
对孩子的
政府部门
教育事业
毋庸置疑
混合动力
▁Road
▁第一百六
是一个非常
某种程度上
突如其来的
▁带私人浴室
的收费是每次住宿
▁该村到乡镇道路为
▁Apartamento
OP
▁啊
▁牛
った
不打
东山
之本
亿万
伯恩
借钱
内向
刘涛
南特
压器
县志
台州
同龄
和省
四次
在即
地物
坏事
塔诺
处事
备份
外挂
奋战
家装
并入
当之
心上
投降
是好
智利
期满
枝花
水和
水文
水路
沙河
沿用
真假
石榴
神通
纯属
耳曼
腋下
英尺
赞扬
走低
远比
那段
金黄
锐际
长线
顺位
风中
▁就算
▁每次
▁路基
不及时
也是最
人民的
以外的
作品中
偏向于
十几年
发现有
只能是
基础的
大众的
大剧院
奖最佳
实习生
并不算
我们从
是完全
灰色的
电磁波
的年代
的手机
的称号
的追求
统治者
而且是
超声波
高水平
icro
久而久之
卡利亚里
可能出现
基本都是
怎么回事
显得更加
有这样的
甚至还有
电子产品
调查显示
贝尼多姆
▁人口卫生
归母净利润
位于马略卡岛
新增确诊病例
标准双人床房
该村属于贫困村
▁厨房用具等设施
公寓酒店都会是您住宿的绝佳选择
CC
Ph
▁遍
上证
专柜
东营
交响
交接
他从
俱全
八大
兰博
兵器
取名
团圆
应变
惊悚
戏份
所学
损耗
提速
无助
更早
柿子
死神
母婴
源性
热潮
猕猴
璀璨
略微
白衣
科教
简便
简明
网格
老了
自发
致癌
舒淇
草案
蓬松
血红
西药
跨境
车机
道学
道观
金奈
钢板
陈梦
院内
韧性
风尚
魔幻
ola
▁Me
▁二〇
▁传统
▁十二
▁手机
▁毕竟
不可及
为国家
也可供
你的手
信号的
动物的
大大的
就很难
年生于
所有权
湄本寺
理解和
的病人
的配置
眼前的
给人以
编写的
能让你
花园好
转变为
那么你
饮食上
鹿特丹
黄晓明
avel
lect
look
专家表示
中国美术
人物经历
住宅设施
全村共有
典型案例
咨询电话
复合材料
怎么治疗
怎么看呢
成语出处
批发市场
民族大学
第一医院
视频会议
还是一个
这次疫情
销售价格
▁Cont
▁应用学科
社交平台上
给人的感觉
最低生活保障
特大号床套房
主要种植玉米等作物
▁村民的医疗主要依靠乡
.)
FO
RT
▁共
一月
一等
三七
不加
乐曲
也无
人道
但要
全军
内存
冷门
午夜
单项
去皮
后因
在最
多有
女童
妩媚
媲美
弗里
弹幕
归宿
当归
忠实
想来
按下
搏击
敏镐
智选
格格
梗塞
森堡
步枪
游人
田野
畜禽
知乎
答疑
老天
节育
莱昂
规中
诗龄
走高
透彻
金装
集的
霸王
静止
风寒
:-。
▁分类
▁品种
▁完成
▁芽庄
▁部分
不住了
不明显
专卖店
二十六
债权人
分钟的
十一年
在线上
妻子的
托莱多
整车的
日耳曼
有的是
有这么
的办学
的大力
的少年
的阶段
相比较
科技部
设计了
▁Mat
▁避风塘
主要负责
从而导致
将进一步
心大教堂
所产生的
期货合约
相互作用
研究生院
诊疗中心
这款车型
▁胡志明市
危险货物运输
经济管理专业
KL
KO
▁读
一加
之士
兼备
出厂
区试
同性
回城
在读
增量
夏远
女权
州立
工况
帆板
常州
思绪
所言
打完
救命
时限
札幌
样板
桥头
武功
深得
真挚
知县
索斯
美拉
苍白
药业
莲子
蜕变
讲课
赞叹
转战
辆车
送出
钟情
青光
ied
▁单位
▁宝宝
下来了
与设计
中老年
了不起
但也有
加里奥
卫生室
在外观
幻灯片
意外的
我就是
打开了
政府和
没关系
的事项
的球队
的科学
的道理
罗伯特
赛冠军
这里是
销售的
ents
ject
▁可吸烟
中国大陆
全力以赴
团委书记
属于坝区
巴尔的摩
提供一个
政策法规
教育系统
时间安排
甚至可以
第十三章
经济运行
认真做好
那么简单
都有哪些
马可波罗
新闻发言人
最大功率为
世界文化名人
免费瓶装水等设施
po
wa
▁入
▁岩
▁暗
▁绿
三宝
上扬
严防
中生
偏好
偏见
光照
努曼
南至
后记
嘉靖
回族
大象
寂静
就如
弹簧
恭喜
成才
掉的
斯巴
梗阻
次年
没收
泛滥
烟火
爱与
独有
病死
白玉
百余
答辩
精油
红人
罗伊
肝癌
自体
费城
赣州
跟风
道尔
铁矿
铅笔
问候
雨昕
高高
▁湖景
▁申请
▁第十
与技术
事业部
公牛队
商投资
封闭式
建筑的
想知道
技术员
支持和
方方面
是多少
模式下
的报道
的队伍
社会化
而我们
贫困户
aker
ures
▁第八节
个性化的
中心城区
先后担任
商业模式
在此期间
很长时间
教育资源
财务会计
还是没有
阿波利斯
新浪网联系
不代表新浪网
电子科技大学
▁炉灶台等设施
农民收入以种植
团体当预订超过
日内与新浪网联系
不代表新浪网观点或立场
,。
▁—
▁宁
▁接
一并
一气
三世
三日
不理
专升
之又
之日
出示
出错
功勋
北侧
双排
可与
同框
咀嚼
大河
天水
如水
嫁给
宣讲
对本
小明
巨魔
平顺
得道
快手
摸底
新街
月子
本草
杏仁
极少
欣喜
水墨
点和
烧伤
甘草
男童
番禺
的王
直筒
省道
空置
粘合
莫里
蓝牙
虞姬
近来
逆天
重塑
霍芬
ete
▁us
▁有的
一次次
上一层
不要吃
中西部
也是个
二手车
人群中
凸显出
创作者
别忘了
千粒重
和他们
大都会
如此的
孙悟空
安德烈
尔马特
局限性
山水画
并监督
张雨绮
德公园
忽略了
成立后
扎实的
方向的
方式的
日本的
时间长
目以待
肯定的
自己对
表面上
角度看
这辆车
镇党委
enot
一目了然
企业发展
优秀作品
信息显示
县委书记
可以分为
同志兼任
张单人床
水利工程
泌尿外科
环境优美
电子邮件
神经内科
二手房均价
解决问题的
一起来看看吧
安全生产工作
Bl
DD
]。
kw
▁涅
▁贾
いた
中甲
乡亲
二线
但有
你所
八方
共睹
刘亦
原件
变态
吉思
城门
墨镜
它能
尚在
并获
彼时
快餐
打卡
换个
撞色
无几
是会
正宗
正月
永乐
派驻
港市
状的
直立
真好
研修
禁区
移交
粗暴
给的
肉的
肩部
能打
自知
荔枝
菁菁
被捕
警官
评判
详尽
诺伊
貌似
递交
逼近
邯郸
铃木
银幕
飞跃
黑人
LOL
▁On
▁Xu
▁正品
不知所
与信息
两部分
也存在
了一名
出生地
创造性
制度和
受害人
吉思汗
和基本
小女孩
新品种
有名的
村干部
特别好
的刺激
的疫情
盐湖城
竞技场
等服务
罕见的
腋自清
莫名其
虽然有
输出的
非煤矿
cess
价格上涨
全生育期
其他年级
可以利用
应用程序
建筑设计
当之无愧
成立以来
现代化的
科技攻关
第一百零
详情土超
进行分析
遥感信息
阿德莱德
▁亚历山大
三卧室别墅
县委副书记
根据自己的
▁第二十六章
强直性脊柱炎
经济技术开发区
距离库塔海滩打车
公里每个客房都配有保险箱
")
bì
▁临
▁剑
▁肖
▁过
▁锡
▁雨
刷牙
南侧
口市
各路
味儿
国之
大通
女鞋
她却
姆林
婚前
字体
少林
山人
心愿
愚蠢
慵懒
抽取
拐点
捆绑
攀登
本网
果汁
查明
河水
游乐
的药
相恋
知足
矿物
科里
积蓄
级车
纯正
老王
而从
而对
育苗
胸怀
脚印
语句
调养
送往
通货
重任
馆长
高挑
高调
黑夜
▁一直
▁最大
▁记得
丝丽妮
中之重
之后再
人妖秀
但不能
做不到
公认的
凝血酶
处理好
大使馆
失落的
家族的
惠灵顿
旅游局
热力江
爱尔兰
的手段
第三个
等有关
网络好
蒙古族
赵丽颖
这一天
cean
ista
严重违纪
哲学思想
大家应该
拭目以待
时代广场
检测结果
现代农业
用户提供
的时间里
职能部门
营业执照
融为一体
重点关注
防控措施
▁Comm
▁第一百七
了一段时间
提供了套房
的原因之一
传媒有限公司
是非常重要的
酒店位于柏林
距离圣家堂步行
▁兴
▁摩
いて
一言
丁宁
上调
世事
乒联
人中
你去
加了
加利
千禧
可疑
后将
启迪
喊话
地主
场内
外人
好坏
射频
就跟
尼特
心力
感性
我却
换装
最优
月获
本领
此病
洗发
燕麦
用过
疗养
穿插
立志
红牛
维吾
缺血
育发
芬芳
芳香
萧条
议院
超值
过错
这般
遮蔽
重逢
闭经
马鞍
▁EV
▁Ma
▁en
▁un
▁河景
▁看着
▁遇到
▁阳光
不到位
制定的
双胞胎
和国际
围绕着
如果想
年轻化
并提供
想象力
把孩子
最早的
来帮助
的成长
目共睹
经常在
维持在
这些都
非常小
高效的
ever
人大主席
咨询服务
咨询热线
地理信息
基本要求
希望通过
征求意见
拥有一个
指导学生
文化中心
熨衣设备
电子信息
社会责任
自然灾害
车身侧面
项目管理
刊物上发表
卡罗维发利
celona
上海交通大学
公里蒙特利尔
领导小组办公室
▁共用卫生间等设施
▁高级双人或双床间
NH
▁使
▁静
下图
不值
不慎
两座
佛陀
凹凸
刚性
后市
周立
喧嚣
嘉庆
在西
场馆
多想
天长
导游
小丑
小强
德利
感官
找寻
投保
抢占
搞定
摇篮
收缴
攻克
攻防
新低
旗帜
是高
正直
河西
深邃
然大
物件
皮尔
盗墓
破损
神兽
笔画
算了
粪便
素颜
聘任
背上
裴森
过人
迷离
道床
隐隐
预留
▁文化
三季度
不列颠
与他人
为主线
为单位
也确实
了我的
会让你
剖腹产
图卢兹
帮助下
开放的
没问题
的地步
的性能
的看法
的结合
红楼梦
著作有
融入了
金山云
with
work
▁bed
万元以上
专业人士
两个疗程
佛罗里达
健康管理
典型例题
卵巢囊肿
及时发现
妇幼保健
学术交流
市场监管
市委书记
招生计划
教学改革
教学研究
是一样的
最佳阵容
服务很好
桥梁工程
结构设计
道家学派
在疫情期间
发生交通事故
结合我县实际
▁Market
住宿加早餐酒店所有的客房首要标准
"?
qe
▁温
▁至
下乡
不以
之恋
买一
便能
偏差
全集
几句
剧的
北欧
匮乏
县名
团团
奇艺
富翁
寻觅
就拿
屠宰
应是
形体
得过
急诊
慷慨
我才
抒情
挪用
排长
敦睦
无前
本事
梦的
泰森
玉环
白发
科协
穿刺
符文
简陋
缩影
网签
者也
耶纳
花莲
蜡像
补习
诡异
转业
边防
连杰
迫使
里奇
重创
飞速
黄疸
Dou
els
▁不再
▁人类
▁影响
▁空间
▁管理
不满意
与经济
中国家
为孩子
体育报
元豪华
充满着
其实在
副组长
加强了
十九条
和学习
和政策
在经济
就是说
并表示
感染了
按要求
数学系
是世界
景德镇
月起任
有一条
的确认
的诊断
的那种
网站上
要做到
都是由
长大的
阅览室
▁Kar
▁圣家堂
▁额外一
临床医学
养殖面积
南开大学
国美零售
大部分的
得克萨斯
看起来很
管理条例
精神分裂
线上线下
联防联控
警告处分
负责全县
地方税务局
纤维蛋白原
▁Inter
中国人民银行
套房酒店都为您想到了
住宿加早餐酒店都为您想到了

(
DW
Sc
yt
▁〔
▁交
▁尼
下篇
专线
东坡
丝瓜
二楼
人来
低压
侥幸
倍的
充斥
克隆
八十
公墓
六级
兰花
制裁
化作
北汽
升起
唯独
商用
塘村
大爷
夹克
审稿
富人
干了
并由
当了
很远
心碎
快感
扶手
擒虎
春运
本金
极力
根基
桔梗
梯田
沈义
沉寂
淹没
清远
理所
用完
盛开
相助
看你
睫毛
石墨
空腹
组团
罗汉
肥沃
袜子
诞辰
豌豆
迎宾
邓家
采纳
金叉
钢丝
银保
阻击
陪练
餐具
▁CH
▁oh
▁大众
▁结语
▁阿拉
▁高考
仓储笼
但是从
前不久
勾勒出
又不失
可怕的
在前期
在现场
女儿的
就好像
并不大
强势的
所大学
抽动症
故事的
方位的
生孩子
白血病
的中控
给别人
老人的
而得名
聪明的
苏州市
通常是
遭遇了
郁金香
都是以
麦克风
ondo
▁Int
▁遗传学
一直处于
不得超过
专家提醒
初三学生
化学反应
好自己的
市场竞争
我们现在
排水沟渠
第一中学
迄今为止
erson
投资有限公司
住宿加早餐旅馆
住宿加早餐旅馆位于
计划大力发展种植业
▁University
Gr
ye
▁¥
▁范
】【
与大
亚瑟
佩尔
元帅
其人
兼治
农资
刑警
单挑
南邻
发觉
受孕
号楼
周瑜
哈利
在手
妥妥
定金
客家
工序
庄家
库欣
张贴
德萨
心生
我所
战机
扎根
抛开
收复
文选
明媚
校内
样品
梨花
棵树
求学
洛伐
淡水
深耕
病史
皮脂
督察
粮油
背负
草坪
许诺
钟馗
防滑
面条
高热
inn
vol
~~~
▁公开
▁吴哥
▁对手
▁美职
一个好
了一家
人行道
位置的
创建于
发生于
和朋友
团支部
实际的
对企业
就是你
开心的
我们所
教学的
是基于
最爱的
有那么
服务商
玉溪镇
环球牌
的人格
的大门
的对手
看不出
纳酒店
裴擒虎
让患者
走到了
转基因
还不能
透明的
速度快
邓世昌
那一天
都会被
主要内容
免疫系统
垃圾集中
床和早餐
温特贝格
希尔顿花园
ension
位于斯普利特
配有别墅设施
配有阳台露台
▁塔克西姆广场
RI
▁迪
一则
不休
不带
中兴
之友
乐府
价的
会和
你却
佳作
兄妹
凯特
北斗
北邻
博文
反向
古斯
合照
和解
大雨
娜娜
客机
宫腔
小薇
巨石
帐户
干的
并列
座的
强壮
徽柔
扎比
拉蒂
普林
桌面
浩然
淡定
混淆
清香
灯组
狩猎
瓦茨
碎石
私自
经受
编导
翻墙
而至
脱宝
苦瓜
谁都
超前
辛勤
过失
酸甜
长子
陨石
预习
领事
风范
饱受
首页
龙虎
NZD
cis
▁同步
▁图书
▁河南
不能让
中表示
为导向
之后就
亚热带
人造肉
出版了
可能的
和道德
在当前
基因型
天下午
奇怪的
姆洛夫
审判员
宫颈癌
张专辑
手术的
接班人
无尽的
期间的
本哈根
杂志社
林匹亚
的一幕
的一首
的高端
管理科
被人们
要进行
谭德塞
起源于
那么就
ates
logo
▁现在的
一个问题
动力电池
商品住宅
干部职工
所以大家
所属球队
文明单位
疾病预防
第十四章
经济贸易
课程标准
调查研究
采尔马特
蒙马特高地
镇党委委员
静电理疗贴
▁位置非常好
▁隔音不太好
▁所有的客房首要标准
CX
zo
▁属
▁杰
▁松
万能
三条
主权
丽笙
保住
养颜
切口
刘家
加登
化生
升天
卖了
却有
发芽
台风
吃喝
各样
名次
后可
向左
唏嘘
啦啦
四位
在同
坚硬
大法
奉为
安乐
安庆
少爷
开元
我从
打成
打理
报批
教义
散户
春暖
显性
来电
枯病
棒的
段落
每晚
比的
毫克
漂泊
爆棚
知己
硬盘
稀释
美方
翻车
茄子
莫德
调皮
路过
较弱
迭代
酵素
里雅
闪光
阿卡
阿贾
飞的
马车
ger
off
yan
”,《
▁开学
▁比萨
▁类型
▁让你
▁遗迹
》),
与美国
五个一
以提高
准备的
合理性
在你的
多少人
好处的
孔雪儿
实施的
对人的
希望的
推荐的
明斯克
是一门
最关键
最常见
本身就
治愈率
游戏里
的人类
的创作
的含义
的研发
相呼应
红外线
至少有
被发现
西南部
陈乔恩
ular
▁Per
一直从事
也有可能
你是我的
关于做好
农业机械
劳动保障
哲学家和
市教育局
应该如何
引起重视
正在进行
相关专业
空气质量
纷纷表示
纽约时报
解放者杯
课题研究
▁厨房很好
学生的学习
残疾人康复
看起来更加
▁第二十七章
质量技术监督
ij
▁柳
▁耶
不免
他想
侵袭
公害
剑魔
加载
北面
受人
受限
回馈
在售
外侧
天性
如实
宜人
家伙
将由
尖端
山川
己方
师专
平滑
康提
总台
戒烟
打赢
拉扯
料理
日趋
枣庄
枪械
树枝
正统
源泉
滤波
爱过
王菲
甘油
电工
盐水
秘方
竹马
精良
约尔
缺氧
耐克
育儿
脂溢
西米
逆风
造影
遮瑕
银杏
香锅
高僧
▁Am
▁qq
▁学会
かなる
一些小
一共有
不建议
不相信
以往的
以确保
位客人
体验服
号酒店
国产车
在外面
垃圾桶
对这些
显而易
更新的
最快的
李景亮
梦想的
洛伐克
的品质
的地址
的地铁
第六节
维吾尔
而这种
规中矩
负增长
这台车
Play
一定程度
临床工作
主要经济
交通不便
全面推进
刑事责任
帮助孩子
或多或少
最大马力
物业公司
结束之后
设计风格
适合种植
遥感影像
高速铁路
▁道路工程
位于里斯本
审定委员会
新京报记者
的生活方式
米克诺斯岛
ternet
科技进步一等奖
ke
{$
▁见
▁阴
一一
东县
企稳
住持
作弊
修课
养育
军工
减排
出境
利器
刺绣
前身
向阳
和有
咸丰
图腾
基尔
墓葬
实则
干嘛
平的
并可
影城
征管
慕容
战乱
打包
打响
援引
新月
机缘
构思
果园
果糖
段的
汉代
清算
炒股
狼疮
王思
现就
画风
社群
积淀
第安
给到
脑瘫
节第
获省
蒂亚
虽有
被抓
财力
趋向
迈克
还对
还曾
银奖
黄老
Kar
SAR
▁在此
▁比分
▁路面
不那么
中饰演
主义的
传染性
十八条
又开始
和信息
图书室
在直播
在第一
实现的
常见病
教育家
柴油机
深深地
的一员
获全国
转载请
辽宁队
都十分
重要性
非线性
ffer
不得转载
也是因为
买卖合同
以下几个
劳务输出
在这方面
大众汽车
对于我们
平方米的
建筑材料
很重要的
总体来说
换句话说
比较高的
组织协调
经济管理
适龄儿童
镀铬饰条
问题研究
▁米拉之家
▁视频游戏
重点实验室
▁Break
垃圾集中堆放
▁托普卡比故宫
partement
公里每个客房都配有
$}
mo
▁丰
▁省
▁绝
七十
上和
不力
中耳
争相
人机
代办
八个
剧目
华纳
博卡
去过
发给
可信
台车
名言
吸入
大病
天籁
季风
安稳
寒冬
小乔
属实
山楂
岘港
州人
帕特
开场
引流
归化
徒步
得罪
打下
拌匀
提炼
摇摆
播音
擦肩
无极
本营
梅毒
水性
海角
滋补
甩锅
电线
盗贼
站位
童子
紧缺
罗的
营地
要件
视感
解封
该院
送去
途经
量和
铸铁
锦绣
PHP
WMA
can
▁教学
▁湖北
万物的
不多的
不平衡
不经意
中获得
了一起
亚当斯
伏正康
但这些
出风口
创造力
利用率
到自己
原来是
和处理
国防部
审计局
客房好
对象的
对面的
散发着
旁边的
服务和
比较的
的主流
的工具
的日常
的错误
福州市
规划的
退耕还
▁Zhu
▁巴厘岛
▁第两百
为什么呢
也要注意
人际关系
各方面的
大学生的
好不容易
学前教育
实际行动
精益求精
统计工作
行政部门
越来越好
随时随地
ffice
▁love
与众不同的
具有良好的
并不意味着
独一无二的
让我们一起
▁兰布拉大道
▁奥林匹克港
▁第二十八章
在职大学学历
usiness
▁加泰罗尼亚广场
tv
▁民
こと
一龙
上官
下场
为国
丽人
云端
五花
佐伊
值为
几周
出其
到此
动辄
千人
合规
吉亚
名山
咬金
咽炎
围棋
基石
安抚
定性
定格
实名
小人
小猪
店里
念念
手自
数控
未克
末期
村子
标语
梅斯
江路
沪指
病痛
痛快
砂石
科斯
胃口
自驾
英伦
茂宜
蓝鲸
薄的
西边
西门
谷子
辅以
送达
闭上
高二
魅族
齐国
龙镇
▁两个
▁创业
▁父母
▁男人
▁科室
▁避雷
三年的
书画家
于小卉
他还是
任教师
使用时
卡洛斯
对所有
就容易
悬浮式
执行力
有保障
河正宇
爱奇艺
的回忆
的预防
瞩目的
第三人
获国家
行业内
被视为
要按照
要选择
覆盖率
长续航
魔术师
▁Lux
▁亲爱的
也不可能
分享一下
可能就是
学术研究
完成任务
快捷假日
技术要求
旅客运输
月出生于
照片中的
的是什么
编辑推荐
遗传因素
高三学生
▁研究方向
▁风格独特
雷克雅未克
感染新冠病毒
▁Center
岁加床政策根据
垃圾集中堆放场地
距离布拉格环球蓝联退税点步行
)"
ME
NF
▁●
▁惊
▁韦
一脚
三清
上万
下令
主的
之言
公募
关机
兴隆
出乎
击退
初试
别具
功力
卖货
县安
发财
名思
商机
喇嘛
国脚
均已
大开
实属
室友
席位
张某
彷徨
战友
担负
拉着
教员
普斯
构图
汹涌
沃斯
洽谈
温婉
煎熬
王府
的门
直击
粗壮
罗曼
翼翼
脱水
蒂娜
表征
警报
认购
费率
辜负
追杀
道长
邓元
限期
隔夜
顶层
首富
高昂
PLC
iam
lob
yao
▁尺寸
▁江西
▁英雄
▁长沙
不及待
交流与
人与人
元素的
军分区
多一些
好成绩
展开了
应该在
性激素
情感的
承担了
日发布
案件的
比较小
法拉利
的不是
的高低
社会中
站起来
第十七
脂溢性
自信心
资料的
近两年
都具有
门广场
面神经
高标准
齐达内
ross
▁Cal
▁三人房
▁哈尔滨
▁洛杉矶
中的作用
为进一步
事故发生
党风廉政
可以得到
在季后赛
在此之前
基本知识
孩子们的
实践活动
就是这么
工商管理
影视作品
最终还是
电视节目
穿在身上
经济损失
越来越少
isode
不知道大家
云南省昭通
克鲁姆洛夫
提供了海景
▁标准大床房
设施不够完善
▁Design
床女性宿舍间的
国家自然科学基金项目
-,
SK
▁买
▁师
▁身
▁陶
一楼
上篇
九江
也未
优胜
停在
光伏
光华
养路
凯悦
前五
南沙
博尔
取向
另据
吉娜
后裔
向着
听觉
回流
太小
字伯
守约
宝妈
富士
年以
康德
张艺
形而
德莱
情理
房抵
扁桃
投档
抢劫
报社
拉邦
按揭
挑衅
撰文
旁的
无证
昌平
是新
月到
棉衣
次日
河景
法兰
淑女
淳朴
热巴
生抽
神农
胆汁
角的
贴合
赘肉
转子
较早
都以
顺义
IBM
ban
▁co
▁”。
▁特价
▁车辆
不正常
但是这
可能要
司法局
同义词
和建议
接触到
是全球
检查和
波尔多
犯罪的
甜美的
的线条
的车身
的预期
被授予
要通过
高清晰
IEEE
▁per
一切都是
是这样的
行业协会
西热力江
迫不及待
.....
house
tique
中医药大学
单位和个人
管理委员会
是伊斯坦布尔
▁西班牙巴塞罗那凯旋门
别墅一直致力于为广大顾客
)+
RK
kd
pp
▁森
▁死
上山
东区
二三
佩克
党史
包臀
卡普
受精
向右
周到
四轮
多纳
害羞
局级
居高
带入
庄严
心地
息息
成龙
抽查
拥护
挂着
排球
文理
无须
日和
日是
时至
本命
李铁
梅里
武夷
每隔
湿热
玄武
玛莎
画师
皇室
秦皇
竞选
端正
粉末
肥大
胸闷
艾瑞
车险
载人
边形
远大
遇难
邮轮
郁闷
重在
面孔
驾照
han
ips
ute
▁Mu
▁再次
▁天下
▁每日
▁民族
▁沈阳
▁邓伟
但目前
全过程
凤凰山
加工厂
却因为
召唤师
和要求
我的爱
教练员
母公司
沉重的
深层次
玫瑰花
的不良
的文字
的老人
等进行
经历的
蔬菜和
负责本
这几天
连载中
队员们
▁巴特罗
不断完善
中国青年
优秀人才
出了一个
各级各类
学生学习
尤为重要
就是一种
年度计划
怀孕期间
意思是指
抵押贷款
搭配一条
有很好的
服装设计
检测技术
清热解毒
爱国主义
相关知识
行政机关
资源管理
进入校园
▁will
▁加拉太塔
的设计风格
证券交易所
▁巴特罗之家
▁新京报记者
中国社会科学院
eStarPro
▁Chapter
▁中华人民共和国
环球牌组立式零件盒
▁仁
なた
三者
上皮
不凡
不实
中含
中将
之忧
乡的
交锋
亦作
做题
六道
农用
凡事
列传
别致
前程
化县
卡纳
吃亏
在为
座舱
张良
往生
待人
德州
心痛
忏悔
怪的
撤退
收治
新政
无边
早些
春晚
智者
暂不
极强
查德
桃园
沧海
法门
片刻
狂暴
的就
相隔
瞩目
等国
红素
红肿
细纹
编入
网吧
耗费
耳边
脑部
苛刻
英勇
莲藕
衡阳
衰弱
被困
诺言
贪污
超标
重制
陈国
鲜肉
NPC
ava
xiá
▁丛书
▁你说
▁农村
▁感谢
两人在
也一直
也很有
从去年
他们也
你喜欢
刘雨昕
十五日
华晨宇
双方的
大尺寸
太过于
子课题
宫酒店
就可能
战胜了
斯坦福
显然是
来判断
环境与
的几个
的演技
的饮食
福克斯
立足于
走上了
超强的
遗失的
遗忘的
重特大
风湿性
三分之一
临床试验
企业经营
千万不能
奥格斯堡
婚纱摄影
对于那些
广汽丰田
我们就来
我的世界
深入人心
理论基础
社会经济
设计语言
重大问题
间盘突出
乡人民政府
到底是什么
卫生不太好
法定代表人
华东师范大学
起居室等设施
aterials
中国特色社会主义
LO
TC
▁公
▁应
▁求
▁浅
▁落
▁镇
一的
一试
上任
中庸
亚尔
代步
体量
例行
光是
凭着
出狱
分型
切的
前端
加纳
卡迪
卫国
历来
双语
发稿
古朴
各异
名著
四五
在天
外文
奴隶
实处
布兰
平庸
建联
归根
影业
总线
情深
投稿
披肩
掘金
文摘
时可
期为
松动
段子
气球
洛奇
淡雅
滕堡
火烧
申领
画展
痛点
的低
盘整
砂糖
神龙
稳妥
稻田
竞品
笼罩
缴存
而她
自贸
舍弃
航行
花粉
莉亚
蛋壳
融化
血的
要不
要走
说完
请教
赚到
邻近
酒类
钢材
铭记
阴虚
阿玛
雾霾
预见
领头
驾乘
骑兵
agn
▁包括
▁增加
▁昨日
▁是否
▁邓世
上进行
书画院
会受到
可支配
各行各
多大的
崭新的
年进入
张学友
必需品
才是最
打不过
批准的
日宣布
未成年
汉典网
的好坏
给你们
老干部
而产生
而作为
肺结核
认可的
这两位
▁浴室大
不会出现
全方位的
历史悠久
原因就是
城市建设
培训工作
就会导致
库萨达斯
心理压力
心理学家
比亚迪汉
看得出来
紧紧围绕
考试成绩
能够帮助
营养成分
设施建设
资产负债
通过网络
重要思想
金装组合
▁comp
▁代表球队
▁基层组织
含有丰富的
科学研究院
道路为土路
机动车驾驶证
▁......
▁伊斯坦布尔大巴扎集市
AL
ān
▁终
れた
与会
之眼
乡人
争执
交手
光阴
党务
全资
其身
内特
军校
刑侦
剑圣
功臣
化肥
卖房
南白
印章
卷发
反倒
史学
名下
因斯
圈粉
坦然
境地
好玩
官家
实景
宽阔
就已
岳麓
并称
序幕
徽章
心法
成因
手握
手表
扰乱
抛售
换来
数为
杀灭
柔性
武士
法语
消肿
清末
源源
灭亡
狗粮
电极
留着
盆地
眼皮
稼琪
西佳
西区
谦虚
车友
载入
过半
退回
道者
雷拉
音像
预估
鹏程
麦当
cad
iOS
▁ne
▁qu
▁运动
▁黑色
一小时
一般指
不够的
二十七
仅有的
你没有
劳塔罗
十五年
可导致
周星驰
大多是
巴拉望
市场和
年夏天
年年底
年高考
恒大的
早发现
时间是
时间短
更多地
殊不知
比较低
的优点
的小孩
的改变
相对应
第二批
第十六
翁贝托
购买了
那时的
都希望
都开始
都认为
音乐家
onio
▁Fil
严格落实
也是相当
也有不少
人民银行
克利夫兰
八十一章
只是为了
在我们的
复读功能
恢复健康
所需要的
技术应用
新闻媒体
本赛季的
欢迎大家
研究项目
详情比甲
还有其他
这些东西
采取措施
隐性遗传
需要一个
青年旅馆
illas
才是真正的
▁加拉塔大桥
▁第二十九章
学会常务理事
▁教堂地下水宫
▁波盖利亚市场
双人床或双床房
▁圣索菲亚大教堂
▁多尔玛巴赫切宫
距离勃兰登堡门打车
▁享受的服务与设施会有
ez
▁善
上阵
主意
义乌
乌拉
你将
借着
剥夺
塞特
壮观
宝可
导引
小品
小巷
峰会
店面
录用
想让
我只
戴斯
把关
文娱
欢笑
泡脚
深思
点券
犯规
玉溪
皇上
盈率
科特
稠度
空前
米粉
索拉
红了
耐力
耕耘
能与
融洽
这儿
附中
除湿
鬼神
▁工程
▁点击
三角形
也变得
也因为
也很好
人性的
仍处于
先生说
变速器
后备箱
售价为
家乐福
心绞痛
总会有
成功了
我不会
日表示
时不时
是作者
本来就
条件差
混合料
犹太人
王诗龄
的高速
羽毛球
老师在
英文名
规划局
这是个
鄂尔多
长大后
▁Rec
中规中矩
体育运动
发展方向
在中国的
多特蒙德
大家觉得
如果想要
实事求是
工作效率
形成一个
总的来说
搅拌均匀
生物技术
百科全书
证明自己
退耕还林
随着年龄
ookie
▁Bank
两卧室套房
政治局会议
会议方式公开
明尼阿波利斯
TR
ua
▁あ
▁试
一击
七星
万股
上台
个省
丽亚
举个
做强
八路
农夫
减灾
别看
吴昕
喷射
大关
家有
导论
将领
展厅
建的
开衫
当期
德胜
想说
文一
新作
术士
止咳
民歌
沙子
液的
烈的
烫伤
照相
申花
盲僧
相接
私服
稻草
繁多
缤纷
缤越
网传
网联
罪犯
脓性
色盲
艺昕
迈尔
还应
道门
金明
阳气
青云
骑着
骑马
魏晋
鼓楼
HEV
elf
urf
uro
▁中华
▁回到
▁如此
▁彼得
▁歌曲
▁胜利
与世界
为背景
交汇处
伊拉克
作用下
你必须
便宜的
六年级
即使在
向我们
和环境
回应称
在收到
埃德蒙
培训和
将达到
将通过
很少有
我不想
提供商
操作上
教学与
最佳的
深圳的
猕猴桃
的输出
等众多
经济型
给了我
统计学
艾克斯
花木兰
设施好
还真是
这张卡
都柏林
ille
ogle
▁无论是
中国国际
图书信息
引导学生
怎样才能
所以对于
第十五章
酒店地址
银行贷款
锻炼身体
阿贾克斯
under
▁网络收费
▁言情小说
中国证监会
乳腺增生的
大学生创业
教研室主任
民进党当局
的主要内容
网络不太好
行政双人间
公里协和广场
养殖业等为主
实现营业收入
酒店位于曼谷
公里巴黎歌剧院
村隶属于云南省
全村建有沼气池农户
▁苏丹艾哈迈德清真寺
度假酒店都为您想到了
距离皇家珍宝和军械馆步行
Dr
MM
MY
pv
▁修
▁变
▁守
▁川
七座
三教
交集
他要
供图
便携
储油
博爱
压实
古董
在世
在后
均设
垩白
基站
太乙
孤立
小块
希耶
心意
快点
思索
想买
战线
扬声
投射
接管
文革
无故
景福
机车
浮现
海中
混搭
满脸
热卖
琉璃
瑕疵
瓜果
田村
留恋
盒子
神灵
祠堂
离队
累累
编译
美了
老头
老的
股本
船长
菲斯
证的
贫民
路透
逼迫
银耳
靖江
龙山
uto
▁PL
▁一次
▁动力
▁十一
▁多少
▁影片
▁新华
▁许多
▁遥测
与控制
两年的
个月后
从来不
优雅的
伤害的
勇士队
发展与
和控制
奥斯陆
定位于
岳阳市
年前的
并及时
开幕式
招股书
探险者
敖德萨
文化馆
时间去
是他们
比较有
湛江市
版本中
的平均
等职务
而不能
能做到
能让人
还有的
随后的
▁报道称
▁有人说
▁第一个
▁苏格兰
了大量的
人民交通
参加全国
合资品牌
名列前茅
客座教授
宣传工作
工业企业
房地产业
早日康复
没有加床
现在很多
综合实力
综合开发
acter
▁第三十章
两张双人床
无障碍通道
海滩度假村
生殖器疱疹
疾病的发生
翁贝托长廊
▁第三十一章
该村现有农户
需要注意的是
▁哥伦布纪念塔
▁全村建有沼气池农户
▁农民收入主要以种植业为主
De
Tr
▁洪
▁送
举人
义勇
乐雅
乙烯
九州
书包
五粮
介于
从严
会场
何方
凉水
分销
则以
却因
填满
填词
增效
女枪
宜兴
小李
小觑
常在
弗朗
很差
拨款
损益
探寻
提克
收受
新民
族人
无辜
晚了
晴天
民的
沈腾
沮丧
滚动
球鞋
画画
皆有
直面
着装
等我
精炼
精装
节的
著述
诉说
读懂
赚了
进的
部委
闯入
防脱
阿米
降糖
集群
雷凌
青梅
预判
鸡腿
麦迪
鼻梁
▁Bo
▁克里
▁在这
▁毕业
▁遵化
不能吃
也纷纷
印第安
及有关
司司长
同时又
周恩来
和质量
开创了
感十足
我只是
排座椅
方法与
昆明市
曾经是
正规的
永恒的
港澳台
的准备
的物质
的眼光
的还有
能量的
膀胱炎
谈到了
郑亚鹏
ceed
esta
丝绸之路
个人防护
习题答案
做的就是
四名成人
地下空间
大大提高
委副书记
对外开放
已经不是
师资力量
当地政府
很容易被
我们看到
手自一体
指导教师
方便残疾
林地面积
法律规定
石油大学
社区居民
结果显示
身体状况
隔离观察
非常喜欢
▁法兰克福
▁综上所述
下设办公室
主要集中在
国家发改委
非常重要的
▁古埃尔公园
交通管理部门
月二手房均价
酒店距离机场
丰富的临床经验
▁酒店还会提供一项住宿的免费政策
,‘
▁细
亚特
京师
余家
先手
六合
冬雨
减压
刷卡
加盖
卖给
只因
员的
和无
哥们
均是
声声
处以
多层
太久
姗姗
巡洋
帷幕
异物
当月
往日
悠闲
托塔
换取
推掉
无双
是圣
是该
月球
有致
朗诵
树叶
格洛
款车
汤匙
渡过
滚滚
漫漫
的点
皮书
省油
真谛
眼界
网店
美妙
翻了
肿大
蔷薇
裂纹
装潢
要先
请假
走位
还与
连环
长假
陪着
须知
鸟类
NCA
lov
▁单元
▁老师
中间的
位置上
你可能
保障金
克斯坦
北京的
和分析
在心里
地中海
城堡山
大辞典
并且还
张大仙
弥陀佛
影响着
我感觉
斯科特
是一首
有几个
有条件
治疗后
法学院
法律的
清楚的
灵活性
特希耶
男孩子
的提高
的表演
等国家
红血丝
纽约州
组委会
自然会
距离美
里程碑
buff
usic
▁Gen
▁有苍蝇
▁电子书
个体工商
你们觉得
出自己的
口腔溃疡
因为这些
实验教学
岁的时候
支柱产业
明确表示
深圳楼市
生物化学
男性不育
空气净化
财政部门
身体素质
转型升级
鄂尔多斯
金融工具
骑自行车
高三年级
CSSCI
▁cont
▁交通方便
▁噪音很大
▁维多利亚
▁那不勒斯
也没有什么
政协副主席
Studio
中等职业学校
bd
▁世
▁熊
▁销
三甲
之术
亚冠
亲朋
仅在
侮辱
保姆
倾城
做梦
傻傻
养的
可言
地毯
坐垫
多动
宜居
家禽
山羊
并存
强硬
当她
微妙
微机
忠信
我没
我用
斯里
新潮
明目
普京
更名
本品
条约
椅子
毅力
水温
泰迪
润肺
清静
炫酷
焚烧
皆为
相册
离奇
移送
而起
肝肾
臭氧
节制
荣华
菜品
蚕豆
西西
账款
资管
起身
距今
连体
退款
闭环
防洪
隋唐
顽强
饼干
ISO
▁南朝
▁引言
▁数字
▁智能
▁最高
▁江苏
一大批
上班族
不会被
不公平
不见了
产品和
作品集
农学院
分手了
努力的
发脱宝
名思义
四季度
在工作
宝可梦
想起了
所所长
推动了
支战队
新英雄
柏油路
格里港
泡泡袖
瓜达拉
的一张
的唯一
的攻击
的热度
的白色
的计算
省残联
看一看
第二年
腹腔镜
让玩家
青光眼
fast
ward
▁第二个
一带一路
不同程度
业务收入
共济失调
发病原因
只有这样
各个方面
因为没有
在我看来
大专文化
官方微博
开工建设
或者其他
执行情况
无论是在
本来就是
流动人口
点点滴滴
病毒感染
自然而然
辅助系统
还会出现
防疫措施
革命斗争
顾名思义
各工作部门
拉科鲁尼亚
提供了一个
燃油经济性
特别行政区
瓜达拉哈拉
百公里加速
社区居委会
▁第三十二章
政府特殊津贴
▁Halldis
,「
:¥
GM
bi
▁凤
▁梵
▁言
三类
不稳
不符
不许
两级
久违
人到
人行
体字
冷藏
凡尼
分时
南面
县大
友善
反感
反省
同桌
嗅觉
回访
图上
客流
巴登
异位
张文
心境
披针
拘捕
挺好
撕裂
放疗
更难
曾有
本届
来往
案的
武昌
母子
池塘
海浪
渭南
火舞
灵气
琳琅
由原
秦汉
穷人
绥芬
缔造
营利
血流
衣草
评测
道术
道桥
门人
阳区
阿伦
隐性
预热
麻风
ets
▁施工
▁潜龙
の中で
三国志
中长款
主义者
了一项
了我们
从这里
会大厦
多注意
夫妻俩
好看的
对未来
属性的
希特斯
应根据
必须有
无数的
更安全
来治疗
来说说
消化的
消耗量
然后将
的地区
的女子
的细节
的高级
示范点
第二版
结婚了
艾滋病
设施的
设立了
避风港
雅典娜
音乐的
AMSI
etro
from
▁Bed
也是为了
以下几点
依法追究
因地制宜
学术会议
实践经验
建筑工程
特殊教育
百分之百
第一百一
第十六章
美元指数
距离暹罗
部副部长
Point
irect
▁农村经济
▁村务公开
已经成为了
芭诗丽祛疤
很长一段时间
Bedroom
酒店位于威尼斯
别墅所有的客房首要标准
__
va
この
一血
三一
上说
不料
不走
专长
九章
仁义
伯爵
儒学
免除
再有
冤家
刷屏
前妻
前瞻
医术
占到
叠穿
只得
叶柄
呆了
和田
售卖
商丘
四中
因霍
在阿
堕落
多发
嫦娥
字形
就走
屋子
师长
帮他
影评
征文
急速
所处
打断
打脸
抹黑
挺拔
换上
敬老
数年
机组
此人
比对
水下
消融
涉事
渡口
温差
湖畔
滋生
灯笼
瘦脸
百强
直觉
相约
禁用
苍穹
菜鸟
萌芽
西汉
要让
谈起
造谣
都用
释迦
阵亡
顶着
风度
飞扬
首领
香菜
高桥
OTA
urn
▁不少
▁华欣
▁大连
▁沥青
▁难道
了一年
会根据
切斯特
到来的
博古特
合肥市
周期性
周转箱
因霍温
填空题
奥克兰
就是我
巡洋舰
工业化
张建利
性感的
情概况
成功地
我心里
打造成
搭配的
改名为
条规定
检查站
没那么
活下去
的印象
的另一
的广告
管理等
结果是
老司机
聚合物
认识的
还有着
霍华德
evel
▁Com
之家酒店
公开发表
就意味着
年上半年
年的时候
并不代表
广泛关注
政策措施
救助基金
时间长了
机构编制
白俄罗斯
的原因是
系列产品
血红蛋白
道教协会
不适合亲子
希特斯加登
房抵经营贷
招待所位于
▁第三十三章
全村耕地面积
新冠病毒检测
▁system
公里老佛爷百货公司
BD
fr
▁汪
▁环
一听
万分
中都
举手
之书
之行
于世
他去
以身
伤了
保有
停课
再好
击中
初见
古墓
增资
外壳
外婆
多点
天龙
存栏
宗师
宛如
室温
尔号
才艺
指的
指纹
摄氏
放眼
文武
明末
权属
格鲁
洋洋
测验
溜背
猜想
粒数
结识
肉质
节气
西周
诺夫
贴身
近似
还给
连杆
通达
道安
镇人
镇痛
问责
隔着
雪地
香菇
高楼
ely
now
▁Ag
▁基因
▁连续
▁音频
上市后
专升本
人员在
价值和
再进行
划分为
后发现
喜欢你
因为这
在医院
完全不
怎么了
所以有
所以要
执行的
投资于
有明显
服务站
李连杰
杰出的
物价局
的严重
的原理
的完美
的步伐
的被动
的黄金
矿泉水
种植牙
第一期
第二轮
篮球场
紧张的
考试的
读者的
超越了
这样就
▁第一次
严格控制
中国移动
也得到了
任何时候
内容丰富
可以增加
在娱乐圈
多长时间
安全技术
就是这个
年下半年
必不可少
提醒大家
疫情冲击
统计分析
网络游戏
都是比较
里雅斯特
齐齐哈尔
▁也就是说
▁酒店评分
▁游泳池很好
生活排水沟渠
管委会副主任
汽车旅馆所有的客房首要标准
Go
Me
▁赛
▁轻
一曲
乐居
也和
五人
交融
元宝
全华
则可
卫东
变质
可可
和王
图拉
圈套
在三
坎特
域名
女娲
它会
宣言
帐篷
弗莱
微风
德约
心血
怀里
战疫
打过
抬高
抽奖
拜访
新一
新版
方圆
无忌
易经
是把
最怕
枕头
比拟
毛毛
永安
波及
深色
猛龙
的来
的石
皮鞋
直通
祥和
稀少
立面
竞价
结题
网贷
羊水
美展
而治
耳目
肩负
船屋
蒂安
觉悟
详解
诱因
路程
跳动
迈腾
追问
道情
都为
链子
院子
魔力
All
ESP
ida
ney
▁图像
▁年龄
▁接着
▁提高
▁民国
▁气味
▁西贡
▁论文
▁道奇
三卧室
上半身
不用说
什么事
什么叫
做生意
健身房
分钟内
动画片
史以来
在那个
塞尔塔
富二代
对我说
市纪委
志愿军
我们能
操作的
早治疗
春天的
是一只
更像是
根据地
濮阳市
特点的
症患者
白衬衫
的舞台
真的好
确定性
经营的
美元的
营业部
行业中
超高的
glas
▁芭堤雅
主题公园
五菱宏光
历史上的
合理安排
商业广场
存在问题
小微企业
工作经历
希洪竞技
投资管理
数据分析
数据处理
旅游资源
有效控制
湖南卫视
经济收入
联席会议
萨尔茨堡
质量问题
还有一种
这个地方
退役士兵
▁客房干净
公司总经理
可能会出现
基本上都是
已实现通电
显示屏尺寸
汽车制造商
的重要因素
专项整治行动
慢性前列腺炎
提供了一卧室
方便残疾客人
春季赛常规赛
茂宜岛已下线
公里巴黎圣母院
贵州省人民政府
leasenot
xx
án
▁体
▁参
▁某
▁铜
下雨
中还
五章
企鹅
休克
低配
入园
公诉
共振
兴旺
前一
剧团
去打
喝了
围巾
壁纸
大咖
婚宴
存有
宫内
年于
座驾
所为
抗旱
文案
斋醮
早熟
是天
显露
暴躁
本级
松懈
歌坛
深感
爱吃
狂铁
看成
者们
肉体
脚上
自已
自立
莫测
西服
财年
越过
路由
转账
迈进
逃亡
造纸
金边
麻将
RAV
▁%。
▁原创
▁自己
▁高速
三十六
不包括
世纪初
乳腺炎
二十九
二十二
以避免
低风险
做准备
加起来
反过来
各地的
处主任
安装了
将迎来
建立的
性贫血
所高校
擅长的
李菁菁
潜意识
燃油车
的论文
碎花裙
第十届
等各类
结构性
讲故事
语言学
还有些
这个小
这说明
oral
rier
▁all
专家介绍
世界各国
中央车站
事业发展
公里自由
原油库存
发现问题
哈佛大学
国际社会
实验小学
小心翼翼
应用技术
有哪些呢
第十七章
精品课程
线上教学
视频格式
重新开放
▁Dong
▁这是一个
酒店及套房
▁整间住宿均设
酒店位于新德里
宠物允许携带宠物
方便残疾客人使用
公寓更合适的选择了
▁巴塞罗那西班牙广场
leasenoteth
▁整间住宿均设无障碍通道
Do
NC
Pr
dr
tt
▁代
▁借
▁养
▁皇
▁称
三章
上将
上机
下称
不买
中对
主队
书名
产前
全套
养分
协力
取材
取舍
受体
名宿
名曰
向你
固执
多说
她也
年鉴
彩蛋
想尽
文山
新书
明知
最能
杨柳
树一
根部
植发
比丘
水母
法甲
相符
磨难
穿孔
红糖
缝隙
而其
肾上
花草
西面
警戒
论的
调到
贝壳
返京
都得
金丹
防伪
YTG
▁tr
▁客场
▁我在
一致的
与学生
他也是
代表团
体系和
使他们
全心全
全液晶
则需要
十四年
及周边
发生过
可以对
可容纳
国际上
大长腿
尼亚诺
当前的
拿出了
接地气
时间段
本质上
标准间
此前的
浏览器
热那亚
的冠军
的竞争
的背景
真是太
触摸屏
请大家
购物街
部门和
阿里云
音乐厅
领导力
▁第四百
东南大学
加快推进
土地面积
尝试一下
年的发展
很多患者
意识形态
最严重的
极有可能
活动中心
的女孩子
的方式来
符合国家
网站建设
避暑山庄
面上项目
▁Jian
▁出版日期
▁花园很好
一定的影响
公里塞纳河
▁World
客房室内电压
蒙特利尔旧城区
BR
][
bs
▁△
▁物
▁纯
一哥
不愈
专为
低速
出面
南安
却也
却很
又好
古屋
吃惊
合体
和白
圈可
坏的
大明
夯实
审稻
宫本
寒冰
射程
屏蔽
帕尼
带宽
并茂
得体
恩怨
惋惜
拍了
接手
插图
摩尔
无袖
更长
曾为
曾说
榆林
每每
比我
河源
活的
浮肿
电图
略带
看守
篇幅
缝合
自考
茨坦
虚荣
西域
越长
近照
这话
进城
造血
部份
重病
长岛
间谍
队在
阵型
预后
饿了
黑洞
kWh
kmh
yin
——《
▁FM
▁so
▁其它
▁广告
▁意乙
▁新款
▁英语
一站式
下方的
中进行
为社会
也不想
亚运会
以及在
住建局
土地上
在最近
地税局
天然的
开始在
引人注
控制住
是一片
是他的
曾担任
状态的
理解为
瑞士超
祖国的
神经性
计划在
试剂盒
赣州市
▁第一步
严厉打击
传动系统
关于开展
县财政局
只能通过
合作关系
基本原理
大部分人
威廉姆斯
工商行政
当代中国
性阴道炎
我们必须
报告期内
步行不到
疫情爆发
第二季度
经济新闻
综合考虑
解决方法
距离影节
身材比例
通货膨胀
道德真经
都会选择
项目实施
ature
贫困残疾人
▁第三十四章
大学本科学历
高新技术产业
......。
ulation
主要销售往省内
▁Boutique
AO
PR
sy
▁昆
▁蔡
▁赤
っと
东面
两千
中轨
乌龙
光亮
全款
写给
医德
反观
嗓子
复赛
天桥
太守
孟子
屡屡
年时
并行
张飞
想像
所含
手腕
摇号
木头
极管
港区
漩涡
玉器
白塔
盛大
盛行
种群
竞买
箱根
紧邻
纽带
综治
耳环
股息
胜过
自成
自拍
药的
街镇
许久
语境
负数
身形
转而
还挺
这下
这句
造化
邻里
零跑
雷特
霍普
青蛙
面纱
顶峰
马努
top
▁不同
▁普通
▁这套
▁预防
下龙湾
严重时
买不起
人心的
代名词
保护的
刘亦菲
利率为
又可以
友谊赛
可以有
和其它
唐艺昕
外面的
安琪拉
工艺品
并提出
开放式
得非常
提取物
攀枝花
检察长
活力的
深入浅
的大众
的头发
的手法
的标志
的热情
的系统
秦皇岛
胡椒粉
蓄电池
轰炸机
道教与
都有了
餐饮业
▁Art
▁Med
▁Vac
▁博物馆
▁广东省
▁慕尼黑
一定不要
为您提供
主要领导
以上就是
刀片电池
卡塔尼亚
只不过是
国际金融
在比赛中
在线汉语
实际上是
实验中学
巴西国际
市政广场
情况来看
我们自己
旅游景区
服务机构
比较容易
理论知识
相关人员
经验丰富
设计理念
资金管理
距离乌布
适用范围
ating
▁一室公寓
▁存储容量
外国语学院
次会议通过
社会科学院
距离乡政府
Theshy
工作先进单位
加床的收费是每晚
生活排水沟渠设施
人事劳动和社会保障
提供了双人床房或双床房
UA
rh
td
àn
▁岳
した
不和
不衰
两套
之花
九五
了大
会阴
伤痕
但你
低廉
入股
典藏
化瘀
原体
参展
台的
哲理
商旅
国旅
地道
太少
头来
存货
尾盘
市镇
干货
心酸
憔悴
我最
拾遗
指控
摇头
改版
政客
故人
文斯
族的
无异
晚饭
村貌
棉袄
歌迷
水深
温情
激起
灯泡
点是
热毯
牙膏
琢磨
的吗
皮损
盲人
碎了
纪实
经由
美貌
耕作
肝胆
胡同
自习
苗条
菜肴
起居
迟早
重装
领跑
龙华
BBA
ema
par
▁商品
▁天地
▁时尚
严重者
中城市
作品展
作品被
全自动
公安厅
凭什么
则表示
博格巴
卫生好
喜马拉
大瀑布
山公园
年考入
并结合
心中有
成本的
易建联
是很难
晒太阳
更强的
更是让
有兴趣
有部分
游击队
玛丽亚
电影的
的一座
的明星
直接的
种养业
科技的
系统等
绥芬河
肾上腺
营业额
解放后
该车的
违约金
重量级
高血脂
PLUS
lish
▁Cap
▁上海市
▁休斯顿
主要还是
交通工具
喜马拉雅
埃因霍温
培训教材
对症治疗
开发利用
影响因素
恰到好处
成吉思汗
战争时期
斯利那加
春暖花开
检察机关
毫不犹豫
等位基因
红十字会
财政收入
这种做法
通俗易懂
都是可以
重中之重
非煤矿山
▁Anal
个体工商户
公里卢浮宫
还是不错的
汽车旅馆享受的服务与设施会有
do
▁冲
七大
三期
三重
下探
不作
东家
二胎
于人
亲吻
代数
伤感
伯利
依山
保全
倾诉
假体
前有
原厂
受了
可贵
同人
吴尊
回路
大典
好后
好吧
好学
妖怪
姚明
寥寥
小城
年是
广发
庭长
我将
扎堆
护甲
按压
星的
曲阜
有别
有好
本色
杨坤
架子
某人
栖息
棱角
楼上
水泵
洛伊
流露
浮躁
涉足
涌入
深知
湘西
满洲
点个
用处
画院
瘢痕
白白
益舒
砂浆
罗尼
者不
脚踝
螺纹
议事
说唱
迟缓
邓丽
酷爱
里安
铁男
首播
马达
驰骋
鱼肉
AMC
▁Fr
▁一天
▁会计
▁圣伊
▁已经
▁建立
▁神秘
▁装帧
▁遍地
。""
不了的
不希望
专家的
中国驻
也成了
了一番
了解的
代理人
你应该
信号与
免税店
副乡长
压缩机
厨房好
双眼皮
发展为
吴稼琪
和老师
在地上
在经过
多发性
天眼查
天花板
存在感
就是用
已超过
总数为
携带者
改革的
文化部
景福宫
有点像
检察官
没多久
爱德华
的高考
真的有
终于在
设置的
这里面
队伍的
阿尔巴
Cent
Unit
rate
▁两卧室
▁二〇〇
▁加拿大
▁有气味
一级教师
不难看出
中国人的
在互联网
在线专家
基金投资
如果出现
已经超过
广播电台
很少有人
教职员工
活动场所
生活水平
第一财经
虽然不是
都是为了
ungal
专业合作社
为大家介绍
具有很强的
基金管理人
巴厘岛美食
常务副县长
晋江文学城
▁第三十五章
距离圣约瑟夫
▁购物非常方便
张婴儿床收费是每夜
别墅享受的服务与设施会有
International
您可在餐厅享用到传统的巴厘岛美食
JP
Or
XL
Zh
▁致
▁象
不放
主研
之用
之遗
人能
会用
低碳
入院
内经
冰冷
前两
口臭
吃不
吃苦
和老
在原
坏人
城建
多在
大打
夸赞
就地
市直
应由
弹力
得天
恰特
惊雷
控件
揭晓
改成
攻打
文华
时被
末年
极乐
汇川
涂鸦
渔夫
玩了
琅勃
的血
竹子
背离
自闭
臭味
苏醒
蒂冈
衣着
衣食
补救
讲了
远了
遍历
邓中
锋线
陈奕
雯娜
香油
Bar
INE
MBA
Red
VID
lev
▁It
▁他说
▁特色
▁玻璃
▁老城
▁获得
不怎么
中国在
也不再
了这一
以满足
你就会
信息和
前大灯
在内容
在广州
在深圳
小木屋
居住地
师生的
年美国
提供给
文学史
日本人
是很有
显微镜
李敏镐
来得及
每小时
瓦大街
病毒性
的人性
的现代
的理想
的认可
知道的
程咬金
空气中
等多家
而他的
薰衣草
诊断为
配置上
集中的
面上的
项目有
食用油
马斯克
驾驶者
主要职责
乘坐开往
同济大学
安全问题
客户关系
市场预期
帮助他们
开始游戏
没有必要
琅勃拉邦
示范学校
社会发展
积极参加
第三季度
经办机构
经济建设
菲丝丽妮
裁判文书
道教文化
邋遢大王
阿布扎比
阿弥陀佛
饮食方面
教育出版社
糖尿病患者
经济的发展
其中养殖面积
新型农村合作医疗
计划大力发展产业
酒店位于阿姆斯特丹
QG
gy
▁希
▁柯
▁混
▁目
上火
不耐
丘克
中天
中来
为生
为难
事关
产油
今夜
以期
伸展
何为
停薪
兴国
内核
再做
别名
前去
北洋
原为
双侧
后才
国六
在山
在第
坟墓
埋伏
塔斯
多于
多姿
大红
奖惩
宴席
家境
市内
年与
并把
廊坊
惊奇
惨淡
是中
朝天
李嘉
来宾
极简
构件
柳州
殊荣
比拼
江堰
流利
流氓
浅色
海伦
渗入
游离
湘江
滴虫
炼油
烧饼
猪蹄
王晓
看他
硅酮
秀才
突兀
米德
网盘
老聃
而使
胀痛
脱俗
致电
苏超
萤火
营商
萨雷
落入
装载
读完
赛制
足足
躲在
造福
道心
雨中
预料
鸡毛
JDG
etf
▁医学
▁学院
▁小学
▁机械
▁瑞典
▁看看
▁课程
与自己
产品力
会因为
全球的
化妆师
十分钟
可出现
可采用
和心理
喜欢吃
因人而
圣十字
在武汉
对王牌
年代初
幸福感
无前例
星期六
村地处
欧元区
款式的
河流域
温柔的
潍坊市
的家长
的首选
第一轮
而引起
联想到
西雅图
该品种
起点网
这么大
都会在
闻名的
▁遗失的
一个疗程
东风雷诺
中国政府
健康成长
公益活动
加州大学
努曼西亚
发展成为
国家一级
在一起的
少年儿童
尼科西亚
收入来源
春节期间
暨南大学
最大程度
有关工作
未经授权
检查验收
社会稳定
规划建设
费特希耶
距离德里
连续三年
道德修养
非常多的
lobal
▁不仅如此
かなる时空
王牌对王牌
的基本操作
类网络小说
高校毕业生
▁第三十七章
▁第三十六章
中国作家协会
该村设党小组
硕士研究生导师
かなる时空の中で
发展和改革委员会
委员会副主任委员
汽车旅馆一直致力于为广大顾客

"
AX
āo
ǎn
▁快
▁著
▁跟
上当
下坡
下课
云集
保驾
偏僻
八戒
写得
凉山
出海
判读
化市
北纬
卷入
双脚
向西
味甘
商行
在人
埋怨
城内
大增
大洋
大田
好心
孙膑
安达
小华
巴兰
常说
干线
废墟
弯道
德基
心头
懂事
拉斐
拜伦
掌心
昌县
木偶
柚子
梗概
毕节
水箱
煤气
生怕
禁毒
禅宗
等为
纵队
维耶
编审
缺水
肆意
脊椎
芭蕾
茯苓
药房
要领
视察
讲学
该项
质朴
过上
逆行
遍及
遮掩
邓先
邓氏
配制
阀门
ars
duc
▁ad
▁主场
▁国王
▁坚持
▁录音
▁自动
▁谢谢
▁通常
▁遗嘱
▁邓华
▁长安
不为人
不是说
不正当
中国梦
事业上
交通部
今天要
冲浪者
利用的
前一天
可靠的
合同法
复发的
天下的
奥德赛
对我国
将会在
小提琴
差异化
布林带
帆布鞋
德鲁姆
惠州市
感觉很
扬声器
披针形
拿浴室
是柏林
显著的
演艺圈
畅销书
的员工
的生长
的统一
的股份
艺术节
被大家
责任心
赋予了
转折点
运用了
飞行员
高中的
鼻窦炎
atch
下方留言
专任教师
人文社科
但是他们
信息中心
关于印发
内部控制
凯尔特人
半个小时
可以用来
司法机关
大面积的
如果能够
完全不同
康福特茵
心脑血管
我们认为
所有人的
所造成的
有效成分
有针对性
杂交水稻
正常生活
毕业论文
没有得到
眼周肌肤
研究课题
资本主义
还要注意
amily
▁baby
位客人入住
年参加工作
并没有什么
是不一样的
法律法规或
自己的生活
豪华双床间
造车新势力
阿雷格里港
集团董事长
▁显示屏尺寸
增加农民收入
windows
人口和计划生育
美国总统特朗普
每个客房都配有别墅设施
FT
gb
▁化
▁门
一模
两层
之急
五保
亮片
仁里
仿古
元宵
先前
八仙
公职
兰迪
切开
利克
到你
剧照
加码
原生
去向
县域
向导
含金
听证
哈维
客串
市中
延边
张三
心声
战后
捐助
无期
本该
来梅
林场
校门
桑德
榴莲
武则
气压
淇淋
犯错
王妃
王小
珠江
球菌
理发
生出
电场
疑虑
病和
百褶
眼睑
空虚
穿得
突起
绒毛
网址
能耗
苦涩
萌新
蒂诺
诗意
越秀
车和
轩辕
轮圈
迁入
过快
这门
遮住
降级
雇佣
骗取
DCT
LOG
orr
ski
▁寻找
▁市区
▁早在
▁植物
▁此时
▁海军
▁相比
▁道州
▁避孕
上周五
不停的
不过了
也并不
了一组
出生后
前提下
十二月
十年前
可以和
向大家
告诉她
大将军
希望对
干净的
年代的
建成后
思考和
总是会
扁桃体
是你的
百分比
的一片
的反应
的摄入
研制的
秀恩爱
第一代
罗广场
西游记
要避免
说出了
请不要
通居士
食用菌
Jack
Part
ipad
▁联系人
▁里斯本
世界经济
国际乒联
岁以上的
布鲁克林
心律失常
文化建设
方方面面
标本兼治
正午阳光
第一部分
西南大学
近几年来
通过邮件
道德行为
隐患排查
骨质疏松
arden
▁Town
前列腺增生
是中国古代
水平的提高
的重要原因
私人游泳池
▁热水不太好
会计师事务所
公里圣心大教堂
同志兼任办公室主任
%

SF
bl
ek
▁即
▁穆
一派
不菲
中野
乃是
之学
之死
乡间
云顶
云鹏
亦称
但当
信阳
元吨
凶手
列出
勒尔
包头
南下
卫士
参会
变幻
口诀
号和
唐书
善待
四平
团伙
壁垒
头衔
如在
孝顺
学识
安冉
宴会
尘世
开户
才算
拒不
接轨
教的
文笔
早前
普惠
本作
机密
柑橘
气愤
沦陷
洋气
洛伦
清宫
游艇
熏陶
牵扯
玄关
班里
电容
盛和
相交
盾山
笑声
索取
结业
编者
置信
美式
美美
考查
而喻
腿型
舌头
蒸汽
虚实
西欧
触碰
诗作
该病
费和
跑跑
轮流
辩护
迁徙
重仓
错觉
陵县
雍正
面值
饭碗
龙舟
▁一切
▁以前
▁原料
▁安徽
▁并且
▁当你
▁快乐
▁本科
▁玩家
▁现场
▁甚至
▁迪拜
一线队
三等功
为主导
之外的
但同时
但最终
保护好
免疫学
变压器
可操作
名球员
在设计
大中型
太难了
孤独的
应当在
开发者
形势下
怀孕了
总户数
才刚刚
持续性
构成的
欧佩克
牡丹江
登上了
的双重
的各项
的服装
神经元
计划和
过很多
这一套
队队长
avid
▁成立于
▁是不是
▁第二步
不断增加
不良反应
专项行动
乌鲁木齐
也没什么
以上学历
健康状态
发挥作用
可以实现
园林绿化
坚持下去
强有力的
很可能会
我们不能
斯普鲁斯
新闻报道
月至今任
有色金属
知识分子
笔者认为
第十八章
该村建有
遥感卫星
非常不错
非常干净
▁Aven
▁发行时间
▁第一百八
可能是因为
标准双床房
一间客房总共
主要内容包括
习近平总书记
公园酒店位于
提供了豪华房
长宽高分别为
Chapter
境外输入确诊病例
▁!
▁愿
一品
三餐
与她
丑陋
两块
为师
主板
乐业
买菜
二章
仍将
何去
免责
全职
再将
分组
到老
前须
又以
吊顶
同城
咫尺
四章
土建
坐姿
增持
大殿
奔腾
姥姥
守住
小额
就对
工科
巨资
常人
年老
很像
心事
心悸
忍者
急着
恩施
悲痛
手可
抢购
抨击
接盘
推开
搜寻
数以
无悔
无言
普法
暗黑
朝向
林荫
树的
死叉
水位
泥土
注销
洛特
活了
深海
湾村
源县
爬山
的校
眼线
碳水
祝您
稳住
简要
纯真
罚单
肋骨
脚跟
茜茜
茨瓦
行风
袖子
裂片
观景
象棋
负有
财税
贾玲
赎回
边坡
迟到
酒的
长篇
雪梨
顶楼
aul
▁Qu
▁媒体
▁社区
▁精彩
万提斯
上升到
下一次
下赛季
不愧是
中出现
丹尼尔
依赖于
保健品
参与到
大气的
小仙女
就如同
局限于
州政府
已经从
希望在
成就感
房屋的
收录了
本以为
欧洲杯
烟台市
生命力
的独特
的现状
的笑容
的进攻
真人秀
示范性
站出来
等措施
脂肪肝
规律的
轮融资
还应该
这两年
下定决心
严格要求
中学校长
中的地位
中超联赛
交易中心
他们都是
公司治理
共产主义
具有一定
国际合作
土木工程
实际操作
持续时间
施工技术
早期症状
栽培技术
毛细血管
深入研究
用户体验
的消费者
第五大道
系统工程
行业发展
详情俄超
语文教学
▁PLUS
▁安特卫普
位于巴厘岛
多次被评为
广播电视台
教育工作者
最大限度地
中学高级教师
芭诗丽祛疤组合
thehotel
▁Express
文化传播有限公司
"-
?【
NT
▁影
▁待
▁进
▁鸡
一栋
三步
三江
不改
不齐
个村
丹东
九天
五次
产的
低音
军方
军民
凯文
北碧
卡瓦
原版
又叫
后任
喻户
团灭
外墙
多用
天台
奋力
学佛
守信
宽广
开挖
归一
归还
征兆
征程
得人
找我
折合
拉萨
招考
捷径
搬到
收看
晨报
朱熹
梯队
油烟
滑坡
漫游
狂热
由你
病患
盼望
福冈
究其
站前
类属
紫外
老妈
谁来
谁知
躯体
近战
那句
重力
重整
金正
铺垫
问她
间歇
阿诺
降压
陪护
风顺
马加
鲜血
黄海
inb
orm
▁we
▁了解
▁播放
▁整体
▁新疆
▁最佳
▁转会
▁道口
不久前
世界中
交通量
会带来
使自己
全华班
全覆盖
博士生
史研究
司令员
和商业
和行为
喻户晓
土家族
在教育
在海外
在这场
坚定的
宫颈炎
就是个
市盈率
德云社
德酒店
扮演的
抗病毒
担心的
斯诺克
是关键
有媒体
概念车
段小薇
用一个
的确是
的美丽
的自己
碳纤维
立体感
签订了
罗宾逊
自然界
车内的
还具有
连续剧
选择性
题材的
ping
play
▁可以说
一个小时
三个方面
中新经纬
为了防止
从一开始
他们认为
他是一个
休闲娱乐
保持一致
出场时间
基本概念
实施意见
师范学校
帮助学生
支付情况
是我们的
独立思考
的朋友们
科罗拉多
第一百三
红斑狼疮
绝对不会
讲述的是
长期使用
高考成绩
ative
ences
ordan
▁Love
主要是由于
因素的影响
广泛应用于
自己的努力
都有自己的
mental
▁客房不太好
在线汉语字典
烤烟等农作物
证券投资基金
归属于上市公司
每个客房都配有熨斗
食品药品监督管理局
公里每个客房都配有阳台
该村目前存在的主要困难和问题是
."
Br
万次
上岸
不二
住处
元钱
关乎
军用
半裙
原住
各科
圣灵
多单
大势
天命
娄底
安逸
官博
定于
家常
对新
就该
尽心
屡次
崩盘
希金
带回
年里
开叉
快报
抗压
抗衡
护卫
抬起
拉吉
拨付
接头
推拿
无害
无菌
暴君
更佳
有事
欧式
注视
游行
漳州
濒临
烤箱
焦作
爱豆
牲畜
特奥
瑟尔
相距
短靴
离休
稀土
稍稍
稳居
管的
绝境
绝非
而论
肥料
能给
舒畅
莫利
请您
跌落
车长
较上
连同
退市
透着
金森
长治
长老
韩系
领土
黄芪
黑头
鼻腔
▁Fu
▁假如
▁寂寞
▁得牌
不适应
中后期
为确保
了多少
了她的
五粮液
会有所
会让人
你现在
停下来
历史学
可能与
名人录
在社会
宫广场
富国岛
延长至
很显然
所处的
打游戏
文学网
是曼谷
更加有
树一帜
的人际
的巨大
的必要
第三名
组合的
而没有
获得过
让整个
输给了
页岩油
预示着
麦当劳
ages
▁Bel
▁Dou
▁Rev
▁Sol
▁双床房
中学教师
也可能是
人物简介
作品目录
全国优秀
函授学院
匹配的是
博卡青年
卫生部门
危房改造
城市发展
外媒报道
如果不能
妇科炎症
是里斯本
更进一步
有很多的
有足够的
环境影响
管理体系
老城步行
质量控制
还是需要
需要进行
echan
▁Flat
▁浴室干净
中心火车站
也可以选择
信息化建设
党总支书记
是斯普利特
的基本知识
街道党工委
andard
设备有限公司
公里巴黎凯旋门
▁Antonio
▁Management
-)
▁奇
▁妖
▁寻
▁解
▁野
いつ
一改
不畏
专区
之功
亚索
他都
令我
你可
俊杰
保命
做着
内含
分发
分队
千百
反驳
变大
吸毒
喂奶
国事
复位
天神
她又
妈祖
嫩的
字样
它与
对局
小黑
帝君
席卷
度量
延年
开本
开端
引力
当属
心来
志强
忘掉
惊险
成佛
找了
拖累
掠夺
握手
放纵
文帝
斗士
无毒
无语
日晒
有几
服的
机智
林立
桐庐
每逢
泰达
焕然
白雪
盐城
筹措
而以
而当
聊斋
藏品
认清
跑去
金子
陆游
隔断
题为
首秀
高通
JKL
RMV
eph
hua
let
oun
urg
▁Dr
▁GB
▁出品
不要让
中国队
也不同
于是就
以此来
你的爱
元器件
几年前
化学系
协调和
南昌市
只知道
可获得
和谐的
回到家
在校生
多一点
大连市
常州市
成交额
比以前
比较少
的人士
的胜利
等车型
纳达尔
纺织品
经常被
胃肠道
至少要
装备的
财政厅
质量的
费尔德
路上的
都可能
阅读网
防御塔
SARS
iPod
ouch
▁yan
▁不来梅
▁制作人
▁请注意
中国国家
中国教育
什么东西
净利润为
创新创业
城市管理
大学本科
宗教事务
并不知道
很多朋友
总队医院
数据来看
明确规定
测量体温
的日子里
的那一刻
管理模式
累计死亡
经营活动
能够达到
让消费者
▁Appl
▁不懂英文
▁服务非常
▁米科诺斯
分子生物学
在这个时候
家协会理事
比较常见的
给大家带来
Rookie
ervice
▁River
▁第三十八章
专项整治工作
产业结构调整
地理信息系统
斯普鲁斯海峡
有什么看法呢
治愈出院病例
遵义师范学院
县人民政府决定
审定委员会审定
各级各有关部门要
▁高层由电梯直达等设施
leasenotethat
是巴厘岛不可错过的酒店之一
EX
xg
▁》
▁例
▁邦
不限
专场
久久
乐意
乱象
云台
亿股
从上
以至
伪造
伸手
但因
余种
作坊
做客
兢兢
公有
再把
冲高
分部
初衷
勇者
南朝
卧床
却能
咸阳
哈卡
回踩
地向
大姐
大类
太差
娜扎
宁可
小鱼
尔蒙
就以
居易
幸好
应试
开大
强国
德比
德语
惩戒
战舰
拍的
支流
收养
敲门
方剂
方舟
暖暖
有偿
杂技
欺诈
正中
沉浮
沉睡
海参
点名
版和
牧羊
疏影
皇城
眼花
磨练
祝贺
科克
绵阳
缺损
置地
翩翩
翻天
老款
而归
腿长
致力
船员
触动
贴在
走入
身在
这和
这群
进京
速率
酝酿
采收
钢管
问号
隆兴
青菜
预先
骑车
高居
高架
高薪
黄体
黑岩
?”“
FLA
afe
ogo
rib
▁Do
▁My
▁在线
▁曼谷
▁阅读
▁青岛
▁韩版
个体的
他可以
低血糖
作者的
保护和
免费的
公交站
净流入
出台了
卢森堡
咖啡厅
哪一种
商务部
在平时
地方的
地球上
多利德
大小的
岁左右
必备的
我们先
我们去
日期间
时间表
昨天的
有时间
本教材
来选择
标准和
气象局
洗手液
然而在
王一博
环保局
生动的
生活费
生长的
的物理
的脚步
的难度
盲目的
等待着
范围为
萤火虫
豪华车
费用的
还拥有
还有人
这一身
透明度
邀请了
alet
ioss
oney
thes
▁Mon
▁Val
▁可享用
▁特朗普
一步一步
中国企业
保驾护航
四十四章
埃德蒙顿
履行职责
已经到了
快速增长
敦睦舰队
普遍认为
有更多的
生产建设
的时间和
的第一个
配有熨斗
owner
▁数据显示
吉米尼亚诺
土地使用权
应届毕业生
火车站步行
ission
提供了双床房
酒店位于东京
ceedings
▁可享用行政酒廊
▁一直致力于为广大顾客
是罗马最受欢迎的酒店之一
>>
▁俞
一众
一局
世乒
丢弃
个案
中乙
中段
为好
为重
为零
之女
之梦
之父
乳酸
争斗
从没
代之
佛像
减仓
出卖
到我
前值
功用
合乎
和后
和马
大哭
太后
太好
女郎
好久
娴熟
子山
小将
山洞
异界
往常
心仪
恍惚
手枪
打交
拉链
收腰
新药
时针
本国
楷模
每到
波谱
泽尔
牛排
电厂
留存
百计
礼堂
空心
站着
等症
红颜
纳利
罗伯
罗拉
美系
脐带
若无
苦县
茶水
虹口
蜂窝
西克
谍照
轻质
退伍
都应
问问
露面
青城
骑手
BMP
CTV
wei
▁Di
▁Im
▁她的
▁展开
▁当年
▁河北
▁超级
上下班
上大学
与工程
也容易
付款后
准确地
南布尔
原因的
周杰伦
多岁的
大大小
大方的
字伯阳
宋仁宗
就成为
尼古拉
居住在
布莱顿
帆风顺
强度的
我当时
提高到
斯托克
新模式
方式和
未知数
珠三角
申请表
白细胞
的信号
的吸收
的基因
的战斗
直接把
相适应
第一款
等技术
纪念日
苏黎世
说出来
资源和
郭艾伦
都江堰
酒店式
▁Har
也非常的
信息公开
分析一下
包皮手术
同比上涨
和自己的
国际米兰
土地利用
在市场上
很多家长
推广应用
搭载的是
有所下降
村容村貌
空气污染
第二部分
给自己的
膳食纤维
自主研发
莫德斯特
进行一次
长安汽车
风险管理
aster
▁第一百九
很大的影响
的一致好评
自己独特的
解决的问题
▁Group
▁Rooms
▁第三十九章
交通不够理想
卫生和计划生育
大学计算机基础
尼亚加拉大瀑布
自然村隶属于云南省
提供了豪华双人或双床间
巴厘岛这个陌生又熟悉的城市
==
IO
ho
▁盘
▁继
不看
两队
中人
之屋
人被
亿人
仁怀
佳人
侯氏
倒贴
八章
内敛
到场
匠心
历练
可笑
商的
在京
复原
外貌
好比
如一
孤影
安神
宝座
寿险
幼年
急忙
总算
想把
戏团
我便
房车
找准
抹胸
拜县
搞得
数月
新山
无痕
是真
是道
普洱
曾于
未有
杂粮
核苷
歌名
汉宫
江东
消瘦
溶洞
满天
版纸
瑞虎
瓶子
的的
祖宗
祖格
秦国
积聚
简报
箱子
纸巾
茨克
荣立
行之
衰落
要与
要到
误诊
赴美
轻柔
选了
造林
道上
遵从
配电
长白
韩剧
顺其
额定
高威
VII
aga
uss
▁乔丹
▁农业
▁准备
▁整个
▁男士
▁科学
▁菜单
▁贵州
》)。
三部分
与文化
中高端
交界处
人体内
从业者
任何的
历史系
压力大
同期的
和各种
和家人
土路面
在这次
大奖赛
大本营
就不用
就是把
平米的
所以才
无论在
昔日的
条件和
来完成
某一个
消毒液
版权归
特别墅
的一样
的区域
的技巧
的检查
的策略
的颜值
皇后镇
睡不着
第二大
第八届
第四百
精米率
胡斯塔
自己做
莱斯特
菲尼迪
被翻盘
走出去
造就了
都是从
问题了
飞行器
饱和度
马丁靴
马约尔
▁Dis
▁Sim
▁奥兰多
专项治理
中国汽车
六十八章
发展改革
可以有效
史无前例
在不同的
处理程序
大幅提升
密切配合
工作要求
工商银行
已经达到
怎么可能
我们能够
投资收益
村党支部
环境因素
而且还有
详情苏超
货币基金
赔偿责任
这一问题
这位英雄
道德哲学
镀铬装饰
letme
uests
▁Terr
▁圆通居士
▁小型套房
富含维生素
是马略卡岛
▁圣安东尼奥
胡斯塔升降机
()
;"
CG
Re
▁司
▁思
▁迷
んな
三口
不移
东华
丰台
义理
也挺
也罢
亚硝
何从
佛塔
全班
冷淡
冷酷
凶猛
出借
分蘖
利尿
匿名
南门
危急
历年
各校
同业
同居
围攻
在有
塑性
声优
多得
多态
大手
太祖
宝箱
对小
将士
屠杀
山海
巨蟹
布料
应为
开店
思潮
懒惰
成正
才子
打听
掩护
攻势
新郎
曾与
有爱
木薯
杂物
楼宇
浇水
海涛
深陷
漏水
点了
煤田
特技
猪狗
甘露
皮亚
矿石
秘籍
移速
符咒
而死
而立
肿痛
能将
腺体
虐待
融创
裁定
让利
记述
诱人
贴士
费力
路子
身家
连云
重申
重阳
铠甲
镂空
面容
MYR
ONE
▁Du
▁上面
▁夏季
▁影像
▁永远
义勇为
也不过
也包括
了一半
会更好
做手术
刘晓庆
十年的
及其在
吴金明
咖啡馆
圣马可
在个人
地铁站
学习与
宽大的
小区的
就因为
年成立
并不高
总资产
我们再
技术上
新材料
是道家
正常人
毕业的
病理学
的一道
的名义
的时期
的真正
的限制
的领导
示范村
第二位
第二期
经济和
能帮助
自定义
蜡像馆
规范的
贯穿式
较小的
还是个
这一幕
这使得
速度和
都表示
John
outh
~~~~
▁在这里
▁演员表
下面我们
中国农业
交通工程
关键在于
凝血因子
创新能力
司法鉴定
品牌形象
土地出让
密切相关
应该就是
执行董事
无副作用
月经周期
有多少人
波西塔诺
生产厂家
目前国内
积极主动
米歇尔山
美国海军
营养物质
身边的人
静脉易康
非常高的
魁北克市
▁Zhao
▁桑拿浴室
国土面积有
经验丰富的
遵义医学院
etwork
乡党委副书记
距离阿尔罕布拉
道家学派创始人
也是您来到巴厘岛
国家税务局党组成员
是巴厘岛最热门的酒店之一
DK
NO
qi
▁甲
▁职
一秒
上层
亲眼
仙气
传入
修罗
公分
其二
再不
写照
凌乱
分量
制胜
力强
卑斯
单间
卡亚
参见
发散
取证
吞咽
图标
圣经
型和
大肆
天皇
天蝎
威信
婚庆
宠儿
尊为
已婚
师曰
广厦
建军
强了
情操
成套
护照
拉巴
拳王
接过
救赎
斗篷
斯堪
新春
日为
时所
昂科
星际
普森
有谁
朝气
本就
李晓
枯萎
椰子
横行
正经
河滨
法与
涨跌
渡假
熟人
牛股
特地
电瓶
盖特
硅藻
碱基
空隙
穿戴
竟是
素食
索尼
纷争
绿城
老庄
腰间
船只
苗木
虚伪
衡水
表层
被埋
角逐
说她
财会
质性
跨度
躺着
这批
酷炫
里叶
降雨
集会
馆藏
魔女
黄忠
Big
GPS
▁Ol
▁Sc
▁历任
▁合作
▁和平
▁悉尼
▁本来
▁生物
▁距离
▁遇上
一切的
一时的
上交所
不安全
与大家
临沂市
乔凡尼
人口的
他们将
以内的
使皮肤
偏头痛
出身的
加入到
勒布朗
卡塔尔
却无法
吃东西
哈哈哈
哥德堡
夏天的
寺打车
就是对
州刺史
座谈会
忘不了
技术及
无公害
是利用
是相当
最让人
月出版
有三个
有效性
毕业班
活动和
独到的
生命中
的三个
的判断
的发育
的妈妈
的贡献
的面积
突出了
第四代
能得到
致命的
让用户
调整后
近期的
项目中
arth
▁尤其是
▁要知道
也可以用
乡村医生
交易市场
会展中心
元双人间
几乎所有
市场秩序
技术服务
指导全市
消费市场
生日快乐
监管机构
监管部门
纳斯达克
肯定不会
胡志明市
落到实处
资金使用
进行处理
远程教育
领先地位
高级职称
▁第四十章
不完全统计
提高自己的
物理研究所
疫情防控和
等详细信息
高质量发展
的时候一定要
国家重点实验室
距离影节宫步行
公里香榭丽舍大街
全村参加农村合作医疗
Apartamentos
▁游
三省
会安
传的
何在
保研
六章
关村
内幕
冒着
写意
出锅
初创
到手
千方
单向
去处
呐喊
囊括
四号
四射
国情
在海
姆巴
始皇
宝典
宝鸡
家政
尔图
尔曼
就从
尿路
巴库
帕劳
打扰
抱歉
指着
挥发
推断
施治
显白
暴雪
曲靖
权和
来之
林志
核对
桐梓
求婚
没啥
法医
滑稽
炎热
玉皇
的夜
的正
看我
短路
石板
精索
经久
维稳
编撰
美妆
翻唱
自营
艾斯
被他
装机
负重
走近
软弱
这四
这篇
远县
通便
遍了
道里
金塔
金龙
闪亮
面色
马的
APE
EDC
dna
reg
▁PS
▁Wi
▁主教
▁人们
▁初中
▁发表
▁海洋
▁蓝光
▁越南
▁道氏
与健康
与处理
专家们
个自然
中文名
为公司
之称的
人数的
从中国
修身的
元高级
克鲁兹
冰淇淋
分上下
可以做
和作用
因为是
奥拉夫
实施了
宣传和
工商联
带大家
并非是
建设中
开学了
心目中
必然会
我们把
我们还
持续的
效力的
星巴克
是位于
最有效
有风险
正是在
比其他
水族馆
流媒体
潜在的
的传说
的新鲜
的直播
的阵容
直接将
硕士生
科技局
第一大
考试中
茨瓦夫
行车灯
追溯到
销量为
阳光下
etty
▁Pol
▁第三步
一直都在
两个方面
个教学班
二线城市
从业资格
何去何从
使用方法
出国留学
动脉硬化
医院治疗
各不相同
固定收益
国家安全
太上老君
客房很好
当事人的
成员单位
按照规定
文化旅游
有关要求
独树一帜
环比增长
现效力于
省级以上
营养价值
营商环境
记者会上
试验检测
银行存款
Inter
交通运输部
前列腺疾病
副主任委员
和乡卫生院
国际电影节
是什么样的
给大家介绍
▁第四十二章
涉嫌严重违纪
真正意义上的
位于特内里费岛
公里蒙马特高地
所有儿童或成人
茶咖啡机等设施
▁Business
▁そ
▁帧
▁潮
三山
丰厚
久远
乐乐
乡曲
买进
产销
从其
像我
先驱
克星
典韦
切斯
初探
千字
南岸
唱腔
圣殿
垂体
多处
大坝
夸大
她对
字符
孙女
学风
安然
实测
宣扬
屋里
崇明
师的
干警
废水
或用
手掌
扫黑
抵触
振奋
换位
映蓉
暗恋
有四
有成
服食
林区
橡树
比方
比比
洞穴
津津
浩瀚
海难
涅槃
澳超
灵的
烧开
牧马
留有
病逝
盗窃
看中
石膏
石英
石门
米特
织物
老少
耐久
能用
脏器
花落
荡荡
药水
落幕
货源
走得
身子
辽足
透了
野兽
针刺
错失
闭塞
附着
雄伟
青涩
)》,
CNN
PLN
Shy
arn
▁AG
▁一起
▁工业
▁朋友
▁校园
▁计划
▁配音
▁长期
一分钟
两方面
也相当
五千言
全国的
再也不
参加的
和精神
商务区
在各种
在大学
定义为
工具人
布劳恩
应立即
开学前
技能和
时候的
最开始
村村通
概念股
水瓶座
沉浸在
热衷于
的很多
的施工
的模样
的次数
的爆发
的那些
直观的
神经病
红河州
纪念堂
经济体
经济区
编写了
能够将
能成为
裙子的
距离东
跟不上
达到的
零件柜
高峰期
BUFF
ears
▁开发商
▁据介绍
一不小心
一个人在
一直坚持
不可缺少
不得而知
事实证明
二十世纪
作为中国
凝血酶原
卫生监督
参考答案
台湾地区
各行各业
呼吸困难
如何处理
室副主任
市场规模
平均水平
库里蒂巴
有可能是
民间故事
爱情故事
特级教师
电子技术
疫情发生
的帮助下
盈利能力
运载火箭
这个游戏
这个过程
这并不是
销售面积
随处可见
驾驶模式
ision
乡党委书记
发布公告称
大学出版社
我们也可以
是巴塞罗那
的基本原理
经济发展的
▁电磁换向阀
疾病预防控制
研究中心主任
距离红场打车
镇政府所在地
▁都为您想到了
哈尔滨工业大学
手自一体变速箱
岁需要加床加床政策根据
▁起
▁集
万众
万只
上交
不羁
两段
主食
了点
交纳
会址
体式
停药
僧人
光速
全靠
冰山
凉爽
减低
出动
双龙
发福
受累
受过
唐宋
地久
地委
塞浦
多条
大好
如梦
山峰
巡抚
并按
弗格
张开
彼方
戈萨
所要
振荡
挽留
擂台
教案
方差
是靠
有二
有天
末端
村上
杯子
板材
水体
泊尔
流体
淡然
清仓
清初
爆红
爱因
特许
番话
真切
睁开
知其
硬汉
结冰
罗萨
肖像
肚脐
臃肿
自测
船上
花木
茅山
荒唐
莉娅
莱特
蛮腰
详见
贾玛
较短
辨认
部和
酒业
重做
锡安
闪闪
陶醉
隔空
雨季
靴子
颇多
颜料
食指
首例
香烟
骆驼
齐亚
ING
ugh
uzi
▁一生
▁不想
▁培养
▁我会
▁拥有
▁核心
▁资源
一瞬间
上厕所
不要把
与企业
为主体
催化剂
利益的
双方在
只是想
和领取
大巴黎
就一定
就觉得
已进入
巴塞尔
年左右
心爱的
意思为
手术室
报复性
持有人
政治学
敏感的
有效期
王思聪
用的是
的中药
的人力
的兴趣
的成员
竞争中
等大型
等手段
米亚克
结实率
老师和
股市场
被认为
设立的
足够了
轻松松
还可能
远高于
遗嘱人
马里奥
高素质
高颜值
Char
Word
iron
reat
▁作谓语
▁湖北省
万亿美元
上自然村
不是为了
不是因为
专家建议
乔治城堡
也出现了
什么都不
信息安全
全新奥迪
全景天窗
八十年代
制度建设
哥本哈根
学习方法
对于一个
就有可能
怎么办呢
所引起的
每天晚上
烈士陵园
现金分红
生活当中
研究报告
经济学院
经纪公司
艺术设计
西奥广场
设计方案
豪华公寓
财产安全
贫困地区
道德建设
都有可能
▁出生年月
▁成语用法
保持良好的
和镇卫生院
因斯布鲁克
市委宣传部
的基本原则
▁Apart
▁第四十一章
工程技术人员
Journal
▁Village
县政府各工作部门
农民收入主要以种植业
ga
yo
▁嘉
▁墨
一塔
不透
且在
丝袜
书目
了其
亚于
介意
余地
你又
侍郎
停业
克洛
凉的
几经
剥离
动用
卷二
叮嘱
可变
号角
告诫
塑胶
增发
增殖
壮阳
大乘
好似
姊妹
守卫
宋祖
实为
富汗
当过
得勒
情谊
我做
扩招
抗震
折不
抢夺
接力
教养
无止
无用
日葵
映射
有志
杀戮
杜克
条文
极富
欧尚
温室
滋阴
独行
琅琊
瓦罗
短片
站上
终将
绘本
继发
老桥
自选
节俭
芍药
血尿
血统
要高
计入
贝洛
赋能
路网
转世
违者
连长
酸碱
错落
长辈
闲暇
须弥
马兰
高祖
鸡汤
黄的
黔北
its
▁Oh
▁你们
▁加强
▁发现
▁官方
▁更新
▁约克
▁舒适
▁追星
▁避免
一样了
不间断
个项目
中可以
人数为
体验到
却不能
厉害的
史上的
和别人
大会上
子宫颈
小伙子
少量的
帕罗斯
并要求
开发和
微博上
必须的
成交价
收费站
放射性
新版本
日报社
植物油
海淀区
混居地
电视塔
的一套
的加入
的行动
的进行
相似的
确诊为
福尔扎
简单地
联谊会
肝功能
解释为
让不少
车型中
适合于
适应性
面前的
oper
uter
▁山东省
一件事情
专家学者
会有一些
先后主持
出了问题
分管领导
加拿大区
医疗保障
唱片公司
基本上是
塞尔丘克
实施细则
形而上学
所以很多
支持证券
文化底蕴
日发布的
生产试验
电影学院
疫情形势
积极作用
竣工验收
网络免费
职业联赛
融资成本
见义勇为
详情荷甲
距离清迈
退休人员
道法自然
风景名胜
eason
▁Mart
▁购物中心
开学第一课
研究室主任
贾玛清真寺
连载的小说
▁第四十三章
出版社出版的
科学与工程学院
随着时间的推移
nf
▁升
▁提
▁果
▁顾
▁鱼
一堆
三合
不朽
两旁
临界
乳业
伯里
值的
停下
减慢
几款
博学
即在
古文
古时
含蓄
回眸
场外
坚挺
士气
复核
头像
妙招
家住
尊者
小叶
小猫
居于
岭村
广为
庄镇
德纳
抽出
新歌
无上
日志
显眼
更易
有条
有较
村中
杰斯
株型
桌椅
永定
沧州
滑动
点上
点心
熏黑
熟能
玉林
琪奥
由市
盐业
盛典
省心
矿区
磅礴
福朋
秦王
窍门
等了
精深
红屋
绑定
绝了
缘由
翔宇
聪慧
脸颊
花果
落成
落泪
蓝筹
被骗
计分
赔付
转播
违和
遗尿
里边
陶艺
靠前
飞度
香肠
马超
马蹄
高科
黯然
bug
▁CV
▁Ep
▁任免
▁模块
▁男性
▁腾讯
▁议题
▁这么
▁适宜
▁道法
》。《
三个人
了一台
从目前
但是她
共同体
制造的
升级为
单位为
可以给
周冬雨
和专业
在韩国
地方志
天文台
密码子
工作时
并将其
性质的
找一个
承担的
散发出
文化与
文物局
斯特尔
方式是
无意中
是所有
是指在
本公司
本单位
款哈弗
求职者
炒房客
玩手机
的含量
的温度
的空气
的装备
空间和
等人的
肯德基
蝴蝶结
过度的
遇到过
部大楼
难度的
马贝拉
高层次
MLXG
mart
▁Rob
▁one
▁大床房
▁本赛季
▁葡萄牙
一旦发现
万元左右
专业治疗
东风标致
个人卫生
中医认为
中国现代
为消费者
主营业务
交叉感染
付款详情
会影响到
切实抓好
哈特利普
学术成果
安全气囊
容易引起
教材内容
民宿位于
水疗中心
流动性的
真正做到
第一百二
签约作者
艺术展览
贝克汉姆
质量监督
资源丰富
距离科隆
这所大学
都非常的
金融服务
霍普金斯
青梅竹马
▁Port
▁一般来说
▁编辑推荐
国务院关于
妇幼保健院
工作和生活
的小伙伴们
研究生课程
▁trans
发表于起点网
涅夫斯基大街
itional
哲学家和思想家
▁Studios
携带宠物入住时间
瓦大街涅夫斯基大街
-(
▁少
▁期
▁直
○○
れる
下岗
不灭
丞琳
之长
乌斯
二本
于心
偏远
元芳
公然
分担
加仓
千元
又可
又说
变频
国旗
圆柱
地税
坐诊
塞恩
多以
大行
天一
天元
妇人
孤岛
寄予
就给
居留
崇高
已将
干道
平顶
建仓
忙于
恩特
悦达
惊醒
戴尔
托雷
投向
报县
放着
教培
斑块
方丈
是因
是老
木工
核验
正向
步道
武大
歹徒
法加
洞口
温热
游船
灯火
牛顿
瓷牙
电扇
疏忽
白羊
盛产
紧随
蓝图
装甲
西施
谋杀
超速
超额
返利
进货
进退
进门
里士
量能
销往
长高
防卫
颅内
颤抖
高涨
Ter
iro
lin
log
▁不详
▁中共
▁书籍
▁即便
▁大阪
▁希腊
▁报道
▁无锡
▁桥梁
▁经常
▁财务
万平米
上一次
不是你
不考虑
为依据
何雯娜
依然在
函数的
半成品
可以先
呈阳性
和有关
在网络
大赛中
威尔士
学生会
实力派
对一些
小个子
带阳台
帮助的
年以后
年全球
应该说
当地人
得很好
情人节
成就了
战争中
改变的
改善了
教育与
早已经
是针对
最值得
月正式
有一颗
每天的
泉州市
现代人
理查德
的冲击
的婚姻
的工资
的情节
看不起
科学城
答案是
粉红色
老玩家
而造成
胃溃疡
能起到
自家的
色彩的
订购了
车型上
还是以
部电影
高蛋白
lock
▁Sal
▁纽伦堡
丝毫没有
主治医师
人畜饮水
会将附有
其实也是
前须支付
办学条件
动力总成
受欢迎的
可以作为
可以采用
可惜的是
因为他的
因为自己
基金公司
客人在拉
就很容易
州立大学
您在抵达
提供服务
擦肩而过
支气管炎
整个世界
有一部分
楚国苦县
电子政务
的确认信
的道路上
第十九章
绝地求生
罗马尼亚
达成协议
这个事情
预订总额
▁PHEV
▁歌曲歌词
和领取钥匙
在收到您的
壮族自治区
深刻的印象
详情瑞士超
会将酒店地址
失信被执行人
老旧小区改造
车身尺寸方面
酒店位于米兰
附属第一医院
actions
▁贝斯特韦斯特
市场监督管理局
酒店位于普吉岛
酒店在收到您的
餐厅儿童及加床
付款详情的确认信
前须支付预订总额
和领取钥匙的地址
通过邮件发送给您
巴厘岛的最佳落脚点
酒店前台服务时间至
▁Breakfast
酒店在收到您的付款后
▁Technology
公寓酒店更合适的选择了
付款详情的确认信发送给您
您在抵达前须支付预订总额
罗马这个陌生又熟悉的城市
和领取钥匙的地址等详细信息
会将附有付款详情的确认信发送给您
?“
AK
▁나
なら
一堂
一扫
一架
一连
一队
万套
不弃
两口
两极
中市
习性
书局
你最
促成
做单
克劳
克明
全车
八九
养血
写成
创设
加倍
卑微
受骗
只用
各区
垫付
大鹏
太低
奋进
好于
如画
宋茜
富城
尚无
就叫
尿毒
差价
干将
干活
平价
幸存
建明
弗吉
惧怕
扩容
把钱
抚顺
披萨
择优
放了
敏洪
新农
日久
日文
春日
本校
李现
村组
树上
武王
气派
涵洞
淮北
溶性
生下
的死
相貌
真香
碧婷
神社
秀出
税款
税额
空闲
箭头
粒体
粘度
纪元
绵绵
缘起
罗西
舰艇
艺考
花絮
补钙
诗经
踊跃
身世
边际
这车
道地
道而
那人
那次
都曾
鄙视
镇上
问询
阅历
附图
露脐
Con
ati
cos
oot
opt
ota
▁主编
▁原因
▁各乡
▁威斯
▁景点
▁正文
▁马尔
与安全
但他的
但这种
你是我
像一个
免去其
创办于
占有率
及其它
后来又
坎佩尔
城大道
多次被
安装在
寄生虫
对美国
总干事
感情的
战场上
抓住了
收盘价
数据和
新课程
是日本
核苷酸
水电站
永州市
热水好
的中心
的姿态
的眼泪
竞技是
而随着
胜一筹
观察到
试一试
购置税
起了一
踏上了
轻轻的
近现代
进行过
郝小强
郴州市
金正恩
陈奕迅
需要有
骑士像
▁吉隆坡
▁道琼斯
为了保证
乡曲仁里
会议纪要
住房贷款
医疗设备
发展计划
在网络上
多次参加
学者认为
对我来说
已经过去
帮助球队
很多人在
得到控制
我国古代
时至今日
特别喜欢
病情加重
知名品牌
社区卫生
积极推进
移动电源
绿色通道
股指期货
能力训练
英菲尼迪
财报显示
距离罗马
距离芭东
配有天井
Super
check
eyond
▁演职员表
▁黑龙江省
三叉神经痛
主要负责人
斯特里赫特
萨克大教堂
进入季后赛
Office
配有按摩浴缸
旅馆不曾动摇的理念
埃尔米塔日博物馆冬宫
在使用现有的床铺时需付每人每晚
旅馆的人都能感受到家一般的温暖
MT
lu
▁归
▁望
▁遏
一至
为爱
为辅
书香
买下
信徒
农副
出山
卡里
厌倦
听完
图源
坐下
塔楼
塞哥
外号
女婿
她会
安家
安顺
客气
宽大
宽裕
密闭
导线
小林
岛内
市县
弄得
张申
德纲
忘却
急躁
拼图
故称
效仿
斐济
无色
时钟
是想
暗影
来京
梅罗
检出
母女
民法
油的
浦区
海量
游记
满族
猛烈
玄策
玩意
生俱
的反
的强
盖地
等处
管线
米勒
缅怀
胡安
脑筋
舒展
芙乐
虹桥
请勿
购入
走走
踏入
都快
金陵
锦州
长住
问了
隆起
集邮
鲜美
DWG
MSI
ado
erp
ert
hai
▁ap
▁mm
▁卡尔
▁基础
▁此后
▁皮肤
▁道林
▁首尔
一点儿
三连冠
不来梅
与孩子
与道教
两年前
了解和
亿英镑
出行的
分分钟
刘国梁
和世界
咨询师
塔莱萨
奥巴马
好几个
实质性
就无法
工作站
年入选
府办发
忽视了
把他们
支队长
最需要
有更多
清楚了
病情的
的下跌
的人工
的体验
的电话
的编写
短时间
算法的
纵断面
肌萎缩
自己能
苏维埃
荷尔蒙
设计院
该有的
资料图
达酒店
避孕套
院校的
青春痘
mark
ollo
▁新华社
上市以来
不下去了
不仅能够
严肃处理
倒车影像
公共资源
商务英语
国际先进
基本情况
处理方法
大家对于
工程机械
是莫斯科
民事诉讼
游戏大小
电子竞技
留守儿童
留校任教
相对比较
科技公司
联赛冠军
芙乐尔号
认真落实
责任追究
轻轻松松
阿拉恰特
▁Club
互联网金融
厉乡曲仁里
滴血大教堂
的相关规定
华南理工大学
疫情防控形势
▁Centre
▁Commun
芙乐尔号巡洋舰
▁Systems
新冠肺炎疫情影响
▁每个客房都配有熨斗
*.
’。
▁幻
▁萧
▁蒋
▁贺
▁闪
一审
一朝
一郎
七号
不欲
不法
与非
东临
两基
中青
之最
乐山
二层
充盈
分家
刘永
初代
功名
卖方
却要
厄运
原作
发誓
同盟
周文
周炎
喜庆
均未
坎普
垫底
头盔
官府
密云
履职
年入
并举
库容
德性
怨恨
总论
愈加
感想
斗志
施展
智英
橱柜
歉意
正视
正轨
母校
民风
汉子
洗钱
燕窝
甄姬
番外
盆景
石桥
竭诚
索要
纯色
纳塔
缘石
肾气
脚趾
艾米
若能
荒诞
萝莉
袖口
诗中
贴上
辽阔
迷恋
追梦
那张
金石
钱币
锋芒
雾灯
青你
香料
高开
鸦片
鼻塞
齐聚
Lia
jun
▁Co
▁不能
▁生态
▁重点
一般都
不值得
不是我
与创新
与自然
为己任
也知道
了一只
你认为
保险人
八路军
公益性
出来后
加利福
十八年
召开了
可享受
和预防
国语言
在同一
培养了
夜店区
如下图
如何去
妈妈们
娃哈哈
审查和
层面上
常说的
并取得
微信群
才能在
招投标
新生代
施塔特
日中国
是关于
是北京
有信心
本托塔
村集体
江映蓉
污染源
烂尾楼
甚至会
的一方
的全新
的宗旨
的热爱
的能量
的迹象
的重大
看到他
看得见
研究中
算不上
紫色的
能满足
英寸的
要考虑
解除了
让别人
造型的
遇见了
那么大
顶级的
黎智英
默默地
LOGO
cial
osph
▁江西省
主要业绩
也可以在
博德鲁姆
国际油价
如何治疗
容易造成
工作职责
库塔海滩
成为一种
教育机构
无可奈何
有可能会
本科专业
每天都会
的选择上
研究机构
确诊人数
积极探索
突出问题
组织设计
股票市场
莫名其妙
落实情况
规模以上
让人感到
贫困人口
资源整合
重要意义
防护措施
音频格式
uring
人们的生活
的研究工作
豪华大床房
多功能方向盘
plication
提供了标准双人床房
度假村更合适的选择了
套房酒店更合适的选择了
▁Information
和预先付费政策请输入您的入住日期
!“
BL
GA
Ps
SZ
▁区
▁谈
▁释
れて
一瓶
三方
三道
不从
不散
交了
亲民
供血
倔强
再者
击飞
加价
化验
医嘱
卡莉
卵子
及的
发泄
君威
哈顿
售票
善意
在位
地对
声响
天价
天宫
太仓
太快
如也
宿命
密宗
小河
尔赛
尖头
庙宇
悲欢
打死
摇晃
故里
斗鱼
斯文
日到
星元
晋书
未尽
本钟
栽植
此生
氯化
汕优
浑然
溯源
滤镜
点到
独著
琴察
痛的
的国
皮衣
直指
着她
秒掉
积攒
米奥
紫砂
美媒
而今
范斯
藏族
表决
西乙
观摩
课上
跃进
跌到
车里
较轻
连帽
逃逸
选的
酋长
静谧
风力
风起
马卡
马虎
alt
ces
ren
――“
▁IT
▁从此
▁创作
▁尼斯
▁属性
▁必须
▁打开
▁方法
▁旅游
▁特征
▁蓝色
▁青铜
不理想
专辑中
任命为
但这个
分子的
制成的
发挥出
发脾气
可以与
可圈可
可是在
和日本
唐山市
多喝水
多小时
对手的
居住的
年上海
微信号
心里的
怎么去
或个人
支付的
改扩建
放心的
敏感性
是女性
材质的
步行者
浪漫的
清楚地
然后把
特别多
猪八戒
生子女
登记表
的初衷
的股权
的食品
直接被
直播的
研究了
等功效
等重要
算得上
管理人
经常性
见到了
语言的
说起来
象征着
赫罗纳
长长的
NEDC
▁Pan
▁Ter
▁Via
▁主持人
▁大学生
三名成人
不能满足
也会出现
努力提高
可以起到
圣日耳曼
大学物理
尼清真寺
工农红军
开展工作
意外怀孕
我们还是
指导工作
政治委员
最佳西方
杰出青年
核桃产业
检测机构
每天都在
的背景下
第一百七
第一百五
第二医院
细菌感染
自己喜欢
节能减排
行政区划
资金违规
这种感觉
遵义地区
▁任免信息
▁位置方便
▁总的来说
▁文章来源
▁玄幻小说
一定要及时
三四线城市
卫生健康委
学院美术馆
并监督实施
有效的治疗
概述第二节
▁电子书功能
▁第四十四章
在社交媒体上
航空航天大学
青年旅馆位于
速双离合变速箱
酒店位于马略卡岛
伟大的哲学家和思想家
村内主干道均为硬化的路面
Be
Nm
Oh
UP
bb
sd
▁假
▁取
一职
上饶
东明
临沧
之交
之高
亚历
人以
伪劣
佛学
佛祖
作画
例为
兵力
养鸡
凯龙
刺痛
加尼
升初
吉克
听的
和外
哈医
嚣张
四通
多梦
大圣
大观
头灯
头等
奔赴
实操
尽职
执著
放倒
教于
日用
有位
本案
构想
桑乔
橙子
每户
民意
焕发
爱民
狭义
现职
瑞幸
瑞拉
知府
矿井
立在
精制
红梅
罚球
翰林
自建
至极
致死
致远
荟萃
药性
莫属
获批
葬礼
解救
解禁
订立
试管
质问
足额
退化
退缩
送礼
配料
酵母
量比
错位
雄鹿
雪莉
零点
领带
领馆
食道
高粱
黄土
鼎盛
龙眼
???
oto
ube
▁一场
▁一种
▁三国
▁具有
▁时光
▁有了
▁福建
▁结合
不返校
中国区
丰厚的
任天堂
会继续
偶像剧
内尔哈
创造的
加大了
只是个
和投资
和设计
在她的
在教学
夸张的
她已经
应用的
引进了
很好看
总结了
成员的
挺好的
摄氏度
教科文
数十年
有用的
本职业
村公路
杨超越
球员们
用清水
监护人
穿起来
细心的
英国的
获理学
调整好
这一步
连续性
选择在
那么好
需谨慎
魅力的
amon
ties
▁car
▁圣彼得
▁重庆市
一旦出现
不可忽视
严格遵守
今天小编
关键技术
准备好了
刑事案件
刺激性的
危险货物
受到伤害
如何看待
工作经验
差不多了
年的历史
技术参数
文化生活
文化研究
新能源车
无为而治
暂行办法
最主要的
最后一舞
深入浅出
的环境中
目标考核
福塔莱萨
科尔托纳
立体交叉
系统设计
细分市场
结合实际
考研复试
而且还是
背景设定
财政预算
质量安全
资源优势
这个消息
这种行为
遥感数据
部分地区
非常简单
Apart
▁所属分类
▁海滩很好
一卧室别墅
培养学生的
燃料消耗量
获硕士学位
主要种植粮食
生产建设兵团
该村以汉族为主
ification
每个客房都配有天井
主要种植核桃等经济林果
每个客房都配有按摩浴缸
该村的主要产业为种植业
DB
MI
sn
▁城
▁纸
▁难
えて
一盘
一跃
不拘
世外
之苦
乌鸦
九个
书签
事半
五彩
亡灵
仅是
从他
儿媳
入狱
公摊
冤枉
凝胶
初一
剑士
劲儿
单场
变数
可读
吝啬
回乡
回声
在各
塑像
多做
大佛
大坂
大放
契奇
它将
很早
忠义
怀特
意在
意念
我跟
拆卸
捷达
摒弃
操心
斑病
斯珀
新机
时在
智库
最深
月季
标价
栩栩
水里
活化
游刃
滨湖
演习
烟酒
热身
现年
眉山
祖母
租户
笑语
简史
纳姆
绿的
置物
美油
自研
茫然
葱花
虚幻
诟病
购票
走着
输液
那我
都难
野蛮
金秋
镀锌
门面
阅兵
顾及
驻车
高处
box
ety
new
val
▁li
▁不论
▁原本
▁各县
▁槟城
▁详细
▁身份
▁阿里
上一代
下城区
不对称
两个字
也会在
会变得
全国性
出名的
只要能
听音乐
启动了
在学生
坏习惯
太大了
奥委会
她就是
如果我
对你说
对公司
对她的
很严重
很开心
想一想
旅行者
日子里
时间来
有太多
杨建群
流浪者
灵敏度
瓦西里
的临床
的公告
的境界
的增加
的心愿
的快乐
的恋情
相对的
等方法
米以上
联赛中
胶版纸
自己所
记忆的
豆制品
贫民窟
赞助商
路透社
达巴德
那一年
难得的
韩安冉
▁Cam
▁伦敦塔
▁湖南省
中国艺术
中央企业
人工流产
公司经理
兰博基尼
区域试验
可供选择
四分之三
学习效率
已经进入
帮助企业
座堂广场
戏剧学院
所以他们
承担责任
技术培训
是否可以
未来发展
生态文明
的一件事
的带领下
的方法来
相关政策
看到一个
示范基地
第二十章
纪律检查
纪念公园
让人羡慕
议会大厦
负责机关
连续两年
道德模范
那是因为
音效模式
去医院检查
巴拉多利德
布劳恩拉格
技术的发展
爆炸纪念碑
独立纪念碑
的时候可以
的重要来源
过敏性鼻炎
action
▁位置很方便
▁第四十五章
▁第四十六章
专业技术人员
腰椎间盘突出
资产支持证券
广西壮族自治区
距离米兰大教堂打车
▁◇
▁京
▁凌
▁尤
だけ
一档
三五
上村
上过
不问
中村
举起
享誉
人世
仁杰
会务
但凡
作案
俄国
元和
先从
免受
六腑
分水
前几
博多
厂区
又何
发自
可对
听话
呀呀
周的
四维
在地
塞利
外防
多伊
多喝
大嘴
大院
奥会
妖姬
学着
安人
安吉
宗祠
定额
宜昌
富民
小腹
尖叫
巾帼
帮手
年满
建新
开具
微小
悉心
悖论
懵懂
所称
抗争
抵消
排版
推算
新编
新罗
施加
旁观
无能
日被
早于
早间
时无
显卡
本名
杨家
沉沉
河县
泉寺
淋病
爱车
独到
甘虹
甜馨
用它
男的
痴迷
睿智
石屹
社员
移默
细小
绚丽
老街
航运
节拍
花边
荆棘
莫尔
被你
赫塔
迈向
迷路
追忆
送入
遐想
邓公
酗酒
金城
阿迪
露脸
驿站
高教
鱼塘
鲤鱼
USA
ein
ira
spa
yle
▁Sa
▁仙侠
▁慢性
▁接口
▁教授
专门为
中没有
也不必
也有所
二极管
人士的
以此为
传说是
关注和
决赛中
准确性
却一直
原计划
叶枯病
后改为
复活甲
外界的
宣布了
对我的
年实现
建筑群
心理上
成一个
据报道
提升至
搭载的
放在了
新世界
新增了
无数次
既视感
更愿意
更方便
权威的
校门口
比自己
毛主席
水利局
洋溢着
淋巴结
爱丽丝
的总体
的真相
的解释
的象征
第一季
等都是
行驶的
豪华间
轻工业
这正是
违反了
金黄色
▁Guo
▁条形码
▁爱丁堡
不知所措
专家认为
为主题的
以为自己
会有一个
克拉码头
千方百计
可以做到
同样也是
国家机关
图文并茂
如果一个
小康社会
工程大学
开拓创新
成了一个
技术支持
操作简单
文学创作
文学艺术
旅舍位于
最简单的
有很多种
机械制造
民间借贷
现在这个
等级考试
网友表示
罗纳尔多
这么大的
遗传算法
邮政编码
etail
▁作品简介
▁博洛尼亚
加拉塔萨雷
布鲁日市场
提供了经典
日间行车灯
精神分裂症
贵宾休息室
转载请注明
这样就可以
▁Motel
▁残疾人设施
科学技术进步
自然吸气发动机
▁Central
▁有线频道等设施
Ig
My
▁尚
▁邵
▁邹
▁随
七章
三八
三尺
上清
下颌
不生
且有
丝丝
两件
之别
乞丐
二连
亚麻
人多
人脸
低开
低至
作假
俄语
保镖
修持
倒塌
兑付
关切
内陆
写到
冰川
凌厉
凡人
分店
利耶
力作
千珏
南桥
卡诺
危重
去到
反演
只看
史蒂
外传
多远
太郎
奶牛
如火
学长
对标
小车
小雨
尤以
尽在
年幼
年秋
庐山
建业
怡宁
惆怅
想方
懂了
扑克
抱团
拉力
接替
易学
曲风
更小
望去
机和
机枪
林丽
柔美
楚雄
正道
泽西
浸润
火化
火腿
猛进
王爷
环抱
球奖
的亲
眺望
磐石
神坛
禅寺
离场
积压
立于
粉尘
素可
紧固
练功
结为
维利
绿树
罪名
美得
耻辱
脓肿
脱毛
自负
航道
花色
草书
药理
菲齐
蒜末
蜿蜒
补齐
被推
见闻
读了
读经
质检
跌宕
路北
路站
较重
迎战
连贯
送至
选股
通社
道姑
里最
阿什
青松
韩式
颗心
风头
风趣
麻雀
鼻涕
aks
ila
rey
▁东北
▁乔托
▁古代
▁大英
▁附件
不一致
中耳炎
为避免
也并非
了一遍
产品线
使用费
促进会
保值率
共分为
其它的
十一月
各学校
同学的
和提高
和法律
型人才
塔步行
女歌手
好奇心
姆巴佩
姆林宫
完毕后
家族史
就比如
建筑师
建造师
开朗琪
得分王
得天独
我身边
房间里
抗衰老
敏斯特
新华网
日常的
有意义
林心如
比去年
沈义人
浴室好
湖人队
的文件
简单单
管理所
类食物
而努力
肌肤的
认真地
训练生
记录了
费尔南
这四个
遗赠人
限度的
顾之忧
领域中
Inst
ands
▁Ren
▁man
举个例子
交警大队
体育赛事
佛教协会
使用的是
具体负责
内容提要
城堡步行
大幅下降
展览中心
息息相关
感觉自己
排出体外
收音功能
智能网联
机制研究
每天都有
消费者对
现实主义
电影电视
的一技能
糖尿病的
绿色建筑
胡萝卜素
语言文字
责任单位
资助项目
迈尔霍芬
防治工作
餐饮企业
Angel
COVID
lease
▁Cort
▁发展重点
▁带沙发床
▁当地时间
▁所属专辑
个人所得税
布鲁塞尔大
无障碍设施
活动的通知
菲齐美术馆
蔬菜和水果
马约尔广场
Hostel
▁Model
乔凡尼礼拜堂
最近装修年份
距离贝尔韦德
进行核酸检测
aracter
perties
▁Villas
▁带私人游泳池
酒店位于布拉格
楚国苦县厉乡曲仁里
贵宾休息室行政酒廊
领导小组下设办公室
归属于上市公司股东的
公里每个客房都配有公寓设施
EC
GO
GT
Li
mv
▁颜
一去
一应
丁香
三号
上浮
不伤
丑闻
东湖
丢掉
之理
也因
人手
健壮
公允
关税
冲村
出水
别离
千山
口镇
吃着
各答
吸脂
喜怒
图解
均由
多斯
太和
奇才
好用
学姐
导医
屋村
布什
并重
开到
开国
弯路
律诗
德行
念珠
恒星
意象
执勤
抱朴
持证
提早
改称
无味
无闻
是和
本片
机要
李建
查出
栗子
梁山
沃德
法令
泰州
灵性
焦急
煮沸
爱慕
牵强
独木
环评
珍稀
瓦勒
甘愿
甲子
画质
的近
石刻
砍下
祛痘
类和
紧跟
终年
维纳
耐看
胎压
胸口
般若
节庆
节度
蔬果
裁剪
装帧
该行
谅解
走动
超跑
软膏
辞去
逆境
逸林
酒馆
锤石
防灾
陛下
饰板
高人
高明
鲁贾
ART
CoV
GIF
San
olf
ush
▁ac
▁任何
▁优势
▁另一
▁成功
▁检查
▁要说
▁马赛
。”。
一线的
不孕症
不构成
为天下
产阶级
元以上
危险性
原发性
去寻找
县公安
县经贸
又如何
各国的
售楼处
在今天
在最后
基拉尼
失败了
对生活
就只能
工作了
已有的
帮助您
广东队
想不到
打造了
按比例
摆脱了
文学院
文森特
无明显
日举行
日大桥
是大家
更具有
柔软的
栩栩如
梵蒂冈
氧化物
治疗和
流量的
深交所
潜移默
特征的
理解了
琪奥桥
的上涨
的创新
的情景
的排名
的青春
睾丸炎
称其为
第三者
绝不会
继续在
老太太
老师说
能为力
脑海里
落实到
评论员
该系统
都处于
隐藏着
露出了
频繁的
鱼尾纹
▁中新网
一个月的
上汽通用
主体责任
主持工作
作为主要
全球疫情
内饰方面
变成一个
和大本钟
城镇职工
失业保险
对我们的
平面设计
广大患者
康复工程
无处不在
是怎样的
根本无法
治疗费用
活血化瘀
爷爷奶奶
独立悬架
猪狗大战
现代社会
理所当然
竞争力的
第一百四
该自然村
资源共享
那么我们
集市广场
非常明显
ancer
ivate
▁支付情况
▁斯福尔扎
主要讲述了
农业产业化
几乎所有的
北京健康宝
县委组织部
坚实的基础
常见的一种
每个人都有
▁Ocean
圣十字大教堂
新圣母大教堂
距离东湄本寺
estival
▁Jordan
国家历史博物馆
estarpro
▁Windows
▁Materials
张婴儿床的收费是每次住宿
Je
TT
Ti
▁邃
一抹
三郎
不屈
不比
与李
丘疹
东起
两三
丹尼
为官
丽贝
举证
之舞
九寨
也说
仁和
你家
划定
利恩
功倍
协定
卒于
南华
即刻
原声
向北
向量
吓得
吸水
和各
和多
咒语
回转
块的
塘镇
多天
大将
头号
嫁接
孔庙
安葬
宜春
小店
山体
左岸
平息
开裂
当即
惊天
我妈
抓实
提拔
无畏
是经
武艺
没落
波拉
泰尔
洗头
海运
淮海
溺水
漂浮
献给
瑞安
生完
用时
皮皮
相等
着迷
祈求
神父
筋骨
约前
绵延
绿叶
网讯
老区
考前
肉食
肥肉
胶片
自贡
讲义
谋取
贮存
起病
较慢
追加
遗式
遗爱
遛狗
钱了
长年
雇员
高宗
魔咒
GIS
Lux
Par
▁云南
▁化学
▁国外
▁正如
▁点评
▁知识
▁红灯
一书中
上没有
与治疗
两侧的
买房子
二十三
但是它
便利店
先后被
则可以
包装箱
又没有
及各种
发展中
在上面
天生的
太阳神
好兄弟
就只有
年产值
延伸至
开黑节
恢复快
手机的
撰写的
是值得
是这个
更不能
曾表示
武则天
江疏影
波茨坦
的培养
的成分
的房价
的美感
的言论
目前正
相对论
示意图
租公寓
等刊物
练习生
而如果
育发液
诺布尔
费德勒
走下去
运动版
▁Adv
▁Cur
▁Min
▁基督城
▁第一卷
元三人间
写在最后
加尔各答
医疗物资
又称老聃
唯一一个
在视觉上
思维方式
悦达起亚
技工学校
报价利率
政府采购
最新消息
本文来源
深化改革
用地面积
系统疾病
经营范围
美国疫情
行车安全
调查报告
防疫工作
顺利进行
happy
▁斯洛伐克
▁没有景观
人民武装部
今河南鹿邑
外国语学校
市委副书记
很大一部分
房地产企业
次常务会议
的网络小说
符合条件的
这样的事情
高级人民法院
▁位置不够理想
▁Airport
集团股份有限公司
▁农民收入主要以种植
每个客房都配有电风扇
!【
DI
ji
▁则
▁盖
一剑
下药
不误
东皇
东门
两头
久坐
之都
今属
仙剑
会以
佩拉
做点
刑罚
初二
初年
制服
力挺
办好
劳力
半点
历届
原价
参军
取暖
古风
合子
听得
响了
哭闹
四百
四项
园内
在近
地被
士官
大三
大黄
天伦
娘子
娜可
实锤
小众
小遥
巨型
强险
微胖
忍耐
快讯
成大
手提
手柄
才好
承瑛
放任
教化
文垂
无以
是谓
望远
来信
此文
水浒
求真
波点
海风
爱恋
猫神
王道
的苦
秉持
群山
耗时
肾小
背靠
自愈
舍利
舟山
蒂克
诵读
谋求
载客
辱骂
过低
还把
还用
连忙
迪奥
遇险
那只
钱枫
雨林
雷根
风控
风神
cal
▁DC
▁ag
▁内置
▁动作
▁威廉
▁娱乐
▁搭配
▁法甲
▁认识
▁请你
上一年
上下游
不下来
不作为
不等于
中小型
也会被
人家的
冠军赛
出场率
动植物
十几个
发放的
司马懿
在某些
在每个
天主教
安排了
定位为
岳云鹏
开展的
开设了
恨不得
我也是
战略的
所以就
据美国
救护车
昂贵的
普拉斯
最终在
村小学
珠海市
甜蜜的
生理学
电磁炉
的不满
的合成
的愿望
的检测
的走势
监督和
私家车
童年的
第一种
第二条
结婚后
网上的
胆红素
自由基
融合了
试验区
铁路局
青春的
高圆圆
Fran
▁Ass
▁出版年
一系列的
专业学生
个人简介
公交线路
内设机构
吃瓜群众
培训中心
如何选择
学习习惯
峡谷先锋
微生物学
服务水平
来说都是
核心技术
格雷米奥
瓦南布尔
的年轻人
精神疾病
详情欧冠
豆瓣评分
还不知道
这个数字
道家思想
▁乔托钟楼
▁格拉斯哥
▁词条标签
名副其实的
截然不同的
残疾人工作
的重要内容
福朋喜来登
隔音不太好
保持社交距离
年人均纯收入
开朗琪罗广场
社会主义核心
认真贯彻落实
▁Bungal
▁Luxury
提供了大号床间
▁Festival
距离埃尔米塔日博物馆
SC
▁┃
▁亲
▁气
▁荷
三楼
不讲
串串
为名
二院
亥俄
会变
保质
元歌
光了
利马
加息
发帖
可否
名册
国库
土生
地平
堕胎
大罗
大路
宗地
带了
带状
延时
微商
志刚
忧愁
我行
扶正
拳手
指尖
挥手
操行
效用
教诲
是件
是阿
暂无
杜莎
根除
棺材
横空
横跨
永浩
沙尔
烽火
爱了
特工
特异
王宝
瑞克
生水
癌变
百日
皮层
相守
示威
离世
空单
而复
耐受
自用
至高
装卸
解密
诺尔
负载
赛前
赶赴
起大
起舞
超载
车联
迈凯
这回
那儿
酒后
醒目
长出
阴暗
阵阵
降水
雨雪
青客
面广
音符
首张
Cap
You
emp
▁As
▁Sk
▁前期
▁当天
▁战争
▁新车
▁爱的
▁等级
▁结论
▁那个
一些的
世乒赛
中提取
为实现
也不算
也经常
从哪里
俄亥俄
写了一
分享了
创新高
初学者
功能和
助残日
协议书
印度的
却依然
发出了
可观的
和保护
商业街
在不断
在公司
在正常
多见于
岗位上
已基本
度过了
开发了
当一个
录取率
拥有多
搭配了
支撑位
收到的
斯蒂安
时表示
暂时的
最严重
最起码
村里的
柳州市
标准为
每一种
渐渐地
滑板鞋
现在就
白沙滩
的人和
的困扰
的小区
的新生
研究者
竟然是
第两百
约定的
纳塔尔
维尼翁
融入到
解释说
谁知道
负离子
郭德纲
ynam
▁USB
▁第九节
中国专家
乡镇企业
优秀青年
住宅用地
作词作曲
信息服务
加强领导
协会理事
及时调整
另外还有
各种原因
大规模的
对患者的
帮助我们
性博物馆
恶性循环
戴着口罩
房屋征收
改变自己
族自治州
每天早上
比较严重
消化吸收
生命安全
的是一个
皇冠假日
监控系统
目标任务
知情人士
秋冬新款
科里蒂巴
空空如也
系列教材
跟踪误差
这么一个
食欲不振
ights
▁交通运输
▁仙侠异侠
▁疫情期间
商品交易所
思考与练习
核心竞争力
人力资源管理
子宫内膜异位
研究所研究员
维吾尔自治区
肺炎疫情防控
▁主教座堂广场
▁舒适度作为拉
不可以加婴儿床
iPhoneSE
文化传媒有限公司
新疆生产建设兵团
▁佛罗伦萨学院美术馆
距离圣约瑟夫大教堂步行
▁圣母百花大教堂和洗礼堂
▁每个客房都配有别墅设施
BJ
KG
▁付
▁切
▁容
。「
一幕
上位
上等
与新
两会
买方
五首
交大
产区
仙子
以德
伯玉
俩人
假货
停顿
入编
公公
减去
出征
包子
南美
却让
受灾
号为
周密
圣洁
坡跟
埃拉
多款
大到
大麦
头寸
奉命
姨妈
季军
定论
岸边
工夫
布洛
布隆
强弱
归国
很重
心烦
我好
我已
所共
扬扬
抓人
护送
报仇
抱有
搭乘
敬佩
无损
明细
晒干
本息
极光
柯达
校方
校车
梯形
比你
比斯
污垢
海波
海的
湿气
源地
满怀
特有
瑞德
生计
界线
皆知
盘子
石器
米花
素描
红袖
羊城
胸腔
范例
药学
荷马
西伯
试想
赞成
跳出
过期
迷雾
逼真
那般
都县
配文
酰胺
醒了
野战
阴囊
雇主
预选
齐心
eno
sky
▁AR
▁sa
▁协助
▁拍摄
▁继续
▁行业
一本书
万余元
不得了
与他们
个专业
个居民
也不好
仰卧撑
做人流
傅里叶
出发点
十六年
参与的
和健康
商品的
商用车
处理和
孕激素
安置房
年轻时
并不好
悄悄地
手续费
把握好
改编自
无死角
是人体
有实力
标志和
格外的
的乐趣
的事儿
直接在
看不懂
确立了
第四次
等重点
线粒体
结合的
美妙的
脱发的
要不然
规范和
诞生了
贷款的
还有个
这一波
这需要
选手们
遗传的
零售商
ison
omas
▁Lin
▁not
▁所以说
不难发现
中南大学
中小学校
元人民币
区位优势
各种各样
告诉自己
呼叫中心
基本原则
多次获得
大打折扣
室内设计
工作情况
工程设计
我们没有
拟提名为
文明城市
方便快捷
方向发展
智能家居
智选假日
最先进的
最有效的
有效治疗
本科院校
机场打车
熟练掌握
爱因斯坦
的发动机
真的是太
续航能力
能够满足
要求学生
让人感觉
证明材料
这座城市
这是我们
造成影响
▁彼得要塞
▁海德公园
全村总面积
关注的焦点
学会副会长
实际控制人
市政厅步行
混合宿舍的
百公里油耗
自己的想法
这种疾病的
▁第四十七章
人文社会科学
市场监督管理
道路运输车辆
霞慕尼勃朗峰
Section
提供了小型套房
社会主义新农村
▁所有儿童或成人
距离埃尔米塔日博物馆冬
.-
LS
pk
zn
▁『
▁怕
▁群
▁苦
万丈
三门
不缺
不苟
中卫
中求
仍需
伯纳
使劲
依依
侵占
修护
元始
光子
净利
减震
初审
利文
加减
十方
半数
卓尔
南洋
博拉
即位
反杀
反面
可喜
右上
号牌
和市
哈喽
在研
坐拥
夏装
天心
天门
小弟
巫师
帕德
床头
开源
怪异
懒得
我了
所思
把这
接踵
擦干
放样
政局
文言
斯德
新剧
无路
景房
暗淡
杂乱
杂草
李湘
果蔬
树种
梨树
殴打
比他
毛呢
水火
浮出
深信
清兵
源远
灾情
点睛
熄火
爱着
玩过
田县
画卷
疾患
的被
皆可
直角
税率
糖分
繁育
组份
绳子
考究
而作
肤质
腐烂
臂丛
艰巨
节录
茂名
莫特
贝利
货到
赶超
边上
过时
返乡
退货
道行
都让
铜仁
门下
问及
阳春
阳泉
阿图
陈家
随迁
靠拢
音色
韶关
顺治
风向
首府
骷髅
MAX
TVB
amb
ler
▁Bu
▁MB
▁ji
▁两人
▁公寓
▁山西
一下吧
上个月
上海的
上线了
两者的
个孩子
为首的
也不太
了一块
于一身
体系中
先生在
公告称
北海市
单一的
卡马拉
各界的
吸引人
和农村
园景房
国家对
塞地震
多层次
大西洋
奥里藏
学习中
将会有
小姑娘
巅峰赛
市场对
并不像
应该会
恋爱的
成品油
所做的
才有了
放暑假
方式来
时间在
星期日
显示器
更是在
桑托斯
清水秀
球场上
的讨论
的那样
第十八
签署了
累斯顿
组织了
结束的
联证券
胆结石
背带裤
落后的
表现了
要怎么
请点击
费征收
还有点
重制版
长圆形
非常强
面积达
音乐节
预计在
love
tain
▁its
▁本文由
▁芝加哥
一夜之间
也并不是
二手住宅
公开发行
养殖为主
协和医院
处理软件
大自然的
娜可露露
很多观众
微创技术
找到一个
技术指标
投资项目
排放标准
支部书记
新增病例
是一个很
正式宣布
正式成立
物业服务
环境科学
由原来的
百里守约
研发中心
第一百六
精神状态
组织机构
综合评价
虽然现在
行政区域
辽宁男篮
迅速发展
那段时间
▁West
▁性价比高
可支配收入
年春季学期
等多国语言
结合在一起
自适应巡航
哥伦比亚大学
地理位置优越
是阿姆斯特丹
村委会所在地
第一人民医院
Michael
▁乌菲齐美术馆
出版社出版书籍
是杜布罗夫尼克
距离布鲁塞尔大
面瘫静电理疗贴
▁圣乔凡尼礼拜堂
人大常委会副主任
位于杜布罗夫尼克
常染色体显性遗传
▁佛罗伦萨市政广场
旅馆更合适的选择了
)→
?)
Am
Bo
vt
▁且
▁传
、【
不只
丞相
五项
他家
以轻
你和
公馆
冲出
分值
别有
到店
功成
单机
厚望
双擎
双面
可调
同源
向其
听闻
哪有
喷洒
圆梦
地级
大枣
天通
天魔
奔奔
宋书
巴基
布赖
平缓
年从
引出
恶的
或与
手部
打上
拔尖
新意
新晋
是做
暂缓
本职
格罗
此为
毁了
民心
气泡
水滴
注解
洪荒
海珠
灵异
灵芝
班列
理会
生冷
用上
男儿
病区
白族
的选
真有
硝烟
神魔
移位
童星
管网
繁衍
纸条
纹身
绘图
绚烂
维系
美腿
美酒
翻开
而未
耕种
脑洞
脚的
荒野
葛洪
衣品
补给
讲到
跌入
路途
边框
过境
这起
选入
遇罗
道医
避讳
邓勇
郁郁
酌情
锐减
长于
长青
阳线
阿兰
陈皮
隐匿
雄心
风华
香火
龙达
SPA
her
uth
▁Mo
▁也有
▁列宁
▁创新
▁苹果
▁金融
▁钻石
。”(
一分钱
两人都
产品有
亳州市
人生中
他们说
以减少
倍以上
公证处
副县级
南通市
可以不
同时对
哲学的
在众多
她自己
好身材
姐妹们
学校在
守护者
就更加
届中国
屏幕上
并担任
度假区
引入了
微循环
支持的
日以来
日前将
更注重
曾获得
极好的
火车头
熟能详
由于其
的元素
的几何
的前身
的图片
的好奇
的尺寸
的痛苦
的身上
空间站
素可泰
给观众
继发性
老人家
范斯腾
衣服的
资金链
轻微的
这一刻
这两天
追求的
遥感器
金色的
钓鱼岛
降雨量
高强度
FLAC
Find
Rent
epon
inca
▁Yan
▁你是否
▁在中国
中的表现
中老年人
主要参数
二级市场
今天我们
全面落实
兰州大学
其实并不
同比增加
在节目中
塞哥维亚
始终没有
审定编号
尽量减少
居住环境
应收账款
施工单位
更多信息
最好选择
睡眠质量
税务机关
简简单单
管理能力
终于可以
经济实力
解除隔离
让我们的
这么多的
进行投资
遥不可及
epend
▁High
▁IEEE
▁维琪奥桥
丽亚升降机
冲浪者天堂
各式各样的
提供了经济
的情况来看
距离斯蒂芬
流行病学调查
酒店位于纽约
ability
餐厅入住时间从
▁佛罗伦萨圣十字大教堂
▁佛罗伦萨新圣母大教堂
▁遵义市残疾人联合会关于
SR
VC
ww
▁杀
▁楚
一团
万件
三线
上进
不治
串行
之义
乖巧
买来
交出
人要
以示
休养
伦茨
保宫
克超
其时
兹堡
农作
减值
凝结
出没
出过
刘德
助学
北平
卡莎
又把
叶酸
周线
唱着
在必
坦诚
多户
对准
工匠
悟道
成真
探访
摄政
摆设
敞开
散布
敬意
斑马
星系
是说
有缘
有近
机甲
来过
枪击
楼阁
横幅
橡皮
殆尽
江北
汤汁
流连
烟雨
烧热
煎服
玩乐
玩得
理赔
由内
甲基
画作
的信
的病
眷恋
移居
篮子
红椒
纱布
统领
美发
聚居
胃酸
腊八
自热
航程
苏达
英俊
荣辱
荧屏
营救
萨达
蝉联
表型
西城
贝雷
起家
轻薄
速写
道书
那场
重温
长直
雨后
面糊
面罩
首度
马塞
高危
高领
Mat
ize
lxg
ody
▁亿元
▁十三
▁印刷
▁平方
▁总是
▁星座
▁济南
▁莱茵
▁赛事
▁都是
▁银行
上了一
上热搜
不在于
不小于
不懂得
不要在
个多月
为保证
也正在
亲和力
从美国
以帮助
侧面的
共同的
出版物
出生在
分左右
分析及
力争在
卫生厅
反而会
可使用
同性恋
向记者
含金量
和实施
和家庭
和销售
地震局
大运河
奥克斯
已连续
建筑业
所用的
拍摄了
是第一
曲线的
标志性
池公园
海外版
热门诊
熟知的
特点和
球欧洲
留下来
的光芒
的生存
的资料
禽流感
第二种
等资源
细菌性
绝不是
自由度
让宝宝
谈不上
资企业
路面的
还处于
还是被
这也就
这条路
阿拉巴
陌生的
静静地
项目和
高房价
peri
ryst
▁Les
▁而对于
▁退税点
一帆风顺
了一大批
人的生活
任何人都
元单人间
充分考虑
全面提高
分会委员
劳务收入
卡升降机
在微博上
大大降低
如果你想
家喻户晓
就像一个
才有可能
技术标准
教学模式
方法研究
标的指数
海滩别墅
游刃有余
烤烟生产
热带水果
牡丹江市
独一无二
玩家可以
的世界里
相结合的
积极治疗
而产生的
这个东西
这个故事
都是因为
长期服用
高美术馆
鲜花市场
默默无闻
▁Hong
一次又一次
事业的发展
优秀班主任
位于莫斯科
在职研究生
基层党组织
收益率曲线
标准三人房
白癜风患者
皮肤病医院
维多利亚市
若干问题的
进一步扩大
长途汽车站
▁North
▁标准双床间
▁第四十九章
▁第四十八章
提供了四人间
经县人民政府
艾哈迈达巴德
贵州省遵义市
酒店位于河内
霍普金斯大学
▁Effect
在职研究生学历
水泥混凝土路面
自治县人民政府
岁不允许入住儿童
罗马的最佳落脚点
遥かなる时空の中で
PowerPoint
plications
距离清迈国际机场打车
?’
Sk
▁{
▁往
▁色
でも
万岁
三地
个头
乡下
以太
余杭
全时
公章
内服
写信
军委
出事
劝说
北门
千家
卡捷
压根
吸顶
哥的
嘉奖
回迁
国标
城东
城北
备选
多出
奇骏
姚晨
宁德
它还
安保
宦官
宴请
山南
峪村
崩塌
常驻
平地
年将
幽冥
广济
张小
强身
征税
心机
手拿
按期
握着
摔角
支路
教主
斑斓
时事
春来
是何
是多
晓得
有水
柴胡
校服
母舰
气流
沿江
波长
泪流
泰伦
活检
浅草
混杂
满载
演进
片子
玛雅
痛哭
种质
科佩
积雪
移至
穗长
竹笋
粗心
紫金
罗甲
自拔
芦荟
营村
要给
警卫
讨好
讲道
豁达
赶来
起于
超长
越塔
追星
通了
郭某
都和
酿造
阿伯
霓虹
JPG
OGG
Web
egr
emb
not
win
▁go
▁亚当
▁动物
▁华南
▁回忆
▁天堂
▁少年
▁带着
▁状态
▁白金
▁预计
一回事
上加霜
不合适
与现实
中新网
主动权
乔安娜
争议的
似乎是
便开始
公开课
公斤级
净亏损
力量的
匹兹堡
十多年
可行性
喜欢用
嘉年华
回家后
在任何
在保证
在德国
在道教
增加的
多多的
多数人
存储器
学生对
密不可
就业率
带风扇
建议和
强制性
当天的
性能和
我曾经
截止到
打交道
拉开了
揭示了
无人能
无形中
无锡市
是对的
曾先后
最基本
本办法
材料与
档次感
比起来
氧化锌
源远流
爱自己
玻尿酸
瓦维尔
甚至比
用电量
的一线
的中间
的外形
的感受
的数字
的美女
的青年
目标和
看得出
科托尔
等产品
管理器
组建了
经济与
绿化带
编委会
而如今
联系人
至少在
被列为
认定的
说一下
说白了
远低于
都一样
里面有
银川市
需要用
面对的
面对着
髋关节
EDGM
ited
thep
▁All
▁Cor
▁SCI
▁sol
▁奥地利
▁有网络
▁第三个
▁让我们
不言而喻
专家团队
中药治疗
事半功倍
农业科技
加装电梯
哲学著作
因人而异
国家有关
外商投资
就变成了
尽管如此
工作进行
是否能够
是非常的
是马德里
有史以来
标志性的
残疾人的
特制定本
直播电商
相信自己
社会实践
经营理念
网友们的
花园酒店
莱斯广场
试点工作
详情澳超
资金来源
通自来水
都不一样
采取行动
重症监护
问题来了
限定皮肤
ababy
istry
▁海滩不好
▁道听途说
▁阿尔巴特
医疗专家组
发展养殖业
呼吸道感染
的主要因素
的发展趋势
获博士学位
距离爱丁堡
分钟真理之口
是里约热内卢
贝希特斯加登
这也是为什么
一起来了解一下
▁米开朗琪罗广场
社会治安综合治理
计划大力发展种植业产业
(“
KD
mA
uo
áo
▁了
▁口
▁湖
▁灰
万册
三木
不厌
不均
不意
不进
严苛
主唱
举世
之元
之国
也使
二审
亚欧
从我
估价
住址
值守
停牌
傀儡
冷暖
切身
利空
力图
即成
只做
可汗
台中
同台
商界
嘉玲
埋葬
城河
大悲
天体
如需
学籍
官至
定型
宽的
对上
尹正
尿素
峰山
工场
左传
帕斯
庞特
开窗
很美
心存
心慌
急流
性腺
恪守
意气
慎用
成全
成家
所做
拉近
拉里
挤出
捐资
掌门
是集
暗星
有加
极速
桂圆
棚户
棚改
此番
死刑
江水
沉沦
深山
照料
熊市
瓦努
疯了
盎然
相辅
看望
组分
经开
肉肉
胡歌
花海
荧幕
药效
菜的
萌萌
许家
财险
贴吧
跌倒
载具
这可
连带
酒杯
长官
门类
阴霾
隆胸
雅克
雷军
非典
韧带
风和
龙坑
ICU
osp
rev
▁),
▁Ab
▁Se
▁保护
▁办公
▁天使
▁本周
▁标题
▁法律
▁物理
▁生产
▁离开
▁西南
▁运行
与开发
与服务
专家说
了他们
但不是
兢兢业
全部为
公司将
兰州市
凝聚力
力所能
北上广
博卡拉
印象中
即日起
四年级
在农村
塔尼亚
大胆的
好像是
寒冷的
将来的
工程院
年通过
并成为
总督府
悠久的
拜伦湾
文件夹
明天的
晒出的
最简单
正所谓
永久性
沃尔玛
渔人堡
物业费
特里尔
申请的
疑难杂
的一所
的生物
的表达
的观念
看好的
社区的
科学会
科技厅
管理及
给你的
维琴察
美凯龙
能够为
莱斯勒
衬托出
被曝光
计数器
说到底
转换为
这里有
郭碧婷
里亚托
阿富汗
食物的
首套房
City
ally
asse
aven
ible
ines
ords
▁Sea
▁首先是
万人民币
专业人员
两个小时
两个赛季
但是随着
你是不是
信用利差
共有党员
其中水田
动力输出
化学物质
可以提高
奥里藏特
如何才能
山清水秀
建设规划
文件精神
是一个人
是新德里
有很多人
机动车辆
机理研究
比较适合
民族文化
现代医学
生殖器官
神经网络
自身免疫
董事长兼
那么容易
都会出现
金刚玻璃
风险控制
estay
mance
minal
quare
▁Feng
▁医院地址
主要表现为
农业农村部
切实加强对
接受采访时
每一个人都
烤烟等作物
省人民政府
第二十一章
evelop
西安交通大学
▁Method
▁iPhone
距离布鲁日市场
有关事项通知如下
距离暹罗广场打车
▁阿姆斯特丹中央火车站
是巴厘岛最受欢迎的酒店之一
额外两名年龄较大的儿童或者成人
(+
AW
QL
UC
▁登
▁诗
たい
一梦
三房
不回
不惊
专治
东盟
丧葬
中英
井下
从何
优劣
偷袭
傻子
全境
兵法
再造
冷清
刀妹
卡姆
即有
厚底
取的
后以
启东
吴家
和最
回旋
场次
城人
声名
多囊
多食
大白
太行
太重
失意
奇遇
奕炫
好书
始至
寡妇
小了
小刚
小生
层级
崇祯
庙村
度高
很短
德君
忌讳
志铭
总在
战时
户户
打发
托克
报备
提拉
支书
收尾
散打
无暇
晶莹
月后
杏儿
杜马
板凳
林的
栏杆
核发
格的
楷书
江汉
沙尘
没用
泊车
活该
测控
浴场
海里
清线
烤肉
生津
由其
电荷
百变
百色
硫酸
福地
稀疏
米莱
纳州
纵深
结缘
肠炎
自燃
舍尔
节选
蜡烛
被判
警车
诙谐
调用
贩卖
贴着
赛德
走去
远征
远景
迟钝
送餐
造船
道道
郎平
野马
铺装
闺女
防务
阻滞
院的
难言
集散
马德
idd
▁Of
▁ni
▁xi
▁一百
▁孕妇
▁布拉
▁版本
▁示例
▁网站
▁译者
▁课题
▁遗憾
▁遥望
与使用
中使用
为载体
也相对
五千文
交易中
佩鲁贾
信用社
克拉斯
其中就
切除术
到学校
卡拉门
及时向
双层床
发展了
听到了
和创新
和教育
在全市
姆广场
学期的
对皮肤
寺步行
小说家
少部分
尔斯堡
就等于
布莱德
带动了
平凡的
张家界
强调了
打底裤
打招呼
接到了
材料和
来提升
比别人
洛阳市
深处的
的一对
的内部
的自我
相匹配
着眼于
短期的
确实很
私有化
积极地
税收入
类药物
纤维素
胰腺癌
要继续
记录的
走过的
辩证法
这一款
适用的
避难所
都很好
长城炮
阿雷佐
限制了
agon
ergy
▁Old
▁副组长
▁如果是
▁当然了
▁特斯拉
中医学院
书画艺术
交通十分
什么地方
仔细观察
他们已经
你怎么看
先秦诸子
同比减少
国家社科
城市公园
基础研究
大力推进
大幅下滑
好好学习
宣传活动
很快就会
心理治疗
成像光谱
成语用法
是很大的
显得有些
景观设计
游戏体验
特别适合
玛莎拉蒂
的完整性
的生活中
神经衰弱
空间表现
耳熟能详
能够有效
营养丰富
让孩子们
贵州茅台
通过各种
重点课题
非常丰富
高质量的
riend
▁该自然村
为客户提供
也正是因为
关心的问题
国家纪念碑
弗罗茨瓦夫
是圣彼得堡
是布达佩斯
格鲜花市场
离退休干部
自然科学版
贝莱斯广场
这也意味着
▁海军部大楼
▁蓝光播放机
关键技术研究
农户住房以砖
广播电视大学
思想政治教育
感染新冠肺炎
水稻等农作物
也是您来到罗马
提供了特大号床间
贷款市场报价利率
罗马理想的下榻之处
距离蒙特利尔旧城区
高新技术产业开发区
套房酒店不曾动摇的理念
是罗马最热门的酒店之一
:,
?」
EQ
Na
]【
▁您
▁管
▁谭
一斑
一脉
三面
不挑
为王
之列
乘风
买点
五号
他俩
付诸
以备
仲淹
伯克
佛经
佳品
佳绩
偏执
光裕
再起
写生
几代
出人
刘云
刘振
刘氏
前海
加莫
匆忙
化痰
卡其
双鱼
反腐
发红
可从
吃点
同乡
含着
周兴
四军
壮烈
备字
多看
夜的
大堂
天守
奥数
姐弟
威慑
学了
它有
宝能
小王
尽责
屈原
山门
巧巧
年青
延展
当周
彩超
心怀
抗洪
报收
搬家
文广
文教
时辰
明德
有遗
柜子
桥涵
梦寐
梧桐
檀香
水彩
沉香
泛指
涛岛
渔村
火线
烧灼
照常
爱和
版块
牟尼
物产
畸变
盘面
省的
真君
眼影
知青
矮小
碳酸
称霸
稍显
细雨
署名
耦合
聋儿
腰痛
苏亚
行了
西敏
要大
视作
诚恳
语义
说谎
请示
诸位
谁会
调教
贞观
赤水
邀约
重金
金地
长足
附睾
零零
靳东
领会
领航
黄家
黑手
END
ato
erk
ham
▁DE
▁上映
▁东莞
▁介绍
▁公共
▁别墅
▁各种
▁长春
一年后
不理解
为人民
也使得
交强险
他们就
他开始
休闲裤
伙伴们
低成本
净水器
创办了
副驾驶
卵巢癌
只能用
合法性
周立波
和艺术
图像的
在中路
坚实的
境内的
大招的
完之后
对市场
小户型
小组赛
岁的小
常规的
开始时
弗内斯
必然是
我以为
损失的
换来的
无论从
日晚上
时可以
是具有
比不上
浓郁的
淘汰赛
灵活的
的房屋
的持续
目前有
真的能
称自己
等不同
继承权
脑海中
覆盖了
辉煌的
这一段
这可是
道理的
部作品
链子桥
预防和
默默的
FMVP
Hero
ocal
▁内蒙古
▁如果您
▁新京报
▁普拉多
▁河南省
一定要有
临床治疗
交易系统
亲朋好友
但是这个
先进技术
公司债券
利率下调
只是因为
在线教学
大幅下跌
小威尼斯
展开调查
很多学生
我们今天
数据统计
施工工艺
有关单位
民政部门
环球影城
环球时报
紧急通知
能够得到
自动控制
财政政策
资料来源
这些食物
进展情况
选择的是
随心所欲
aniel
▁Tang
▁have
工作的意见
希尔顿逸林
戛纳电影节
畜牧业为主
自己的人生
各级各部门要
▁Garden
匈牙利国会大厦
酒店位于马德里
酒店位于佛罗伦萨
如有侵权请联系删除
距离贝尔韦德宫打车
公安机关交通管理部门
距离阿尔罕布拉宫步行
Appartement
无论您是因为出差或度假而造访罗马
%!
PI
Ro
ih
▁力
▁怀
▁汤
▁约
しい
一案
上乘
不倒
乌尔
互为
从天
伤的
但与
修为
倒地
储藏
像元
公道
共性
兴盛
其道
写好
写过
冬冬
几大
到有
十堰
厂的
县区
发愁
台账
吊打
周琦
哪吒
四千
国平
土著
在今
基基
增益
夕法
姜片
安瑶
尾翼
山泉
常吃
库兹
应将
开打
开篇
当其
我再
抓捕
投行
抢先
接应
摩天
撒娇
断崖
方术
施泰
无际
易燃
有我
朝夕
枫叶
欣宝
此法
残缺
水乡
波切
派人
浏阳
浮云
渔船
灌注
版图
物语
王家
珍品
生根
用语
百联
皮的
相生
看下
短小
硅胶
硬笔
神车
称其
称谓
纵然
经文
绝世
绝技
美照
耳道
联杯
药流
莱万
萨勒
螺栓
角化
赋税
赛拉
赡养
起落
轻工
过热
运位
邓力
配图
韩某
香草
麻花
鼓掌
龙潭
JPY
ape
max
vip
▁也是
▁从事
▁突然
▁美术
▁葡超
▁避暑
不会太
不要去
专家和
之功效
二等功
产权房
什教堂
价格在
优良的
会持续
会自动
你身边
入门级
再投资
分布式
切不可
十余篇
卡梅尔
只要在
名古屋
名员工
和操作
和时间
和调整
和队友
在实际
在比赛
大庆市
如何呢
家门口
宾夕法
对一个
年担任
张先生
形象的
微笑着
我就不
打下了
报告的
换成了
是企业
有一座
概念的
民航局
汉武帝
爆发后
用自己
的一件
的五官
的交流
的喜爱
的大幅
的安装
的水分
的装饰
积分榜
立项号
笑着说
第十九
自己想
至清代
许许多
设定的
身后的
身材的
还是蛮
这一代
这是在
通常在
道路网
那里的
高功率
黑科技
Best
hold
▁Acc
▁dis
▁浴室小
▁红灯区
一应俱全
不断扩大
也会导致
五脏六腑
交通管理
以自己的
传媒大学
住房保障
免责声明
内饰设计
农村公路
决定是否
功能紊乱
发展前景
取得成功
可以轻松
图片浏览
在直播中
娱乐场所
对其进行
并不需要
很可能是
技术水平
摄影作品
效果显著
教学方法
教师队伍
整个人的
文化活动
施工现场
明尼苏达
服务体系
村民小组
法律援助
湖南大学
生俱来的
的设计师
行为习惯
规划项目
路公交车
道氏理论
重点中学
销售人员
随身携带
项目资金
顺其自然
餐厅很好
ograp
▁Yong
▁特拉法加
▁第五十章
中医药学会
丰富的经验
为数不多的
天海俱乐部
很有可能会
是汉语词汇
科学与工程
第二十二章
管理局局长
请联系我们
▁Place
▁博物馆广场
▁市区购物街
▁梵高美术馆
研究所副所长
距离乡卫生院
马斯特里赫特
有限公司总经理
距离翁贝托长廊
▁亚历山大纪念柱
▁荷兰国家博物馆
▁阿姆斯特丹王宫
市人民政府副市长
▁阿姆斯特丹性博物馆
▁涅瓦大街涅夫斯基大街
HD
UN
▁冉
▁审
▁工
▁译
一封
一概
一环
上师
东经
两场
中游
之和
之始
乏味
买个
乳液
事例
云雾
他才
休眠
佐治
使你
借阅
偿失
元人
其事
内防
军训
刻骨
半山
却说
双赢
取而
吃掉
哥窑
喷雾
大城
奉行
妖精
孝感
它就
官职
射线
将至
岛的
差评
常青
开销
强基
当面
很深
得心
心了
总和
想了
愧疚
慕名
托基
抛出
控卫
摩登
撒上
放飞
敷衍
新县
新老
施教
既不
未满
朱雀
权衡
杯水
殿下
求实
油性
法界
洁白
海区
滴水
照耀
爱不
用小
用笔
的铁
眉头
瞳孔
神子
突显
紧绷
纽扣
经脉
而分
胆小
腹地
血缘
血腥
行署
行进
衣裳
补足
计价
赏识
越小
辛酸
透支
逸动
邓剑
邓肯
那条
邪淫
锯齿
镇江
镜片
阴线
降落
院落
青椒
顺德
颇受
首钢
高盛
鸡精
鸭子
黄酒
鼠疫

!”“
For
wan
zhē
zza
▁扩展
▁捷克
▁本期
▁萨尔
▁蓝桥
一个有
不可怕
主广场
于是在
云服务
从现在
你选择
减轻了
副司长
区别于
十八大
占优势
历史性
县城区
各专业
国家线
地下城
培养出
塑料袋
大陆的
天守阁
奎斯特
委常委
安排在
小升初
就有点
工作表
平台和
徐州市
感到很
政府对
整体上
无条件
更不要
极少数
特别有
的决心
的实践
的结局
的辅助
的这些
的防守
确实有
社科院
科技股
第一眼
等地的
线切割
罗永浩
花鸟画
英国人
西装裤
训练营
调整了
轻轻地
辛苦了
达尔文
这么久
造型师
需求量
风格和
Lisa
ader
mmer
ones
osta
▁cad
▁很温馨
万提斯像
不是很好
世界纪录
优异成绩
但是他的
你也可以
公共管理
其实不然
农村低保
农田水利
化学工业
即便如此
只要我们
可以发现
后排座椅
售价区间
因素影响
坚持不懈
外防输入
大家都在
对外贸易
展现出了
巴基斯坦
开始出现
心理素质
总而言之
技术分析
投资公司
接受采访
是普吉岛
机构改革
森林资源
温馨提醒
电子工业
第二阶段
网络预约
而是因为
调查发现
这个品牌
这个阶段
选育单位
释迦牟尼
非常容易
高中毕业
anced
ittle
iving
viron
▁冬宫广场
▁所属球队
▁达姆广场
刺激性食物
峰值扭矩为
至关重要的
配有电风扇
▁.....
▁Grand
▁客房非常好
▁第五十一章
▁青铜骑士像
。。。。。。
中国科学技术
委员会办公室
年出版的图书
▁辛格鲜花市场
▁圣伊萨克大教堂
▁Analysis
▁国家自然科学基金
村内生活排水沟渠设施
▁埃尔米塔日博物馆冬宫
▁并
▁才
一聊
三路
下架
乘用
书刊
乳汁
人脉
他很
传给
依恋
先河
公报
六一
兴县
其职
冲破
凉拌
即到
变白
叠叠
古道
句号
吊销
后背
周家
唠叨
坦度
女单
婚恋
学园
宽约
尚品
尽有
山丘
店内
店员
弱化
形色
征途
忠于
惠善
懈怠
戈斯
成千
我曾
手心
抵扣
持球
捷豹
接线
摸清
改性
新奇
日行
时说
是全
晋城
暴风
有幸
李文
来个
校企
桃子
案卷
每种
汗液
涂上
添置
炮兵
牵连
特律
环线
理应
理气
留念
的亚
看她
矿工
破洞
祝你
粉底
纠葛
缆车
翱翔
老赖
胖了
腰身
自责
苏尔
薏米
见人
费拉
车手
轰轰
运筹
远端
逆流
道夫
问你
阳明
陇南
集约
雷德
静的
飞宇
高光
CPI
low
oud
▁el
▁他在
▁冬季
▁夏园
▁尊贵
▁据说
▁特点
▁能够
▁虽说
▁道光
▁遮阳
不反弹
不在意
中山市
传说中
但是你
其作品
出具的
出品的
前公示
加的斯
单人房
叶卡捷
同事们
向日葵
商贸城
回归到
在产品
型肝炎
城市中
塔打车
复欣宝
外星人
大家庭
大范围
妇科病
安德莱
对经济
导演的
小清新
少有的
席之地
年正式
得益彰
总结出
想象中
所撰写
打比赛
教室里
数百万
新专辑
无钥匙
时刻刻
是导致
是治疗
更符合
曼德勒
有一套
模拟器
残酷的
水处理
活跃度
的内涵
的认知
的记录
纪念品
经得起
被动的
规则的
调味品
赛德斯
输掉了
达成了
这可能
这或许
通常会
邓家佳
零距离
需要做
静静的
RMVB
orge
ring
▁一方面
▁普希金
▁白癜风
不会因为
东北地区
中介机构
中医医院
中国音乐
任免信息
但是没有
作品原文
冷却时间
减产协议
协调解决
单人床位
发热门诊
国际关系
培养孩子
备受关注
学校教育
客人在圣
小学教师
就出现了
已经没有
平均年龄
广播公司
得不偿失
怀疑自己
总有一天
想方设法
想象中的
房屋租赁
搭配黑色
教育部门
是不同的
是遵义市
最终幻想
牛仔外套
生命危险
生活环境
相得益彰
社会效益
耐心等待
说的就是
还会导致
这个行业
道听途说
避孕方法
那么对于
防控工作
随迁子女
项目经理
ecial
inter
▁会议明确
▁圣地亚哥
▁第一部分
▁简体中文
一定要选择
发生的事情
得淋漓尽致
患者的病情
我们就可以
汉语言文学
研究会会员
约合人民币
自己的梦想
负责人表示
这样的一个
earing
ynthes
▁杜塞尔多夫
东风悦达起亚
精索静脉曲张
▁Letter
▁Palace
提供了标准双床间
▁救世主滴血大教堂
▁阿芙乐尔号巡洋舰
▁每个客房都配有天井
每个客房都配有迷你吧
DE
db
▁务
▁右
▁哎
▁客
▁类
▁이
上做
下个
下挫
两倍
严查
中止
之水
乳糖
五角
仙桃
体悟
信奉
偷懒
先在
公款
内阁
再三
冶炼
凉了
前夫
力军
加贝
包机
卖萌
又很
发车
可期
同道
后腰
四名
四座
土墙
坝村
多维
天时
太贵
头戴
如荼
定速
宝珠
实控
寓言
对错
小怪
就别
年过
建校
当着
征信
悬殊
想吃
报答
措手
支线
文秘
斗牛
日生
枝条
样样
楼面
次级
比勒
浅的
涉水
渔民
湖水
满是
满面
灯带
烈火
特困
甚远
用之
瘟疫
的遗
益处
短语
碎的
祖辈
祥云
秒内
箱包
米质
系带
红木
约在
良知
艾弗
荷载
行善
补气
计提
说你
贮藏
资历
超人
路桥
迁至
追责
道闸
酒庄
钻井
镜像
长宽
阿姆
降噪
音量
马萨
骑行
黑帮
龙魂
CHF
LRC
imo
kpl
ner
”――
▁人的
▁可惜
▁喀山
▁夏天
▁布朗
▁建设
▁当我
▁授权
▁数码
▁是我
▁父亲
▁纵观
▁网上
▁试验
▁陕西
▁鼠标
不仅会
不具有
不是在
世界级
也有些
买不到
了一圈
你已经
全面地
凯维奇
出入境
出租屋
出道的
利润率
到一起
加盟店
华丽的
卢塞恩
县交通
吃起来
后不久
后勤部
后可以
和生产
商务局
善良的
学习者
实力和
家庭中
对健康
州州长
工程和
引以为
张怡宁
得勒支
慢性病
承担起
文明村
最终被
来解决
棚户区
歌唱家
活性炭
爱你的
用手机
的一句
的事故
的信心
的前景
的团队
的程序
的绿色
盛和府
移动端
等板块
老夫子
考试费
营养素
行驶时
表现力
诠释了
该不该
转换成
还以为
通讯社
都不要
都存在
阴谋论
list
rich
▁Mod
▁Pre
▁new
▁伯明翰
▁就这样
▁海南省
▁通讯员
一流大学
不仅没有
不会产生
不出意外
亿人民币
使用起来
做了一个
健康教育
储物空间
几乎都是
出版专著
十分重要
卫生部长
原油需求
可以放心
地球物理
外观方面
如果你是
学校旧址
安全性好
工作期间
市场主体
广大群众
广泛应用
患者出现
所以现在
措手不及
提供帮助
整个过程
显而易见
有害物质
本场比赛
煤田地质
玩家来说
甚至有些
疫苗研发
病毒检测
百度网盘
眼部问题
竞争优势
行业标准
西方国家
计算方法
评审专家
调查结果
豪华别墅
还是相当
还有一点
这就需要
那么多的
错峰返校
雪上加霜
餐厅总数
▁King
▁Star
▁北京时间
▁特色产业
▁第二部分
交通运输局
夫人蜡像馆
很多人都会
春秋时期的
正规的医院
的爱情故事
看上去更加
费尔菲尔德
进一步加大
▁大家都知道
联防联控机制
贝洛奥里藏特
Harrier
度假酒店是您来
酒店不接待儿童入住
▁每个客房都配有电风扇
Ag
FA
Ge
UG
××
▁※
▁佳
▁倪
▁故
にな
七分
三区
三款
上好
两厢
中度
为佳
之妙
之翼
书生
书馆
产于
住着
修辞
倍增
假肢
催眠
元起
入职
公英
兴办
农技
决不
县令
取自
叫人
各市
合称
命案
境遇
增厚
壮年
多情
天成
如若
妈咪
学和
宅家
封装
小班
就怕
就象
库克
底色
张伯
张子
得有
慌张
我与
战车
房事
扇子
扣非
排练
控球
搜查
撒谎
救市
文论
新旧
新规
曲艺
最短
月台
月度
根茎
栾冰
概要
横河
永磁
求解
浅谈
浓眉
浮雕
涨了
湘南
熄灭
熔断
片名
瑞吉
甚么
留职
直喷
着陆
知觉
硬性
碰上
神明
笔直
粽子
精进
索普
罗森
而思
育才
胃病
腺炎
茶的
落差
蒂卡
薄纱
蜗牛
西尔
见你
趣事
蹦极
较前
邓光
那提
都给
重拾
降解
难看
雷尔
风车
马哈
鸳鸯
)——
AOE
Jun
PEC
asp
jie
kdj
▁发布
▁用户
▁绿色
▁金边
▁领导
三年内
不开的
不用再
与普通
中文版
之以恒
也不少
书中的
买了一
交易员
但可以
倒计时
像极了
公里罗
六安市
具惠善
凡大帝
创建了
到极致
去世后
友好的
双十一
可适当
和学校
和科技
回家了
在所有
埃瓦尔
城市化
复杂性
多方面
大街上
如果他
始至终
学到了
学区房
对人类
将这些
小动物
少之又
岁那年
执导的
拉齐奥
挂号费
散文集
新球场
旅游区
日系车
是纽约
显气质
显示了
更让人
期待着
校园里
毕竟在
流传着
液晶屏
演唱的
潜伏期
爆米花
物体的
犹太区
率高达
的传奇
的分割
的发现
的布局
的表面
看作是
看见了
祝加贝
管部门
自动挡
艰难的
讲的是
豪华感
赛区的
走出了
走进了
运输机
这一生
这种人
降幅比
障碍物
霍建华
黄冈市
黑天鹅
黑芝麻
Life
ason
ning
▁END
一些问题
万联证券
不太方便
中医治疗
中国男篮
中央公园
中心酒店
为了保护
值得期待
升天教堂
可以改变
司法行政
商业中心
国内疫情
它是一种
封闭管理
工作报告
持之以恒
持股比例
收官之战
每天都要
比较研究
物理治疗
现款车型
的新能源
目的在于
空气清新
第四季度
耳鼻喉科
自己想要
航空母舰
道教经典
金属材料
领军人物
Resid
hemat
ities
▁Xiao
▁dist
▁控制方式
▁音效模式
下辖的一个
严重影响了
也可以通过
凡大帝钟楼
多媒体技术
学术研讨会
的方式进行
索菲亚王后
距离景福宫
遗留下来的
▁第五十三章
▁第五十二章
原油期货合约
定点医疗机构
核桃特色产业
职业资格证书
西南交通大学
详情解放者杯
道路工程施工
Douglas
交办的其他事项
杜莎夫人蜡像馆
▁genetic
新疆维吾尔自治区
行政村下辖自然村
索菲亚王后艺术中心
▁apartment
人事劳动和社会保障局
距离景福宫直线距离约
该村义务教育在校学生中
儿童和加床酒店不接待儿童入住
hr
▁声
▁蛋
一反
一趟
七天
不外
不妥
为中
主妇
主委
乡土
买买
从句
伏笔
传唱
健体
免于
养家
冠道
列宁
南宫
卡莱
叫你
可人
可得
史前
右下
吃一
吉凶
后用
售出
喉咙
嘻哈
团聚
在省
坊村
夏侯
太湖
契税
它以
宝塔
实录
宣誓
宰相
将她
小鸟
崎岖
工期
年化
应运
开课
心形
怒火
惨了
我这
手势
挡住
挺身
换算
撰稿
新宿
无解
晚清
曼尼
有助
杨志
枪支
栓塞
植树
楼村
欣然
正大
武力
每秒
比肩
沙勒
洗牌
清莱
源村
源流
爬行
爱是
牙刷
王健
王安
瑞特
疗愈
百态
的黄
皇炮
皮影
盖章
相成
省力
石碑
社工
祖模
绝伦
罗姆
老鹰
考官
自卫
苦心
茶匙
莱恩
衣机
西戴
要为
越走
越远
跳槽
轴线
迁居
随从
隔绝
雅致
雅那
顺手
驱使
aus
met
rst
▁ho
▁再见
▁美泉
▁自我
▁蒙特
▁这份
▁这场
▁重量
一次的
三年前
不自觉
与生活
专业性
专用的
中学的
为全国
之上的
习惯性
了一天
了几分
事故的
二人的
产品牌
享受着
仅限于
以防止
任务是
会计学
但是对
作用是
依赖性
几十万
出演了
分析法
前几年
医疗队
升级版
唐玄宗
坏消息
增多症
大名单
好习惯
将搭载
小白鞋
年期间
年毕业
张床铺
总体上
我非常
或者在
托里斯
据介绍
斯伯利
新乡市
方面也
方面有
是人们
是每个
更没有
最长的
求推荐
法兰西
消息面
现代的
生活上
的场所
的指导
的收益
的美誉
的逻辑
看看吧
突破口
等组成
等行为
纳竞技
经营权
翻天覆
而形成
脑梗塞
菲利普
蒲公英
表明了
西敏寺
观察者
规定了
规模和
贫困县
赤峰市
超出了
车辆和
转型的
辛那提
过一次
这一块
锂离子
除了在
集医疗
预约号
高校的
ople
oria
▁唐人街
▁据报道
▁职员表
不信由你
为了能够
主要针对
交通不好
体育活动
使用情况
克罗地亚
克鲁塞罗
公司股票
公路工程
分局局长
创造一个
募集资金
医学杂志
南京侯氏
发动机和
取而代之
可以申请
在工作中
大家都是
如果真的
客栈位于
工学博士
新兴市场
是否需要
智能交通
有机结合
没有出现
消费群体
焕然一新
生产能力
症状表现
省会城市
石家庄市
算得上是
精彩内容
紧密结合
装修公司
认真学习
详情罗甲
货到付款
这个时代
这是什么
逐渐成为
造成严重
销售渠道
难以置信
高考时间
ments
▁产品类型
可以很好的
小型双人间
已经超过了
应急指挥部
是不可能的
电子书格式
的一部著作
的生活习惯
看起来非常
空气净化器
老子五千文
非常不错的
饱和脂肪酸
▁under
位于布达佩斯
图片来源网络
敏斯特修道院
是中国历史上
距离第五大道
适宜种植粮食
造型艺术博物馆
formance
▁Episode
▁Proceedings
AE
IR
It
SD
so
▁√
▁呼
▁唱
▁茶
、(
一成
一针
三叶
三观
举重
之巅
之窗
乌兰
乳化
云龙
仅剩
伤风
低级
低落
体味
元老
兵种
内功
再由
出站
出钱
刘光
加绒
北魏
卟啉
双城
双肩
变老
叫他
可由
司空
同理
和声
和第
嘿嘿
在全
地步
大侠
天马
夫君
奉化
学名
学段
学法
审慎
客货
对华
对白
尾曲
展区
巴里
年才
庇护
库区
废话
引产
录得
彩妆
德维
快充
恐龙
惊厥
惨败
我为
戒毒
扣篮
报案
拉文
招致
放水
放的
文具
无望
无脑
时为
晓东
暴食
案情
止于
沈月
沿岸
泰坦
涩谷
添香
的法
直系
等大
算计
粘液
罗兰
美奈
翻滚
老挝
而致
脱口
花梗
英汉
草堂
菱形
落魄
诺瓦
读过
谁也
象岛
财神
车票
边看
迈出
这组
远期
迪拉
选装
道南
采暖
镇静
阳虚
阻挠
雷击
静坐
顶住
麦斯
AAC
rsi
▁FX
▁Il
▁到底
▁卡拉
▁宝马
▁约翰
▁贝尔
一体的
不开学
两年后
也很大
了解下
从来没
会得到
佐治亚
全天候
医生说
协会员
厉害了
去哪里
发挥着
各乡镇
后方可
吸顶灯
因为其
在汽车
多渠道
大一院
奥特曼
威姆斯
孕妈妈
安排的
对工作
尿毒症
岁开始
巡回赛
戈多伊
所以当
控制好
无情的
有关于
木结构
李先生
比如在
汽车在
由于是
症状的
白居易
的人流
的传播
的勇气
的安排
的影子
的思路
的稳定
的话说
益阳市
破坏了
突发性
结肠炎
而且也
膝关节
艺术类
被分为
被奉为
西城区
要不是
许可馨
设计中
酒店和
长方形
马克斯
龙岩市
CCTV
ized
star
▁can
▁ind
▁屈楚萧
▁本办法
▁老城区
▁迪士尼
▁避雷器
一个星期
一见钟情
事故处理
人员密集
他的作品
信息网络
克莱斯勒
全面提升
军事技术
农业为主
分析人士
加拿大的
华夏保险
可能会在
大宗商品
委会委员
学生家长
实验研究
对人体的
就相当于
尽量选择
居高不下
工作计划
开发建设
很多女性
我们发现
手机游戏
打造一个
承受能力
新浪微博
无能为力
更重要的
有效措施
来看一下
根据不同
浪费时间
竞争激烈
自我保护
角度来说
语音识别
资金投入
释放技能
颁奖典礼
ember
▁Text
▁写在最后
▁澳大利亚
▁设施不差
上市公司的
优质的服务
具有较高的
刑事诉讼法
华盛顿邮报
县委宣传部
发生了什么
在中国市场
已经达到了
有着很大的
沃尔夫斯堡
热带水果园
特朗普政府
疾病的治疗
第二十三章
规模最大的
这样的问题
ession
乡政府所在地
位于巴塞罗那
境外输入病例
无烟客房楼层
武汉理工大学
工商行政管理局
瓦西里升天教堂
质量技术监督局
酒店位于慕尼黑
医疗保险经办机构
人力资源和社会保障局
KM
PA
TD
hi
ya
▁位
▁谓
▁邮
▁黎
もう
一户
一旁
万头
三系
三里
上坝
不单
不思
东吴
严寒
临其
为上
主页
之主
之灾
之计
书协
书屋
人会
仍以
他那
会为
传教
修筑
入味
全胜
养眼
凯瑟
刘小
利安
剪纸
十天
卵状
又如
又快
向她
商讨
均以
坪乡
塔基
声中
大头
大床
天数
奈良
奥园
字幕
完胜
对联
小脚
少先
山茶
岩土
帆船
师院
弱者
强强
强求
很近
心性
怕是
总要
或被
才可
扫除
抹布
招式
换手
换血
掉头
收跌
旅居
旧的
显老
月薪
杀入
校本
桑拿
梗死
武侯
氏族
江铃
泸州
淡泊
满月
漫威
烹调
瑞金
研磨
砖厂
磨砺
示意
科举
秒的
积液
红螺
绝杀
绣球
羊角
而同
联排
胆管
能和
脱欧
节水
节食
荒漠
萨姆
落寞
象牙
趁机
超导
跟她
辅料
还贷
迷糊
送一
遇事
邓卓
释怀
重于
金钟
钙质
阑尾
阳镇
静音
非遗
风电
飘带
"。"
Air
Tay
XLB
eve
uri
ype
▁fe
▁二百
▁厦门
▁擅长
▁春秋
▁版次
▁逍遥
▁道具
一路上
一首歌
世界观
中医学
也很少
也是对
产品中
人群的
俄克拉
信息与
修建了
公租房
六个月
再怎么
决定对
初期的
到哪里
办事员
区域性
千年的
占据着
去哪儿
反反复
发展成
后来在
和能力
商业化
国外的
大家所
奥尔堡
女人喜
学校里
安德森
定制的
射手座
小技巧
尼泊尔
工人的
彰显出
彼此的
很正常
我一个
战略性
承担着
承载着
描述了
方便了
是一台
是上海
是绝对
普雷塔
更严重
更快的
有一段
有三种
有这样
机体的
核武器
比例的
法制办
潜力的
炼油厂
熟悉了
狄仁杰
环节的
白皮书
的小型
的属性
的特别
的组成
的诞生
监事会
监管局
等国际
给了他
而且有
而那些
耐心的
联系的
能治好
获荣誉
让更多
记住了
请关注
贝加莫
走出来
轿车的
较低的
这是他
逆回购
附件炎
雄厚的
零售业
面积的
韩德君
▁%)。
▁Mah
▁yes
▁喜欢的
▁惠斯勒
▁电火花
一致好评
三中全会
不知火舞
严肃查处
中国石油
为核心的
主持完成
人民防空
你不知道
你就可以
全部都是
公众人物
公里尼斯
务工人员
发展重点
只是一种
可以减少
土地开发
在直播间
塞米亚克
大幅增加
女子大学
媒体记者
实施条例
客户提供
寨自然村
工作需要
布尔雅那
年世界杯
应该怎么
建立一个
影响因子
微分方程
房产中介
指标体系
是威尼斯
植物精华
欧洲央行
浮出水面
特斯拉的
瓦努阿图
白叶枯病
的投资者
相对而言
等待你来
经侦警察
经济增速
统筹推进
继续教育
而引起的
获得成功
详情希腊
足球甲级
运营管理
还是很有
这个皮肤
退役军人
问题进行
顺利完成
▁额外一名
优秀论文奖
元会议设施
庞特普雷塔
得克萨斯州
是很重要的
最大限度的
有耕地面积
格勒诺布尔
比勒费尔德
汽车零部件
的发展思路
研究会理事
管理办公室
Apollo
charge
▁based
▁model
▁第五十四章
大连理工大学
▁遵义师范学院
有限公司董事长
语言入住时间从
巴厘岛理想的下榻之处
分钟每个客房都配有空调
▁每个客房都配有按摩浴缸
SB
bp
▁妻
▁得
▁朝
▁炼
▁眼
ひと
不与
世称
中下
中铁
为过
之刃
二环
交会
产科
人权
伊始
伙食
你没
光影
克林
关头
其对
冬装
前代
前场
勤俭
化成
千诺
卡利
口角
古诗
含糊
员外
周内
咬牙
品行
哪位
喀什
嘱咐
国富
国税
圈里
壁挂
大雪
太岁
奔走
她被
婚外
密室
密茨
对流
导管
展翅
已由
平生
年又
庄稼
店镇
建制
异彩
弗兰
得乐
所占
扑面
打坐
批示
拍打
拿捏
提请
无创
无理
早衰
时年
旺季
曲面
最差
木雕
李家
李承
村寨
桃李
楹联
欢呼
求知
湖滨
滑铁
火炬
爱恨
甘孜
男枪
疼爱
百病
皂苷
的电
益寿
目击
直营
碧水
福报
秋风
红火
约谈
纳拉
纵坡
能从
自曝
荣幸
萎靡
袭来
装入
要靠
解难
警觉
请在
谜团
赛马
赤裸
走遍
路南
踹门
辅佐
逗留
通向
郎中
都区
铂金
闻到
防冻
陈慧
陵区
隐秘
面层
首日
首映
驻足
髓鞘
魏源
黑石
鼻咽
GMV
der
rot
▁一旦
▁事情
▁休闲
▁刚刚
▁墨联
▁春季
▁村内
▁比尔
▁泰国
▁看完
▁统计
▁调整
▁都说
あなた
一年内
一直很
不完的
与市场
为依托
之后又
也跟着
五分钟
以种植
优质课
作出的
公爵宫
关闭了
写作业
击杀掉
分家前
创下了
到如今
到现场
制作了
势在必
古建筑
吸血鬼
和组织
和蔬菜
哪家好
喝茶费
在电影
宣传片
对道德
工作服
巧妙的
希望你
干衣机
并开始
底特律
引导下
张家口
心病的
我终于
最低的
最核心
最直接
月全国
有一番
有望在
李某某
来这里
比较长
污染的
渐渐的
渔夫帽
滑铁卢
电气化
的一块
的个性
的作者
的前列
的回答
的女神
的气氛
的测定
科创板
称得上
第一的
等称号
组成了
结合了
编程序
老一辈
而发生
聊一聊
花岗岩
莫名的
认识和
诞生的
趣味性
跳出来
车辆在
还真的
这两款
这也让
这笔钱
进行中
都很难
防守端
院子里
非常低
黑名单
fort
stru
▁Bay
▁Don
▁桑托斯
▁没想到
▁波尔图
▁第二条
▁第十一
▁这一次
一年四季
一方面是
不少玩家
两个孩子
中国内地
中国银行
人们对于
他们没有
代表人物
以及各种
仪器设备
先后获得
公立医院
军医大学
合作组织
商务谈判
基本参数
基本操作
天津大学
学习指导
学习能力
安居乐业
实验指导
工作机制
意外的是
护理工作
教育孩子
时时刻刻
是自己的
最近几年
月份以来
来说就是
比较简单
气候变化
汽车销量
沃尔夫冈
治疗中心
游泳池景
潜心研究
燃料电池
班子成员
的第一步
社交账号
科研人员
第一品牌
第十一届
籍贯广西
纪念雕像
经济形势
考试中心
股权转让
能够看到
自古以来
证券时报
这件装备
这是一款
遗嘱继承
重症患者
青少年的
音乐专辑
音乐作品
项目编号
isbon
▁Cott
▁John
▁Pent
▁瓦伦西亚
▁遥感影像
享受国务院
公积金贷款
分上下两篇
在社交平台
密茨凯维奇
带共用浴室
晋江文学网
自己的实力
较上年同期
高风险地区
▁Elect
▁第五十五章
判处有期徒刑
普通高等学校
”......
▁普拉多博物馆
先秦诸子分家前
公布的数据显示
酒店位于胡志明
▁英国国家美术馆
Interhome
密茨凯维奇纪念雕像
大酒店所有的客房首要标准
是中国古代先秦诸子分家前
!《
)[
Ca
TF
XQ
▁厄
▁洞
▁遄
一缕
一袭
七日
三字
三岔
上书
且不
丙烯
东晋
中以
中就
临汾
为正
主馆
之境
也难
乡愁
亚东
修路
倾心
做些
党籍
其父
兼并
几下
几度
划归
利害
剂的
单边
厨艺
发黄
变故
变种
古尔
吃力
吃法
吃肉
同在
嘌呤
固有
在北
地支
基耶
堂堂
增减
外向
多边
大字
大鱼
宠辱
密被
封顶
年检
广元
库拉
府发
弥勒
志祥
性及
惠益
想做
懦弱
戴珊
打乱
拉手
挂科
挥霍
振东
掌管
提并
斯佩
旋钮
有功
有感
朗朗
枇杷
欧标
水枪
河床
消散
深表
澳元
点钟
物力
猎手
率部
珠峰
画法
疯子
的量
看懂
看护
破门
空缺
等有
练就
给付
群力
而你
肢残
胡乱
脚踩
萨满
葱姜
蒜蓉
表姐
装在
裸露
要和
语的
谥号
谩骂
贪图
贿赂
赛期
超凡
身受
车迷
输血
边区
过重
这局
遐迩
遮罩
邓双
银子
长势
阻隔
除恶
领地
黑风
BBC
LCK
TSI
WTO
▁LO
▁Ye
▁pe
▁分享
▁各位
▁回顾
▁微信
▁显然
▁青海
万多元
为群众
也很高
也是被
买东西
产品是
他希望
仪式上
传递给
佛学院
作曲家
使我们
则是在
加操行
卡迪夫
可视化
和交通
和内容
和维护
在短短
埃尔法
基米尔
大型的
如果把
姆酒店
媒体和
孟德尔
学校将
就够了
崛起的
巴特勒
年国家
应该有
应避免
张照片
快节奏
我怎么
新皮肤
方便的
既然是
是家庭
最终以
本部门
林丽吟
根本就
残工委
法医学
活动时
白开水
的利益
的动物
的少女
的心中
的挑战
的男子
穿出了
竞争的
第三局
第五次
精气神
红螺寺
细腻的
给人们
美少女
而不为
股易舒
能提高
脑神经
荆州市
莫里茨
表达的
见效快
贝雷帽
转化成
运动场
这不仅
透露出
金球奖
高端局
▁nan
▁指导价
▁斯蒂芬
▁热那亚
▁第三条
▁说实话
业绩预告
中心城市
乘坐空间
也意味着
住宅酒店
停薪留职
别具一格
协调发展
培训学校
基金资产
塔克西姆
多种多样
央视新闻
始终保持
定速巡航
对策研究
少之又少
年晋升为
持续发展
教学内容
有消息称
梦寐以求
森林防火
此次疫情
没有问题
河南鹿邑
玩家们的
环境监测
登记注册
白色衬衫
的发展和
的好成绩
的设计与
组织委员
继续使用
综合协调
考试时间
联系实际
脚踏实地
臂丛神经
蓬勃发展
距离美泉
ivity
meric
olden
▁East
▁Walk
▁anal
▁room
▁time
▁同步歌词
▁家庭套房
▁第二百二
书法家协会
二手房市场
尤其是对于
技术的应用
沥青混合料
的人都知道
的研究成果
目前还没有
科学出版社
获学士学位
计算机科学
钢筋混凝土
青年志愿者
高级双床间
▁Condo
之家酒店位于
写的网络小说
该村建有公厕
▁特拉法加广场
豪华特大号床间
ynthesis
该村到乡镇道路为
距离芭东海滩步行
哲学思想的重要来源
▁该进村道路为属于柏油
是巴黎最受欢迎的酒店之一
大酒店享受的服务与设施会有
?-
FM
SL
pg
▁'
▁伍
▁创
▁宣
▁形
▁调
▁错
いる
一整
万荣
不虚
与共
东城
两代
中带
乎乎
九十
书亚
五届
交由
他便
件的
价廉
伊甸
优选
优酷
依附
俘虏
偷拍
傣族
傲慢
元旦
先知
光鲜
入主
全开
六盘
冥冥
冲着
凯尔
前半
区市
南都
发呆
发胖
取景
变易
古都
后退
喊着
喘息
喻言
够用
失职
奈儿
奥克
奶酪
如花
婷婷
存式
宋都
居所
差额
库曼
店主
弄虚
必经
总长
慌了
报了
文殊
既可
暴饮
杨梅
栋楼
歪斜
毁掉
气动
江阴
泰安
津县
深有
清流
溢出
溪流
炮弹
熔喷
熙凝
玩玩
电控
疏远
白术
的吧
益生
盘的
相随
眼帘
着色
石柱
破灭
神情
笔法
第戎
答卷
管子
管用
罗门
老去
职教
联军
腹肌
腻子
膜的
自吸
艳丽
花瓶
苦的
视距
谁在
费卡
走强
起跑
路和
载荷
还和
还行
连夜
迫于
选派
阴凉
随访
露头
黑梳
IMF
MAT
Man
diy
ela
sch
▁IV
▁不会
▁书名
▁大道
▁实践
▁急性
▁有关
▁来到
▁科技
▁血型
▁西北
▁走进
▁适用
▁销售
一九九
上小学
不明确
与国家
与城市
中国好
为契机
之后为
了一座
代谢病
优化的
但作为
你不是
你不能
使患者
保障了
做起来
决定着
创新型
初中生
前身为
华宁县
却不是
压力的
发表的
受教育
受贿罪
哲学系
在法国
就来了
居家令
工程学
已达到
常常会
平日里
年增长
打印机
扮演者
承租人
折不扣
担任过
教会堂
敬老院
是来自
是现代
杨丞琳
栾冰然
模块化
正面的
汤普森
治好了
消费的
消除了
特别大
疼痛感
的义务
的人在
的发型
的日本
的目光
相提并
睡着了
立体的
第一场
第二局
等业务
等级的
等论文
老爹鞋
能促进
自去年
节目录
详情乌
近义词
这个大
这么好
进口的
进攻端
遗传与
邢台市
重金属
锡耶纳
问题时
集中于
黑乐雅
****
Lady
ster
▁新加坡
▁有时候
▁温哥华
▁第四条
一个多月
一些比较
一切办法
主要通过
也可以是
人居环境
什么问题
任何事情
优质服务
农贸市场
医院地址
医院进行
县级以上
反反复复
发展阶段
合同到期
在过去的
子自然村
安全可靠
就成为了
巴西利亚
年度报告
开拓者的
强制措施
归化球员
德累斯顿
患者可以
效果更好
教育理念
文化程度
无法正常
是否符合
更胜一筹
最基本的
残疾人证
没有时间
治疗体系
清洗干净
生产技术
电商直播
的时候要
目标管理
社区位于
种种原因
移动速度
绝对不是
综合服务
肿瘤医院
认真负责
诊疗技术
语文教师
豪华酒店
辅助英雄
还有许多
这么简单
避免出现
重新回到
▁your
▁国会大厦
▁市场营销
▁米兰迪斯
▁获奖记录
万元人民币
在短时间内
大部分地区
有针对性的
某种意义上
牛皮癣患者
的基本要求
碳水化合物
科主任医师
给我们带来
详情希腊超
雷迪森布鲁
驾驶机动车
illiam
人畜饮水困难
是特内里费岛
▁布拉迪斯拉发
春秋时期的老子
中央党校大学学历
提供了标准大床房
酒店位于巴塞罗那
▁威斯敏斯特修道院
▁Barcelona
是道家哲学思想的重要来源
▁Pleasenotethat
CK
Si
↓↓
▁侯
▁卧
▁及
▁忘
▁玩
▁申
▁虎
▁观
▁遒
▁驻
三环
下级
不遗
与陈
中正
仁川
以道
众泰
传略
体裁
停放
元璋
关镇
其子
养元
农垦
刘奕
别提
功耗
华西
双修
只顾
台南
各处
后要
唐僧
啊啊
器物
国强
在南
坦白
多克
多禄
多芬
它对
官僚
宫外
对它
寻宝
尉迟
州府
巴比
帮她
年他
并从
应手
开胃
弓箭
强奸
心急
恒河
悬赏
手印
抚慰
拍出
摘下
支票
收发
教法
散的
方舱
旧改
时效
景致
曼寺
木纹
果子
检讨
棋牌
椭圆
止步
武会
毒蛇
流言
浮夸
涂层
涌泉
烧鸡
燕山
玄学
玄机
由他
画册
的行
皮毛
相拥
知网
研习
破格
破此
碗中
祸首
稀奇
精巧
精简
纠风
纳多
统考
聊城
联结
肉丸
肺气
腊肉
舒心
花一
药方
莱西
补丁
被曝
被盗
裤装
西宁
观感
解惑
课余
课前
趁热
转角
边远
过客
适于
选调
遮断
邻家
都把
院系
集火
霆锋
页数
顽疾
驰援
驳斥
骨盆
魔界
黄子
鼻祖
龙岗
Int
arg
aro
hui
ieu
ird
’。”
▁bi
▁为此
▁主题
▁党员
▁后卫
▁平时
▁昆明
一年多
一旦被
不出去
不好看
不如意
不就是
与解析
业主们
为他人
为其时
丽热巴
了一丝
伯克利
你真的
俞敏洪
健康和
充斥着
公平的
出球队
分别获
加的夫
勤洗手
厂厂长
厚重的
又称为
发生率
受精卵
吉祥物
和上海
和指导
回国后
回报率
回来后
回过头
圣洛伦
在规定
夏季赛
多次在
大家也
如果再
宣布将
岂不是
工业园
并分为
开发出
开始就
心动魄
我看到
所共仰
手机上
扩大了
承诺书
指挥官
放不下
文章中
施工图
是一道
更别说
更衣室
本地区
李嘉诚
来确定
树立了
浓浓的
浪费了
海豚湾
淄博市
爱美的
的一颗
的下滑
的形状
的新人
的方针
的时光
的热点
的肌肤
的观众
直肠癌
看电影
离婚后
第一股
而这一
联盟的
自己要
装饰品
达沃斯
还不到
配套的
顶教堂
▁Luc
▁四人间
▁江苏省
▁行政房
不负责任
个人觉得
中央空调
临床研究
产量表现
人物生平
他自己的
作者是李
你有没有
你知道吗
侵权责任
值得信赖
假冒伪劣
全面完成
分析认为
到底有多
医疗保健
医疗救助
发展空间
发表作品
城市酒店
外贸企业
大家一起
已经出现
应有尽有
影评我来
政务服务
效果明显
新市政厅
旅游景点
是维也纳
更加明显
最终导致
每个学生
沙勒罗瓦
海滩酒店
爆破拆除
现金流量
疫情发展
的受访者
的影响下
相似之处
相关人士
研究生的
确实存在
红袖添香
综合油耗
老年痴呆
转入球队
辛辣刺激
这个价格
进行消毒
预防措施
pring
▁比赛日期
一个小小的
不得不承认
为其时诸子
之间的距离
也有一定的
优秀成果奖
公开项目有
华尔街日报
双卧室公寓
心理咨询师
按有关规定
政法委书记
比卡升降机
的市场份额
研究方向为
第二十五章
考古博物馆
ential
ohnung
ousada
▁我们都知道
▁第五十六章
一室公寓酒店
党风廉政建设
华中师范大学
基础设施薄弱
基金收益分配
工作人员表示
影评我来评论
校舍建筑面积
等待你来评论
距离胡志明市
▁这里空空如也
▁阿尔巴特大街
格洛丽亚升降机
▁烤面包机等设施
为其时诸子所共仰
年加入中国共产党
进村道路为土路面
▁国会大厦和大本钟
▁精彩影评我来评论
▁领导小组下设办公室
道真自治县人民政府办公室关于
别墅酒店都会是您住宿的绝佳选择
!」
,【
▁]
▁久
▁制
▁帝
▁机
▁盐
▁穿
一指
上用
不低
不无
与伦
与张
与此
专修
个亿
中区
丰产
丰村
代为
伊岛
伤人
伤势
你再
保税
值钱
其名
决斗
冷战
减负
到时
南风
却没
卸任
厚实
又为
又来
反动
受制
受聘
名媛
后腿
含糖
嘟嘟
地和
壮丽
壮阔
大作
大四
大额
太奇
奔向
奥卢
嫂子
宁远
宝殿
寒武
对有
履约
山姆
并使
并经
广受
异域
弯腰
得来
总署
惊魂
我被
所知
扒出
打字
报导
拆分
拿走
摔倒
教官
教辅
整数
无端
明道
春生
是没
木门
朵朵
权势
来生
杨颖
极低
栀子
横贯
欠款
河上
河中
洗面
港台
照着
特务
瓜因
甜食
申诉
男足
盛夏
神户
种草
笑得
糖醋
红毯
纸币
终日
网坛
脚本
脾虚
自上
自筹
若初
茅斯
荡漾
荣光
菲卡
营长
蓝的
衷心
许昕
诋毁
词的
起火
超脱
跌停
轻视
过海
过瘾
连片
连绵
送别
选对
遇龙
道来
遗臭
钉钉
银鸽
镜的
闹剧
闹得
防尘
雷焦
骑术
高能
高音
龙井
Vol
iti
thm
vid
▁功效
▁名称
▁后期
▁学术
▁意外
▁日式
▁早上
▁结构
▁艾尔
不出户
不规律
与专家
与家人
也难以
事件中
件装备
公司与
决定将
十七年
去学习
合同中
后续的
国事厅
国产化
在生产
多动症
多发病
多多少
天下之
宣传队
对治疗
小平房
弹石路
总产量
我记得
我都会
所需要
投融资
教导员
文学的
时无刻
是能够
曝光了
有些事
机械化
每一步
法规和
泰安市
济宁市
激动的
然后就
电扇房
病原体
的举动
的人是
的加持
的后果
的微博
的痕迹
的答案
相处的
竞争者
第二排
精细化
考虑的
而出现
能获得
规模为
解释了
诡异的
近些年
退出了
金巴兰
隐藏的
韦鲁斯
龚翔宇
ESPN
Park
alax
▁Act
▁Bal
▁DNA
▁Jul
▁ass
▁斯卡拉
一下子就
万美元的
不断创新
不要轻易
中信证券
也不一样
也很重要
也是一样
也是很有
事故现场
交易平台
作为国内
作息时间
信息披露
充分认识
兢兢业业
公用事业
农副产品
几个赛季
几十年的
化工学院
医学专家
可以提供
可以满足
可以适当
后顾之忧
四分之一
土地资源
在你身边
女子医院
安全保障
工作原理
已经连续
已经非常
应当按照
才能真正
投资机会
改造项目
教书育人
教育集团
方式进行
旅游发展
普通攻击
更有利于
有了新的
有的患者
来的时候
根据地的
检验检疫
注意饮食
生命周期
生物医学
短期融资
空中加油
第一百九
第一百八
联系电话
西伯利亚
规模最大
设施很好
购物广场
还是应该
这个动作
这个机会
这个疾病
适合蜜月
隔离措施
需要通过
非农数据
预约挂号
领先水平
thing
umber
▁Dist
▁Hill
▁high
▁存储介质
▁格兰大道
▁白金汉宫
▁菜单语言
一定程度的
党工委委员
即将到来的
原作者所有
安德莱赫特
年轻消费者
或乘坐开往
没有副作用
消费品零售
犹太教会堂
疾病的诊治
第二十四章
自动变速箱
诊断和治疗
购物很方便
▁Power
▁第五十七章
▁耶尼清真寺
东方艺术展览
刚开始的时候
戈多伊克鲁兹
刊物上发表论文
完整的哲学著作
每个客房都配有海景
酒店位于杜塞尔多夫
传说是春秋时期的老子
不接待儿童酒店交通比较方便
Ed
He
KT
NX
SM
XP
▁喜
▁草
一季
万通
三相
上街
上还
不火
与高
两句
两颗
五里
人品
仍为
伊克
会从
光头
全息
再接
刀的
单杀
原汁
双树
反超
发色
受力
古筝
叫声
叶绿
各色
后轮
哈斯
唾液
四时
四环
团本
国君
图层
在所
地从
奋发
威马
导出
少食
尔摩
山石
并报
幼苗
弧形
微米
怀吉
怜悯
惨烈
惨重
感伤
手艺
打消
抓手
挺进
接任
推力
收报
散了
无欲
易斯
朕宇
未尝
本源
松林
林海
枷锁
母爱
水手
润泽
液化
溪水
炮轰
点球
烧钱
牌坊
牵制
瓦卡
留心
病床
病等
的马
盛名
盟友
知事
破败
破除
笑颜
米诺
累及
美誉
脉搏
自述
舅舅
蒂尔
衣帽
觉罗
计委
谋生
起因
轮番
这颗
送的
选房
造的
道源
道砟
道远
邓云
银川
铸就
镇区
阐明
阿基
阿鲁
陈小
露营
青石
面世
面肌
音速
顶流
顺县
顿挫
颓废
首乌
首诗
高发
鸽子
Pol
Sun
enz
ito
ktv
”),
▁So
▁em
▁交易
▁原文
▁哪怕
▁室内
▁当代
▁性格
▁文字
▁是的
▁有时
▁机构
▁片名
▁电源
▁直接
▁福州
▁节目
不分章
不开心
不要用
与客户
两大类
乌拉圭
也觉得
于是我
产权证
伯多禄
体育是
使读者
养生的
冒险家
凡尔赛
剧备字
卡戴珊
原生态
只能靠
可转换
可达到
向美国
呈现在
命名的
和产品
和政治
和欧洲
喝一杯
在发展
大革命
始终是
存在了
守护神
审判决
家中的
将会是
将采用
小王子
年世界
并且有
思想史
我们又
或许会
文化课
曼哈顿
最好在
有多个
有钱人
本书是
模式和
泰证券
津津乐
漫画家
潜规则
点左右
特性的
球员和
琅琊榜
甚至于
电解质
的年龄
的房间
的效率
的案例
第二部
类产品
给对方
罗滕堡
被国家
质感的
赔偿金
达姆斯
运动裤
运用到
还有待
隐藏在
rick
ults
▁▁▁▁
▁游戏机
▁电视剧
▁第一条
一模一样
专业人才
世纪经济
临床应用
为中心的
为了方便
公安分局
加工企业
原文上篇
参加高考
同学们的
在临床上
对症下药
建设高校
患者来说
惠益分享
教育活动
时一定要
是布拉格
曾经说过
村情概况
来之不易
正式启动
污染防治
没有想到
洗漱用品
消化系统
湿地公园
火灾隐患
特色专业
瓦茨大街
的小女孩
的环境下
的长宽高
研究论文
称得上是
第一阶段
第十二届
证券市场
距离里昂
软件开发
这个时间
进行比较
配有海景
限制措施
allad
▁stud
▁接口类型
▁第二百五
▁职业生涯
两张大号床
了一个疗程
出自老子的
单卧室公寓
可能会引起
哈医大一院
在接下来的
完全不同的
比去年同期
电视连续剧
的基础知识
科技工作者
空调出风口
翻天覆地的
联系在一起
达姆斯塔特
▁using
圣吉米尼亚诺
在这个过程中
城镇退役士兵
巧克力博物馆
校外培训机构
▁Travel
度假酒店让您在
额外儿童或成人
▁Bearing
▁支持电子书格式
应对新冠肺炎疫情
▁Computer
首部完整的哲学著作
▁莫斯科国家历史博物馆
▁额外收费的毛巾床单等设施
精品酒店所有的客房首要标准
RF
gs
ki
si
vo
▁→
▁□
▁业
▁御
一倍
万份
万变
万寿
不屑
与本
中火
也以
也只
乳胶
交感
以供
以案
伤者
作好
佳肴
倒下
健美
克丝
党派
公所
具足
凄凉
几条
切块
刘文
利民
到下
剪切
北齐
医患
南接
县直
双全
古琴
台球
台面
右腿
吉特
同安
呆萌
哀乐
四字
圣玛
地与
复方
大葱
太监
太长
失明
失禁
奖品
如初
字第
孜孜
宋佳
宝物
对在
就当
岩寺
左转
建村
开光
异动
引得
张天
得快
心神
总的
惠及
才女
扎特
托盘
扫码
拉低
拉夫
捏脸
救了
文坛
无误
星火
春树
普勒
晴朗
月由
有五
木乃
杀跌
来去
来潮
松开
次要
武魂
每家
民盟
水解
沼泽
洁面
涟漪
润发
漫天
烙印
玉楼
玉龙
痛心
白眼
百名
的和
盆栽
着头
移仓
窘境
精症
结扎
考特
联是
肉身
能以
脖颈
脚气
良机
良药
艺师
英冠
荣膺
蓝海
血友
表象
被杀
认准
识字
豹纹
贫富
身手
轻仓
道宣
那点
郴州
量少
铁龙
院线
随缘
雄蕊
霸占
风潮
飘香
Rem
UNI
abs
bow
esa
leg
rpm
▁..
▁Mc
▁su
▁up
▁主讲
▁写作
▁动画
▁快速
▁无法
▁格林
▁梦想
▁每年
▁比例
▁的确
▁结束
▁英冠
下降到
不住的
之下的
了部分
以一种
以及与
以后会
众人的
会引发
但是也
但至少
克鲁斯
公司已
兴五首
副经理
力争使
占人口
危害性
厚厚的
及服务
双一流
可以被
吉林市
和妈妈
和部分
喜欢上
四六级
国王杯
在目前
地看着
地面上
大中专
大约在
大问题
学校有
小长假
崇高的
已经和
布尔诺
帝国的
年之前
年产量
年底前
建成的
异常的
弗格森
弥补了
强劲的
当他们
往日的
性行为
总市值
患者有
我的手
我这个
方法论
无痛苦
日后的
日进行
本文由
朱美拉
比普通
沙发上
玛丽珍
的主导
的事迹
的人设
的今天
的动态
的天赋
的最小
的演员
的风采
确认识
福布斯
第一局
等着你
系统与
索尔登
红绿灯
细致的
经开区
缺乏症
而感到
肌无力
自以为
范仲淹
营养的
被中国
要积极
说的话
过生日
还通过
这样会
顺义区
Mlxg
eral
icle
oyal
▁本书是
▁朱之文
▁真正的
▁第五条
▁这也是
▁道尔顿
▁黑龙江
上升趋势
中国公民
也不得不
乳腺疾病
交通很好
原油市场
城天守阁
基本没有
天人合一
如何进行
如火如荼
季风气候
已实现水
并不是很
心力衰竭
感兴趣的
感染病例
报刊杂志
有目共睹
未见异常
栩栩如生
正式发布
没有一点
特点就是
环比上月
疑难杂症
的创始人
皮肤过敏
相信很多
看到的是
硬件设施
管理经验
经济活动
美国国家
航空运输
证券公司
货币市场
越来越近
还是希望
都是一种
黄帝内经
ether
organ
▁part
▁文学作品
▁浴室很大
一段时间后
不适合家庭
主要介绍了
位于遵义市
工业互联网
工作办公室
是非常大的
最大扭矩为
的有关规定
直接影响到
能力的培养
距离老城区
进一步发展
风景名胜区
▁Huang
▁Super
▁两卧室别墅
▁餐厅非常好
以下几个方面
全村国土面积
央行数字货币
失落的瓦维尔
教育教学质量
新冠肺炎病例
科学技术名词
ructure
▁伊凡大帝钟楼
酒店位于吉隆坡
重点文物保护单位
▁Mathemat
写的网络小说连载于
届人民代表大会代表
evelopment
是中国历史上首部完整的哲学著作
.。
HA
HE
mc
yp
··
▁型
▁恒
▁聚
▁财
▁题
なく
一念
一早
三成
上文
不发
不收
不语
与水
两难
中称
久竞
之母
乐天
了就
争先
事态
二传
交投
人无
从教
他最
伊亚
伤员
俗姓
俘获
借机
倾情
储量
儿时
入库
全然
八成
八达
击穿
剧名
劣质
动着
劳逸
募捐
午休
华的
单月
卖场
卡西
发来
发球
受托
受此
各司
同工
后为
商议
喧哗
喷嚏
园地
围挡
在用
墙纸
士兰
备忘
多云
多空
大业
大区
大千
孤寂
宝安
审验
对峙
小憩
小鼠
少秋
布袋
干湿
庭审
得之
心和
思罗
惹人
惹的
慢跑
我愿
或为
打来
托鲁
损毁
提款
撑起
改观
政教
无奇
早有
旭东
映衬
来历
模组
横盘
欲罢
殡仪
气短
水牛
汇演
流过
深浅
清偿
温带
狼烟
琳堡
甚者
百人
皈依
目视
盲区
真如
碧云
票面
离地
科伦
端口
笔下
管所
粗粮
粘结
紧贴
结了
维多
网状
老汇
肉鸡
胜于
脸庞
腰酸
自性
草果
莱克
萨德
血型
血色
要强
让一
议案
讲台
试过
诸神
谱系
赤字
跨省
辍学
输精
辛顿
道钉
遵纪
邓仲
郑重
重演
金贡
钟爱
错综
闭幕
闽西
降了
雨露
青藏
顺丰
预制
鱼鳞
LAB
PVP
adi
inh
lic
mon
oro
tax
▁Pi
▁体育
▁其二
▁合肥
▁婴儿
▁拼音
▁目标
▁要想
▁防御
一起玩
万美金
下跌了
不接受
不认识
不重要
与思考
与艺术
世界语
中国最
中指出
为我国
主城区
也很多
也许会
了一部
他本人
以为然
伦贝尔
但只要
停止了
其中以
内容及
击杀了
分以上
动不动
势力的
区别的
单元格
卖出去
反倒是
可申请
可见光
吊带裙
唐易舒
喜欢看
固有的
在之前
在重庆
场上的
大结局
好吃的
妥妥的
学习了
完全的
对其他
将面临
就是以
居住区
已全部
已出版
建议你
强力的
想说的
手里的
才可能
把握住
持久的
掉以轻
插电式
敌方的
斯塔尔
施泰因
是一支
检察员
求生者
泸州市
深入的
清光绪
温度的
由国家
电池包
的大灯
的缘故
皮脂腺
着我们
章在前
等企业
等部位
系列赛
而易举
训练的
记者在
设计及
该同志
资格的
足球队
跟我们
跟我说
轰轰烈
这表明
邮政局
高级的
ISTP
idge
odge
olec
stit
uman
▁Red
▁Str
▁大教堂
▁奥克兰
▁我知道
▁沙皇炮
不会影响
不良影响
为什么说
乌得勒支
也很简单
了一个月
人员进行
休息时间
优质录音
住院治疗
党内严重
党和国家
到了一个
原因在于
可以继续
国内知名
国际市场
基本理论
学术专著
安全保卫
宗教文化
实木地板
实训项目
就是通过
带着孩子
并非如此
强制保险
很多东西
战国时期
改造工程
文化素质
月份开始
根据自身
检查结果
毕业设计
的另一个
监察调查
直到现在
直接导致
眼科医院
眼花缭乱
章之后为
能够实现
英雄广场
解决不了
躺在床上
还有哪些
还配备了
适应能力
都市言情
阿维斯塔
非常出色
▁Cour
▁内饰方面
▁外观方面
▁该村建有
▁都市言情
伊丽莎白桥
俱乐部酒店
先后被评为
内分泌紊乱
农业科学院
在这段时间
大号床套房
大家一定要
工业增加值
带来的影响
折叠周转箱
本科毕业生
王者荣耀中
马加什教堂
Jackey
TheShy
▁Plant
▁Vista
▁克里姆林宫
▁喀山大教堂
▁第五十八章
中国传统文化
主要种植烤烟
可爱岛已下线
国家发明专利
姆犹太教会堂
工作实施方案
最近一段时间
梨花女子大学
知识产权保护
......

▁effect
习题答案与解析
别墅位于巴厘岛
生活水平的提高
中央党校函授学院
▁普希金造型艺术博物馆
公寓式酒店所有的客房首要标准
精品酒店享受的服务与设施会有
公寓式酒店享受的服务与设施会有
+”
BI
JT
vr
▁庄
▁质
、、
、「
一枝
不食
与您
两性
严把
中俄
丽萍
仇池
侧翼
信众
俱杯
停电
僧垣
光剑
免伤
八千
共存
冈县
利弊
到人
刺杀
努斯
十岁
印制
原液
原装
变黑
司徒
和生
商报
坊间
城隍
塞瓦
塞进
大变
姆勒
姑姑
子哥
孩童
宋元
害虫
宽恕
小勺
幅式
年冬
建档
弗林
弹药
往复
扎尔
扣子
抗美
按月
推卸
推塔
援鄂
揽胜
放生
整修
断定
新舟
旁人
无果
无间
更正
有很
有车
根深
次元
歌王
死人
永生
江海
沉思
沥干
治学
法器
洒水
派克
流苏
海得
游历
源市
潜入
灭菌
烘焙
爆了
牧区
特鲁
犹存
独撰
琥珀
电位
电泳
电车
白头
皓影
看在
真言
神道
福寺
种业
等均
精明
红米
级数
细长
绰号
群星
背书
腰包
芦苇
荒芜
萧山
虽是
要问
观影
诊室
读研
赛上
跟鞋
车款
连任
迷惘
送了
道商
铜奖
闲着
阴虱
陈伟
陈赫
陡峭
除草
陶冶
隐喻
难于
雷加
震颤
领队
颠簸
高乐
魏玛
鳞片
龙骨
FLV
Yes
ceo
ipo
▁To
▁中考
▁优点
▁凤凰
▁博士
▁安装
▁常见
▁总体
▁承担
▁文件
▁用于
。(《
不管你
与教学
乡党委
了一支
于今年
交易量
交易额
从侧面
优势和
伯尔尼
做好的
元标准
克莱尔
共和党
分析称
前两天
前女友
十九年
同行的
吴承瑛
和影响
和电子
哺乳期
在台湾
在各个
在西方
培训师
基耶萨
塔酒店
填补了
她现在
安卡拉
实体店
展示出
展览馆
工商所
已开始
年公司
年春节
并完成
应用型
形态的
必然的
想要在
成功后
新增的
是唐代
更新了
最合适
有一款
期限内
村接壤
来表达
格拉特
格里拉
王某某
现象的
瓦尔德
的主播
的伟大
的全球
的心里
的念头
的情怀
的手术
的拍摄
的这种
科医院
秦始皇
等传统
等同于
等荣誉
等食物
米左右
繁体字
纯粹的
而不见
而选择
血液中
认可和
该产品
赴美国
这一条
遂溪县
都不错
风险和
马洛卡
anda
▁Jin
▁圣马可
▁所有的
不同的人
不能正常
世外桃源
中国新闻
中文大学
主要分为
丽笙布鲁
也在不断
作者是王
信息管理
先后荣获
公里清迈
兴趣爱好
内心深处
农村集体
加重病情
协会会长
卫生系统
厅副厅长
吸引人的
商业地产
在经历了
多个国家
大多都是
大幅增长
奥林匹亚
如今已经
审计工作
工程地质
并不一定
并不容易
应对措施
建设单位
惊心动魄
执法人员
技术发展
敌方英雄
教学用书
教育技术
明确提出
春装新款
是不是很
是最大的
普通高校
暴饮暴食
有人认为
村民代表
消防大队
爱好者的
的一点是
科技支撑
科研论文
第三部分
第二中学
综合分析
能够做到
能够起到
自然条件
自由自在
至尊武会
获一等奖
薄弱环节
计算公式
详情法甲
课程改革
财务状况
购房者的
距离自由
这些症状
适合自己
选择一个
通村公路
通讯作者
遥遥无期
降低成本
非税收入
高度评价
ading
▁最喜欢的
办公自动化
号汽车旅馆
多年的历史
大学毕业后
大部分都是
工作的领导
收录于专辑
没想到的是
特大床套房
的工作原理
第二十六章
纵横中文网
经济与管理
▁Princ
▁中国科学院
▁以上内容由
▁大英博物馆
交通事故责任
允许基金投资
占人口总数的
哪家医院治疗
广场酒店位于
房地产市场的
治疗前列腺炎
的收费是每夜
科技攻关项目
系统地介绍了
距离里昂旧城
雪佛兰开拓者
▁厨房不够完善
主要研究方向为
随着年龄的增长
ependent
道德经分上下两篇
酒店位于圣彼得堡
▁圣瓦西里升天教堂
例新冠肺炎确诊病例
的收费是每夜房费的
人民出版社出版的图书
▁每个客房都配有迷你吧
是罗马不可错过的酒店之一
清华大学出版社出版的图书
iG
yr
zz
“,
▁房
▁朴
▁贯
】。
一招
下锅
不退
专款
丝绒
两驱
丫头
中大
中指
久治
之变
之弈
之音
九曲
买断
二合
令其
伏羲
会玩
但愿
位点
你别
先机
光谷
兹曼
军营
几名
凸起
出圈
则将
北约
升到
华裔
南临
厚非
去哪
变小
古村
吃货
吉斯
吉普
同日
名爵
启辰
唐家
噱头
在五
大宝
大爱
天麻
头鹰
奖牌
妖魔
宣判
容错
小熊
布线
常理
平阳
年新
庄重
应答
应酬
庚辰
座垫
开张
引申
弗敦
归类
影音
心悦
忌食
总编
恒温
悉数
惊慌
或以
扎克
扎西
扰流
扶助
摇曳
散射
敬仰
斯帕
早产
是啊
显着
晚安
木有
朵花
李荣
梅林
歌颂
正威
每穗
民谣
沉醉
油量
法尔
液态
渗出
烫板
爱新
用尽
甲方
的刘
短篇
硫化
祈福
穆雷
空旷
空降
窃取
粘土
红润
纳迪
纵容
纹路
绝无
缝线
缩量
翻看
联会
致辞
良渚
芸芸
英美
莱茵
萍乡
萨苏
融通
见习
许昌
论与
调的
谋略
走平
足矣
车漆
转机
轮椅
辞书
进补
远去
道一
道清
道陵
部下
都做
酷似
金光
锐意
闽南
队中
防风
阿衰
难民
领涨
颈线
食神
鲍尔
鸡皮
麻省
黄沙
Ant
BUG
WHO
bar
unk
▁dr
▁恒大
▁是你
▁白银
▁红场
上还是
不足的
中找到
中提到
为了给
交割的
保留着
克拉克
克拉玛
再次被
创新和
医学界
医院是
十一届
协会的
史蒂芬
同时要
名单中
和教学
和网络
和设备
图尔库
圣诞节
备忘录
多吃些
太阳系
她没有
学生和
它具有
对传统
对各种
对女性
少见的
就是从
展现在
已形成
平常心
开发与
必需的
快递员
总编辑
恐怖的
感染力
我愿意
战争的
搞清楚
政治家
是现在
最后被
有困难
有自己
木乃伊
来决定
格拉茨
泳池景
添加了
清乾隆
珍宝阁
生成的
的一组
的上衣
的发挥
的成果
的焦点
的版型
的神秘
的设置
的高三
确诊断
站下车
笔下的
第一线
第九届
等优势
等作品
等配置
米内罗
而这次
艺术展
要更加
许家印
调整的
软件的
运输车
通行的
速手动
那句话
郭富城
镜检查
队友的
阴阳师
阶级的
OPEC
aver
king
ordo
stay
▁day
▁rel
▁列宁墓
▁圣保罗
▁客房大
一旦发生
不是什么
中心医院
临床实践
交通枢纽
债券市场
党建工作
全民健身
养生保健
农村金融
分支机构
劳务经济
原创文章
原因之一
参加比赛
发生改变
可以促进
同意拍摄
基博物馆
复印资料
多元化的
多种循环
大概就是
如果大家
学生宿舍
密歇根州
尽可能地
挂牌出让
政策规定
文一地产
是世界上
更是如此
有丰富的
来自中国
比比皆是
比较复杂
沥青路面
深受广大
现在看来
生产成本
的事情了
的同时也
的特点是
相关资料
相当大的
知名企业
私营企业
系列丛书
维生素和
裤子烫板
解决办法
财务收支
财政收支
轻而易举
达成一致
运动气息
这个话题
这张照片
这样一种
重新开始
重点学科
金融资产
雷锋精神
House
alaxy
round
▁Cast
▁扎托里斯
▁播放模式
▁第六十章
产业的发展
例确诊病例
全球最大的
发展改革委
叶卡捷琳堡
团委副书记
征求意见稿
我们一定要
有针对性地
的服务理念
的设计理念
若初文学网
道格拉斯港
Beyond
▁Sport
▁第五十九章
世纪经济报道
工程有限公司
累计死亡病例
▁舒适度作为卡
▁舒适度作为圣
哈尔滨医科大学
国家自然保护区
房地产市场平稳
facebook
全国科学技术名词
提供了标准单人间
新增无症状感染者
▁扎托里斯基博物馆
▁Residency
▁该村到乡镇道路为土路
距离布鲁日市场广场步行
巴黎这个陌生又熟悉的城市
▁Transactions
;&
OT
mr
▁浪
▁算
▁내
一勺
三农
上与
下限
不乱
不决
不漏
之乱
乡里
书城
云涌
亲生
亲的
人杰
令他
伟业
伤疤
体和
体态
入局
公署
六中
兴致
内燃
再创
分之
刻板
剪刀
午饭
卡松
卷四
原是
友爱
双线
发到
口村
口渴
古树
古玩
史册
同舟
告急
呼气
咆哮
和二
和林
唐卡
喷剂
国志
在向
在村
地灵
外公
大和
头昏
奎尔
奥古
娘家
子等
孙家
孢子
学分
宜兰
宫中
小哥
小脑
小路
屯门
布满
师爷
幻觉
废止
开示
恩师
恰逢
情愫
成书
扑朔
批改
抖动
抚州
拓扑
拖沓
按原
掌柜
援朝
搭上
放慢
故有
数个
早睡
时已
明世
林中
格言
棉服
次序
欧亚
正因
沸沸
油茶
洗脑
浓烈
浪尖
淮安
火速
点对
点火
猎物
猝死
王文
理化
画出
病魔
白花
盈莹
知音
磁带
秋水
端倪
等额
粳米
繁杂
纳哥
纳托
纵使
细嫩
经书
给它
缩写
美颜
群雄
耶伦
耿直
股沟
育龄
腾邦
药监
药膳
蒂涅
虚增
虚心
蛇口
补益
表妹
被控
襄樊
西贡
言辞
话下
请来
赐予
路到
遇水
道森
那霸
郭勒
酱香
醒悟
醒狮
闵行
雄安
馄饨
马苏
鱼头
黑衣
鼻孔
齐米
):《
KTV
cba
ept
▁du
▁mo
▁上午
▁五行
▁伊朗
▁南方
▁四是
▁塑料
▁水晶
▁海南
▁西藏
▁译文
一个新
一天的
一无所
三十二
三巨头
上线率
不大的
不应求
与组织
中关村
临其境
丸子头
为学校
主要在
习题集
二次元
交朋友
人类学
他们还
以后再
体育课
全都是
创作了
创立了
到今天
到美国
加强与
动力上
十三五
单方面
原本的
去年底
去看看
双人房
受益于
可同时
同意后
和全国
回答说
图片均
在企业
在整体
在看到
在脸上
型货架
多连杆
大汗腺
大约有
天蝎座
学位点
它也是
容量为
寒武纪
对全县
对整个
对的人
对相关
对那些
就表示
年代末
开学的
开放性
怀孕后
怪不得
总医院
想通过
成立县
接触过
提升到
政法委
是个好
本来是
某一天
植物的
母细胞
火龙果
燃油版
爆发力
牧马人
电动化
的业绩
的全面
的其它
的外表
的大气
的建立
的悲剧
的材质
的民族
的玩法
的申请
的精彩
的边缘
第三位
第八代
答应了
米切尔
给中国
肇庆市
自己最
要求和
计生委
让家长
诺基亚
这无疑
遗产税
金融学
领事馆
领头羊
ador
ense
time
▁幼儿园
▁成都市
▁甘肃省
▁第七条
▁第六条
。——《
一直保持
不离不弃
不足之处
也是这样
人类社会
会有很多
体育总局
供不应求
勘测设计
包皮包茎
华夏人寿
参赛选手
合作协议
后勤保障
土地使用
在他看来
坚定不移
多方面的
天猫总裁
安全距离
完成情况
工作力度
平台打造
并不是说
很多事情
总结经验
感染人数
无可厚非
无时无刻
明显改善
架空历史
欲罢不能
武侠小说
母乳喂养
沸沸扬扬
消费需求
淀粉含量
源远流长
爱新觉罗
现实生活
疫情之下
看到这里
算是一个
管理体制
维亚雷焦
肌肉萎缩
能够获得
能够通过
自己没有
自强不息
色素沉着
艺术创作
芭东海滩
莫利诺斯
表现出了
表现出来
表现形式
要进一步
视频平台
调控政策
财务总监
辅助治疗
进行检测
里亚托桥
重庆大学
高职院校
China
Flash
▁其他性能
三缸发动机
专家组成员
也可以作为
充分体现了
印度尼西亚
发生了变化
和普通录音
大大小小的
宣传部部长
心血管疾病
战斗中牺牲
的不确定性
纪检组组长
详情乌克超
距离迪士尼
Google
▁第六十一章
▁第六十二章
▁豪华双床间
专业合作组织
其中耕地面积
出场进球国家
南京侯氏风湿
可持续发展的
圣马可大教堂
地下室夜总会
监督管理工作
联赛等级排名
行政管理部门
豪华双人床房
资金违规流入
骑术学校旧址
高清晰麦克风
▁救世主大教堂
请联系我们删除
▁Letters
▁Terrace
涉嫌严重违纪违法
优质录音和普通录音
每个客房都配有私人泳池
在使用现有的床铺时收费是每夜
全国科学技术名词审定委员会审定
DY
je
ūn
▁命
▁弘
▁找
▁竹
▁记
▁讲
。­
】(
一转
三厢
三周
三等
下文
不破
不至
不设
与世
丝路
之位
乌江
乎其
乔欣
也大
二卷
亏了
五世
亲王
今世
仲夏
优抚
依规
儿歌
六七
冠希
冲冲
冲泡
分身
刊载
则由
则要
厚道
反流
只身
叫好
台军
号令
吉吉
吴越
呆在
唤起
园长
围城
地牢
垂钓
堪忧
墨子
备胎
大块
天国
夹杂
如山
它所
安监
官吏
富家
将使
尘器
就到
屡遭
崂山
差了
巴蜀
平直
庆州
张玉
弱视
归队
德明
心肺
打仗
按理
提亚
摔跤
攻城
新课
新锐
旗鼓
景物
月下
有如
李宁
杨戬
民工
气爽
水生
水道
法华
涂装
清秀
狼狈
疾苦
皮带
盗版
盘活
磨灭
禁食
科的
箴言
米色
粗犷
糖类
索性
纱裙
纷呈
线程
组和
终成
绝句
继任
续费
而与
而入
胆子
苦练
董洁
蜻蜓
要被
言德
认筹
诚然
谚语
跟谁
辈出
边锋
连冠
连结
逢低
邓伦
限价
隐约
雷同
高冷
高密
高程
黑粉
iny
med
mpv
oli
▁信号
▁全书
▁医生
▁只想
▁客厅
▁感情
▁杜甫
▁监制
▁航空
▁装备
▁规划
▁这部
▁
上涨了
不愉快
不过来
两不误
个方面
中国城
主动性
也喜欢
也属于
于是他
交易商
亿元和
仍然在
他总是
他现在
债券的
关注我
养殖户
刘先生
则认为
到期的
到这个
即李耳
去眼袋
又是一
吉尼斯
在后期
城中村
多角度
学术界
客房内
就好比
就是不
就目前
工作上
并不难
建成了
德是用
思想与
打进了
扫描仪
挡土墙
推特上
新时期
是孩子
有时会
来控制
格拉布
正式服
正确地
治好的
洗衣服
流星雨
清洁剂
特等奖
的新车
的旅游
的标签
的格局
的职责
的这款
看了看
第七节
等城市
细胞质
细节上
结构及
缓解了
而无法
而是要
腹股沟
被别人
设备及
诞生于
距离海
还专门
退役后
道是体
郑少秋
郭晶晶
采取的
铁观音
顶尖的
顺利的
黄光裕
齐米日
▁Lib
▁Pat
▁伦敦眼
▁奥斯陆
▁汉诺威
▁马六甲
一定会有
一般认为
上了热搜
不一样了
专人负责
个人专辑
个党小组
中央纪委
主任委员
之所以能
乘车路线
人民满意
以及一些
但事实上
依法查处
信息处理
兄弟姐妹
其中汉族
决定任命
十字路口
县名纪念
参考价值
又是一个
又有什么
司副司长
喜欢的人
国家和省
国王大道
学校校长
宫博物馆
家庭公寓
容易发生
工作者的
平板电脑
弄虚作假
执业医师
教材全解
教育研究
文化创意
梅赛德斯
比较多的
特拉帕尼
生命中的
社区建设
社区服务
科技发展
积极响应
稳步推进
简单说来
经常出现
网易科技
自然景观
自然环境
西南地区
资源配置
选秀节目
逐步形成
道路桥梁
铁路运输
银行账户
青岛啤酒
食品饮料
▁Bull
▁Poly
▁作为一名
▁数据来源
▁纽卡斯尔
▁饮食简单
下面我们就
什么都没有
圣米歇尔山
在剧中饰演
弗拉基米尔
斯坦福大学
是佛罗伦萨
根本就没有
正因为如此
河南鹿邑人
第二十七章
脂溢性脱发
自己的能力
连载的一部
▁Green
中国农业大学
国内生产总值
计划大力发展烤烟
每个客房都配有电视
▁每个客房都配有海景
▁农民收入主要以种植业
距离布鲁塞尔大广场步行
人民交通出版社出版的图书
DJ
DQ
▁斜
▁标
▁欲
▁肯
▁话
一为
一打
一炮
一诺
三届
上校
上添
上肢
下期
不交
与不
严惩
丰盛
为邻
主业
争冠
五味
五是
井然
人或
仿鞋
但以
佳佳
使她
侨务
倾倒
元朗
免收
养心
养性
再过
减伤
利埃
别无
剔除
动心
即以
又与
反手
受挫
叫停
台下
吃饱
启程
告终
哭着
土匪
土司
在两
坠入
堵车
多场
大丰
大举
大半
大可
大呼
天平
夫的
委办
子午
字型
完颜
宣泄
家和
宾利
富于
小羊
巴布
年多
延庆
张掖
弹出
强人
徐璐
德之
忄生
悠然
情结
战火
所想
所持
把车
投掷
押金
换货
推手
搜救
敌军
教父
敲诈
方子
无反
无恙
日从
日复
时也
时才
明快
更远
曾用
替身
望而
木板
未被
机率
杆子
校考
格纳
桥街
梦魇
水银
江宁
河路
涉猎
湖边
演说
灌输
火上
点后
点钱
爱在
独奏
王俊
甜品
用眼
甲等
男星
百位
眨眼
着凉
破浪
突飞
竞速
等在
管护
籼型
绿码
耗尽
耗资
脸蛋
舞曲
茶楼
荞麦
莫及
落水
见得
诀窍
诗句
谷物
踩着
身患
轻声
近亲
追肥
选集
递增
遮障
都由
长处
雏形
震中
飞到
魏书
鹰潭
黄连
)》(
Bed
Two
bit
ipt
odi
pon
red
ved
▁Lá
▁mi
▁丰田
▁保罗
▁全面
▁勇敢
▁哦哦
▁奔驰
▁安康
▁实用
▁对比
▁岁月
▁攻击
▁道尔
▁遨游
三角洲
不会对
不能在
不过这
丧失了
为了使
亦或是
以一个
会变成
会逐渐
但后来
内容为
到其他
前提是
医疗费
去了解
发现在
发起了
可以吃
台海军
各行业
同志为
听到的
和妻子
图加特
在完成
在现代
在进入
域分析
增长点
天河区
威斯汀
就不再
工程图
康复贴
当孩子
必修课
文化节
文图拉
文明办
既没有
日中午
是否是
普陀区
曾荣获
有点小
未来将
李世民
清明节
潘石屹
牛正威
特拉布
狮子座
玛利恩
电火花
百褶裙
的前期
的生态
的统计
的转变
等优点
简直太
纽约市
考上了
而闻名
职业的
脚下的
自然地
艾瑞泽
蘧伯玉
蝙蝠侠
表情包
要么是
记录仪
调味料
谢谢你
购买力
费用由
起作用
路由器
违和感
门课程
阳光的
阿波罗
非常道
高脂肪
axim
gank
▁Cas
▁com
▁嵌入式
▁浙江省
▁电热毯
上证指数
不能等同
严重的话
产生影响
人性化的
企业提供
住房租赁
健康安全
健康问题
全文转载
其实对于
兼职教授
努力学习
历史上最
图片格式
在校期间
城乡规划
基础理论
如此一来
工作措施
年度最佳
广泛宣传
建设银行
总部位于
意识到了
成年人的
我们正在
把所有的
掉以轻心
排名第二
提起公诉
搭配一双
操作方法
效果不错
整体来看
早些时候
是什么样
显得非常
正式开始
比较喜欢
治疗技术
治疗早泄
流行音乐
潇湘晨报
王者峡谷
生活条件
畜牧兽医
相提并论
科学家们
筹集资金
精神上的
综合利用
美国石油
老年人的
萨拉戈萨
虽然已经
让很多人
贯彻党的
距离都灵
还是有些
还有不少
这种事情
迪丽热巴
遥遥领先
都出现了
都能看到
高级套房
oshop
urant
▁Roma
▁欧雅泊思
▁澎湃新闻
▁点击进入
▁独立广场
▁遵义会议
不同类型的
二十一世纪
俱乐部号码
公司董事长
前三十七章
后四十四章
大大提高了
年轻的时候
德约科维奇
拥有自己的
是最重要的
法律法规和
游戏大小为
火车站打车
理论与方法
短期融资券
第二十八章
经过多年的
给大家分享
耕地总面积
计算机系统
Knight
▁Based
▁world
▁三卧室别墅
▁受疫情影响
▁安全性很好
▁高级大床房
小麦等农作物
酒店位于科隆
隐患排查治理
高新技术企业
otoshop
▁Access
▁Square
前三十七章讲道
后四十四章言德
木结构住房为主
纽约商品交易所
足球甲级联赛的
酒店位于里斯本
重要思想为指导
香港特别行政区
Internet
alladium
巴黎的最佳落脚点
estaurant
俱乐部号码出场进球国家
mw
▁亿
▁惠
▁源
もの
一区
万世
下落
下装
不闻
个好
中书
中叶
中金
中长
丰硕
临摹
临海
丹田
丹阳
主创
九分
五位
产检
人马
代入
任期
任课
传到
伴着
作则
你得
侯爵
元朝
先要
入胜
兴业
内蒙
冬日
刘强
刘玉
剁椒
剑网
力克
匝道
单子
南投
南起
即兴
压轴
又从
吃吃
周旋
唱的
善行
国宝
国贸
在马
培优
塔曼
多拉
大叫
大喊
大官
天亮
夺回
字节
学刊
宇文
守则
宝剑
小岛
小而
巨变
师徒
归口
彩云
彩绘
懂的
我一
抓到
搜狗
改掉
故此
故而
敞篷
敬重
文创
旋风
无权
早教
时日
有不
有病
本山
本无
村有
杨某
梅拉
欠佳
欧登
欧胡
正的
母享
气虚
水涨
江门
汶川
洞洞
测设
济宁
消逝
涨势
深切
渺小
滑落
灭绝
灰熊
烟农
烤漆
焦炭
爬上
爱她
特立
王氏
瑶族
男声
的口
的气
直链
破案
秀美
科林
童鞋
累西
纳特
纷纭
纾困
线与
缠身
缺一
网约
美艳
者与
能做
腹水
自备
艺文
苏明
若水
落日
蔚蓝
行云
讲求
讴歌
读写
谢苗
赔钱
赤壁
起动
越少
越快
踪迹
转投
输赢
辛亥
过山
追查
送走
透析
速腾
邑商
邓军
那可
除皱
露肩
青霞
靠山
飞往
首任
首屈
高下
高估
高歌
Val
▁Cr
▁Sm
▁WE
▁十年
▁女孩
▁完全
▁就业
▁巴拉
▁张大
▁政府
▁测试
▁王子
▁瑞士
▁进行
▁金属
▁阵容
一季报
一辆车
万人的
上未免
上百万
下午茶
中加入
中心和
为用户
了很久
从头到
从没有
价格战
伤害和
便可以
信用债
修长的
光明的
全长约
农商行
出演的
分别于
创办的
别样的
县卫生
县教育
反弹的
发微博
可以摆
号增产
合法的
向媒体
和国内
回老家
国土局
圣约翰
在不知
埃利耶
基本是
天下秀
失业金
学英语
安全带
安静的
宿舍间
就变得
年成为
得来的
微电子
意识地
把你的
把它们
投资和
探测器
旅行车
无止境
明星们
易发生
是米兰
晶体管
有影响
有苍蝇
有较大
朴素的
水龙头
治愈的
消失在
清晰地
片尾曲
电池组
的作业
的发病
的回应
的损失
的改革
的规则
的证据
的进步
益生菌
直接从
相关性
稻种植
管理法
累西腓
组织与
而其中
而改变
自查自
行为和
让读者
论坛上
设置在
该技术
调查和
资格证
资金和
转化率
进程中
部尚书
阅读和
高效率
requ
rown
▁Mir
▁Pas
▁俗话说
▁土耳其
▁好莱坞
▁第八条
▁还记得
不在少数
个工作日
中国台湾
中级职称
九九归一
也是需要
交叉路口
交通便捷
交通警察
传媒学院
作者是张
克服困难
全景影像
公路建设
公里阿尔
其他地区
内衣套装
卫生习惯
坚持使用
增强体质
多了几分
如果孩子
委组织部
孩子学习
客人在卡
客人在艾
已经完全
布鲁克斯
希望自己
广东男篮
很多地方
思考练习
患者朋友
我的生活
扑朔迷离
执导电影
指导全县
数据采集
无私奉献
期货市场
染色体的
没有景观
浙江卫视
浦东新区
消费者在
深入了解
由于疫情
的时候了
的领导下
盘点一下
相关问题
确诊患者
等多方面
管理咨询
米兰迪斯
组成人员
组织学生
经营模式
给我们的
统筹安排
网络平台
而导致的
菩提树下
评论取消
诚实守信
距离大佛
这一方面
道德品质
道德规范
针对不同
青年旅社
顶配车型
马上就要
骨科医院
高级旅馆
▁总而言之
▁游戏加载
▁网络小说
乡党委委员
俄克拉荷马
又四分之三
可能会收费
就是我们的
意见和建议
新冠病毒的
注册会计师
理疗康复贴
相当一部分
研究生毕业
祖尔格拉布
视觉冲击力
负责局机关
部分客房内
各位小伙伴们
新建商品住宅
欧胡岛已下线
置业有限公司
风湿性关节炎
▁Family
▁发表评论取消
又四分之三站台
数码专营店最近
翻天覆地的变化
ological
常染色体隐性遗传
道路运输管理机构
▁Homestay
▁每个客房都配有电视
部分客房内可能会收费
(-
Ba
VO
di
”.
▁意
▁油
▁籍
▁运
▁采
▁骆
一斤
丁威
上人
两份
中立
为谁
主语
丽尔
丽斯
举足
乐的
乘船
互利
五中
仅凭
伸直
余生
佛的
侦破
倾注
元月
八项
关火
养牛
冰岛
分寸
到访
力达
劝阻
募资
区县
华严
卡在
原曲
参同
古纳
吕氏
和气
商住
喧闹
回响
回龙
园丁
国奥
图和
地瓜
坠落
大德
大选
天仙
失灵
夸奖
夺目
女皇
始发
子房
宏远
宰贤
小偷
小雪
就打
尾气
尿管
山之
山口
已故
库斯
应诉
征用
怒气
恐吓
戈纳
成药
扑灭
打捞
执念
抓拍
抛光
抢了
拉丝
拉到
拱门
挣脱
接缝
摊铺
支招
数和
断供
方济
日历
时将
明初
春华
春笋
显出
暖和
机等
李勇
松散
树干
格伦
桥段
止水
武德
死病
毛笔
水镇
沙田
津冀
派发
派员
海天
深藏
湖州
满目
炎性
点为
爱信
狗肉
理顺
甚多
用刀
甲午
甲板
百般
的猫
的茶
皇权
直男
相知
看上
磁盘
礼盒
空了
立业
简述
粉刺
红唇
纸张
绿水
羔羊
羞涩
能见
舰上
苍天
蒸熟
蚝油
行文
袋鼠
解码
警钟
讯息
质监
购销
贵重
越低
身段
转至
返程
这档
逝去
遇害
遗风
重负
长和
闭门
防潮
陈业
限速
陨落
隔热
靠背
音节
顾忌
飓风
骗局
高约
鸡翅
鼎鼎
DRX
PLA
PRO
hib
isk
mar
ume
▁Ir
▁另据
▁地点
▁序号
▁或者
▁春天
▁理论
▁确定
▁翻译
▁表示
▁身体
▁辽宁
▁遗体
▁面向
▁高清
七十二
下去了
下心来
与其它
世纪末
中国网
中得到
书画展
五保户
亚洲杯
人传人
他发现
他能够
伊瓜因
会怎样
伦纳德
但是当
何朕宇
佛山市
克雷奇
公里帕
关系中
再就业
切塞纳
判决书
化脓性
印书馆
可能被
和单位
国集团
在空中
在节目
地表示
增加至
多年后
太高了
威兰达
娜酒店
它不是
完美地
就是指
局部的
布拉加
年上映
广阔的
延伸到
归根结
形形色
急慢性
我不能
我也不
拿不到
控制与
改编的
放置在
有利的
有别于
有密切
本书以
来分析
来达到
杨玉环
核潜艇
桌子上
检测和
的一步
的意识
的成就
的方案
的植物
的球迷
的由来
的老板
的节目
的阳光
的预测
知识与
秘书处
端午节
等重大
米莱狄
而影响
自然就
规律和
讨论了
说再见
贝蒂斯
贡献了
越秀区
路位于
输精管
过了一
还在于
这三种
这个是
这些小
进口车
进行性
道出了
道可道
遗失物
邓中夏
钢结构
防晒霜
阿斯顿
龙泉驿
Home
mith
vers
ware
▁EDG
▁Gri
▁Rep
▁每一个
▁第九条
一个赛季
一点点的
一般都会
万立方米
上市时间
专柜正品
中篇小说
也进行了
从而影响
代表作有
但道德经
位置安静
住宿酒店
作品名称
全书共分
公共汽车
公摊面积
再次出现
创建活动
前列腺癌
博大精深
历史名人
可以让你
可口可乐
各司其职
同比增速
因为它的
复合地板
多加注意
多多少少
如果按照
宏观调控
实际问题
就是其中
市场表现
希望他们
年级学生
幼儿园的
惯例而分
扶养协议
无人驾驶
智能驾驶
月中下旬
模式识别
渡过难关
病毒传播
社会福利
空气中的
纯电动车
绝对不能
联系删除
肉眼可见
行政单位
谢斯伯利
资格证书
距离塔林
这一系列
配合队友
首次破此
黄金价格
▁Mont
▁Real
▁Song
▁step
▁作为一个
▁科尔多瓦
▁第二百三
▁资料来源
上未免牵强
为六十八章
保持了每章
到了公元前
助理研究员
县人民医院
各级各部门
大学毕业生
年的时间里
文化活动室
有着不错的
来源于网络
的一段时间
第二十九章
自己的看法
至清代魏源
表现出来的
amonix
witter
▁威尼斯钟楼
中国社会科学
二者不能等同
在内容的分割
客户关系管理
生态环境保护
道路货物运输
九九归一的思想
所以有学者认为
有明显的道教的
相对保持了每章
纪律检查委员会
被分为八十一章
被奉为道教经典
首次破此惯例而分
▁analysis
社会主义新农村建设
但道德经前三十七章讲道
公寓式酒店都为您想到了
在内容的分割上未免牵强
相对保持了每章的完整性
至清代魏源首次破此惯例而分
有明显的道教的九九归一的思想
公寓接受上述银行卡付款并有权在
Ac
Gu
XC
sb
▁・
▁朗
▁藏
▁隆
▁그
一顶
万笔
不爽
且看
中亚
中暑
之机
乌龟
于事
亿桶
从古
任由
体弱
你这
信条
倒退
候车
光洁
全院
八五
八百
关中
关照
兵马
冒充
出街
分出
创刊
前驱
动听
劳尔
匀称
卡顿
卯时
厚德
又多
双臂
向内
否决
和前
喜游
嘴上
在市
埃塞
多才
多花
大蛇
天边
她为
娇小
孙俪
孝子
安利
安阳
导流
将此
小节
尼卡
山高
工勤
差错
巴掌
带薪
应与
废气
废除
微弱
德曼
心有
志向
忠告
恭敬
惊恐
惟一
惯了
我方
把人
拉利
招财
捧着
提成
攻破
文静
斯威
新余
无休
日韩
春光
是本
暗中
更让
月色
朝代
松下
果肉
标牌
概说
武部
毁于
母语
毛利
永州
江边
没过
浪花
海贼
混战
清白
灾祸
点儿
热泵
爱惜
牛逼
独占
率队
瓦解
画报
瘦了
百米
的六
的鱼
眼眶
离心
突袭
繁花
经信
罪魁
羞辱
老祖
而退
联欢
芭莎
苞片
茶道
莫邪
蒸馏
虫子
被逼
见他
记事
译著
贝莱
账面
资费
轻便
运力
远销
追涨
通气
避震
酷酷
醉了
重工
野怪
金像
钾肥
错题
门戈
问津
防锈
阿罗
集美
音讯
顶多
额为
馆员
骨灰
鸡肋
黑豆
Liu
Ram
aph
rew
uel
zně
▁上周
▁东风
▁制定
▁加入
▁区域
▁图源
▁地区
▁套间
▁奥迪
▁打造
▁正在
▁温州
▁英甲
》——
上涨的
不大于
不自禁
与外界
业务员
东营市
主编的
也得到
习题第
人之一
他曾经
代表的
你的人
元套房
净流出
刘嘉玲
单卧室
却还是
召唤兽
合格证
后出现
和智慧
和现代
和经验
回头率
在当下
在成都
多月的
大小姐
季节性
宫外孕
将逐步
就是他
工业区
巧妙地
差不齐
年以前
并具有
开通了
弄清楚
往前走
德国的
性问题
恰当的
我们不
所致的
投标人
控制权
撒哈拉
斯卡亚
新京报
日开学
明星的
有价值
有心人
朱元璋
李元芳
林荫道
水产品
没时间
流露出
生产者
的一篇
的单品
的国民
的常见
的运营
皮肤上
着眼睛
硅藻泥
社会和
科佩街
红树林
级以上
细胞内
终点站
继承法
绿化率
自信的
舞台剧
艾弗森
节度使
英布拉
让这个
训练和
许多的
财富的
走过了
迈凯伦
运营的
还要看
连载的
锦上添
雪铁龙
靠自己
面包车
高贵的
鲍威尔
lovy
ming
ston
━━━━
▁Est
▁Han
▁LPL
▁Ros
▁丛书名
▁大多数
▁第三卷
▁第十条
万怡酒店
不管是在
专业本科
为了提高
九十年代
交通肇事
会有什么
会越来越
你自己的
依然没有
元增加到
公允价值
农民群众
出其不意
出版发行
创始人兼
区委书记
另外一种
召开会议
可以保证
可以治疗
可圈可点
可能发生
周围的人
国家政策
圣路易斯
城乡居民
城堡酒店
填报志愿
多平方米
央视记者
安全监管
就业岗位
就到这里
幸运的是
恢复生产
房地产的
招标投标
拥有一支
控制能力
提出申请
改革发展
新闻传播
方针政策
显得十分
最有价值
有所了解
林业大学
欢迎关注
每平方米
海得拉巴
滥用职权
牢固树立
独立完成
直属单位
相应调整
神州租车
粮食作物
紧随其后
肿瘤细胞
范围之内
认为这是
贷款贴息
输掉比赛
这套阵容
这种说法
顺利通过
Space
obile
ronic
▁Rent
▁area
▁发行公司
▁小说作品
▁第二百一
也不用担心
低收入家庭
全国助残日
卢布尔雅那
可以有效的
国际奥委会
圣尼古拉斯
宜必思尚品
就是最好的
整顿和规范
无毒副作用
普利科佩街
构成犯罪的
派出所所长
社会的发展
都是一样的
▁Lázně
▁South
▁class
▁阿尔卡拉门
处理程序规定
委员会副主席
广播电影电视
管理局副局长
还是很不错的
里斯本主教堂
▁西贝莱斯广场
中国共产党党员
▁马德里西班牙广场
别墅更合适的选择了
▁Apartamentos
CF
TW
hz
′′
▁坎
▁斗
▁条
▁琴
▁龟
▁다
一地
一帮
上就
上环
下凡
不就
专攻
世贸
中是
中科
主旨
之四
之塔
之笔
之缘
也由
云烟
享乐
伤悲
住校
余个
依稀
公德
共创
击倒
分两
分居
刘新
到晚
刻有
加盐
半场
卓有
卡伦
印有
厌烦
同义
后援
后经
吐司
君臣
吹风
和三
哈纳
哭声
商超
四溢
围着
在美
埋藏
城池
塔尼
外力
夜空
契丹
奢望
存档
宏大
宝山
客站
察布
小到
巴鲁
市集
帮派
平定
应征
形似
形制
待定
得水
德诺
必先
思明
总比
情书
惦记
惭愧
房主
打人
找他
折服
护法
拉美
拖着
拳迷
摄制
撤回
无虑
无阻
日经
星河
晃动
晶石
更广
更深
有啥
有神
某部
查龙
柱子
根系
格利
梨园
正德
气机
水井
水痘
汇款
法会
波普
波波
泰勒
消磨
淡出
深谙
混血
游子
游荡
源的
漱口
灼热
燃放
爱生
牌号
王之
生卒
用好
田镇
电能
白粉
白醋
百事
直列
相承
破百
神探
神韵
禁锢
秘鲁
稳稳
紫檀
纯度
翻新
老太
者可
胁迫
胸痛
脱胎
自控
自编
舌尖
航站
花柱
苍茫
荒谬
菲维
蚌埠
西接
见其
见底
言说
误入
诵经
读到
责备
超乎
超时
踪影
过万
迎面
这双
连年
追着
追逃
选自
递质
道碴
遗鸥
采石
闭关
阜阳
限售
陷害
难堪
雷雨
顺产
高脂
黄牌
DNF
Dow
Sch
azz
www
▁ES
▁We
▁以及
▁剧情
▁办学
▁医疗
▁千年
▁哪些
▁插入
▁文明
▁晚上
▁河内
▁红色
▁著名
▁道明
▁雅典
▁食材
一大堆
一直以
三四线
不能用
不错了
东方红
个年头
中写道
中新社
也是不
人来说
人确诊
人都有
今天是
以保持
以增加
价格上
价格是
会遇到
住宅区
依法治
公司债
其实也
内饰的
凤庆县
出去了
刘奕君
刚刚好
利用了
千千万
可怜的
可能就
和重要
四个月
因子的
在一定
地平线
复活节
多少呢
如何让
如此之
安宰贤
室内的
小红书
布斯堡
带回家
带给你
干净净
并做好
引来了
当成了
戈麦斯
或参与
才得以
扩大到
扩展到
批准为
抑制剂
披露了
措施的
改成了
更多是
有效穗
服装店
本书的
来提高
注入了
海滩好
深入地
病医院
的各个
的各类
的形态
的武器
的热量
的瞬间
的营销
的驾驶
看到她
研究部
种类的
第二十
类别的
精致感
紧身的
红辣椒
纤维化
结果的
给他的
罗志祥
罗斯福
老字号
联系了
自尊心
自己有
英特尔
被收入
观赏性
论述了
过渡期
这个病
这期间
遇上了
部经理
都只是
长白山
门把手
akes
aper
wood
word
▁Las
▁boy
▁中文名
▁你知道
▁太平洋
▁第二位
▁道可道
一般而言
上的表现
两名儿童
书画作品
人体吸收
什么原因
保护自己
保持稳定
修复受损
儿童文学
冠心病的
创业板指
劳逸结合
参差不齐
取得联系
可以避免
可怕的是
土地市场
女性来说
妇女儿童
家的孩子
容易产生
对于这个
对学生的
就会产生
居民消费
属于你的
工程力学
已经接近
应用领域
延缓衰老
建议患者
归根结底
很多球迷
怎么样呢
所在单位
技术开发
拟订全市
接受媒体
方面表示
普吉西蒙
未经允许
横空出世
法律顾问
爆发伤害
独生子女
现实中的
电力系统
疫情过后
的作用下
社会力量
社会生活
米科诺斯
系统研究
累积获得
组织建设
而是一种
设计方法
足不出户
距离民族
辛辛那提
返校时间
这家公司
这是一部
都离不开
银保监会
雷加利斯
雷根斯堡
齐心协力
erien
ocial
▁Gall
▁Yuan
▁丽池公园
▁合同到期
▁实训目标
▁客房很大
▁新奥尔良
▁第二百七
一个良好的
主要体现在
公里下城区
冷购物中心
区委副书记
外国语大学
子宫内膜炎
孩子的学习
工作人员的
已经过去了
快乐大本营
无缘季后赛
有突出贡献
来自于网络
瓦维尔城堡
的一项重要
科学研究所
豪华三人间
ounter
▁Libby
▁Santa
中国传媒大学
人民广播电台
墨尔本唐人街
外部私人浴室
普通高等教育
最大输出功率
欧雅泊思眼霜
管理信息系统
距离克拉码头
酒店位于首尔
Central
duction
▁支持音频格式
普吉西蒙人妖秀
▁遵义市人民政府
残疾人就业保障金
酒店位于布莱克浦
▁该村存在的主要困难和问题是
SO
fa
▁品
▁拿
▁族
▁段
▁胖
一例
一届
一意
万语
下村
不前
不渝
不讳
两根
也多
争端
亚勒
亚文
体例
你那
俯瞰
候补
先例
光靠
八叶
冲压
几张
分册
划过
前述
剑英
力压
助人
北靠
十倍
半球
南村
卷三
卸载
厮杀
县市
又长
可到
咏仪
唯物
四天
回放
国军
在开
地籍
坍塌
培植
基底
壁上
壮举
外链
夜幕
大乱
大潮
太一
她不
她将
委婉
富足
小美
小队
尼丁
已向
市西
带去
常客
应激
心肝
志异
快消
快线
感光
慧乔
我吗
我问
或因
战区
手刹
托付
托邦
抽调
捕获
接球
搞怪
搭桥
收银
改用
无我
无霜
昂克
明园
春播
有型
杀青
李谦
村名
杰作
校址
格列
案发
楚辞
毒药
油箱
清泉
湖中
火药
灭活
炸药
爱他
片里
片面
琳达
用最
病态
盛唐
相公
相间
研读
硅谷
硬质
碑文
磷脂
种菜
科拉
秘术
秦岭
突进
竭力
篮下
粘稠
紫阳
经意
经查
给药
者有
耶夫
职守
腰腿
芈月
若不
苦辣
英朗
英达
菌群
萦绕
行间
译为
诚心
贪欲
贴剂
赫赫
跃亭
跳跳
轮的
轻快
通病
逾越
邓传
配伍
里木
里皮
铁线
锡拉
锻造
长在
长者
隐忍
非同
频发
题名
食之
马蒂
高银
鸟儿
)、“
ATP
Rob
WAV
enh
iga
une
▁为你
▁单片
▁导致
▁当初
▁提醒
▁清迈
▁苏州
▁资金
▁这时
▁道滘
▁邓军
一刀切
不久的
不规范
不集中
与评价
中心区
主要靠
也称为
了之后
以任何
任职于
供销社
便利性
保鲜膜
冲击力
出问题
刻骨铭
剩余的
包含着
单位要
卖出了
却成了
及个人
发明了
另一边
可设置
合成的
同时将
嘉兴市
国人的
在杭州
地方性
客流量
家长要
小行星
小鲜肉
岁以后
工装裤
带动下
年推出
影响下
心电图
怀孕的
情绪的
所吸引
技术面
拉斐尔
推迟到
收入和
收购了
日当周
是按照
是研究
显腿长
柠檬汁
格罗夫
格里芬
档案局
比达尔
水浒传
泽尼特
浴室小
淋巴瘤
深呼吸
火热的
炎热的
熔喷布
的依据
的典型
的心思
的思维
的水准
的直接
的规模
确保了
第三条
经济圈
美人鱼
能保证
脑子里
船公司
荔湾区
补贴后
要尽量
证实了
还必须
还是不
适度的
通过的
遮光罩
配备有
采访了
量产车
金刚经
长期在
集中度
首发于
马力的
高一丈
鬼谷子
etch
iPad
iana
ides
inal
ismo
itor
▁Aut
▁Los
▁Pot
▁TXT
▁之所以
▁互联网
▁关晓彤
▁同样是
一个孩子
三国演义
上一层楼
主要研究
五大联赛
产业政策
他们自己
传统医学
但是这些
作战能力
入境人员
出人意料
出版公司
力所能及
加工技术
劳动关系
北京现代
县交通局
发表声明
可见一斑
史诗皮肤
各级政府
商业价值
商报记者
因为这样
国产品牌
国际会议
国际标准
地理环境
大学生活
女性不孕
学生们的
安全防护
射击游戏
小屋酒店
平衡疗法
异常情况
得心应手
德克萨斯
所导致的
执法监督
扶持政策
抗美援朝
抽样调查
控制技术
操作难度
教学经验
整精米率
时间久了
最明显的
正常水平
油价暴跌
生产工艺
生理功能
疫情暴发
研究制定
究其原因
突出重点
累计销量
组织结构
经济复苏
统筹协调
美国原油
而且还能
自主学习
自学考试
英语专业
获得国家
蔬菜水果
行动计划
被继承人
让更多的
详情英超
豪斯酒店
贯彻实施
走到哪里
距离华欣
车道偏离
连续多年
遗传资源
遵纪守法
配有电视
重症病例
量化宽松
conom
ervic
▁Bang
▁清华大学
▁游戏目标
个工作日内
二月十五日
办公室秘书
巴拉纳竞技
有什么样的
的大背景下
第一次会议
自治区党委
要注意的是
cience
estern
▁交通运输部
▁塔林市政厅
▁塞万提斯像
▁太阳门广场
▁浴室很干净
▁第六十三章
▁马德里王宫
中国工农红军
中学教材全解
元标准双人间
基金份额净值
实业有限公司
想尽一切办法
新冠肺炎患者
湖南师范大学
适宜种植烤烟
QGhappy
ineStar
▁服务非常热情
委员会主任委员
子宫内膜异位症
距离美泉宫打车
▁马德里马约尔广场
每个客房都配有卫星频道有线电视
?《
VE
ql
▁席
▁幽
▁散
▁너
一作
一夕
一己
一艘
上坡
上流
下饭
与原
世祖
东村
为安
乐章
书上
二甲
二等
二类
二郎
伯勒
体坛
体格
俯卧
入室
公车
内河
冲天
凌云
凶狠
出产
切碎
划痕
别扭
到户
办结
务员
助阵
包厢
原味
原阳
及对
只求
同音
后盾
吴晓
和内
和银
哈萨
售罄
回撤
圆锥
在打
均值
坚毅
外周
大戏
天书
天美
太远
奈尔
奥恩
好景
好车
姥爷
家在
对内
对未
寺的
将我
少有
屋面
巡演
工大
已与
巴切
常备
平凉
年审
异能
弗逊
弧度
归档
当真
很受
德雷
必杀
忘怀
快车
怠速
感召
成荫
所选
扣押
抢镜
披风
拉玛
招录
提上
提纲
摘除
摩羯
政绩
新安
旧时
早饭
是哪
暗杀
暴晒
月率
服气
木星
术中
来愈
杰伊
杰罗
柏芝
标示
死在
每经
比武
气色
涅米
涵义
淑贞
溜溜
濒危
煮至
特塔
犯人
狭隘
玩偶
玲玲
琐事
甜甜
生在
生灵
痴情
皮奥
益阳
相会
睡衣
石狮
磨铁
福气
篝火
粘接
紧握
繁星
细数
罹患
翻领
老乡
考了
而终
胜出
英模
莉莎
蓝领
行气
补强
衰减
被踹
装着
觉察
解体
译名
该市
谁呢
车前
车在
轻混
还清
迟熟
选配
道恩
郑秀
采钰
铁丝
门兴
阿联
雅安
鞋柜
韩愈
香露
鸡块
黄龙
龙神
BMW
FNC
cat
irc
omo
▁下午
▁中药
▁唯一
▁地铁
▁完美
▁实施
▁岩石
▁序言
▁新生
▁由此
▁看来
▁道和
ように
不定期
与公司
严重了
中后卫
为纪念
之目的
九寨沟
也不乏
也必须
也特别
产油国
优惠券
但为了
但仍然
你想要
你还是
依法对
入选了
农科院
出席了
利用好
前身是
加速度
务之急
卡萨丁
压力和
原阳县
台湾的
吸收了
和她的
和父母
哈德森
噪音大
四十年
在拍摄
在遇到
均价为
处女作
夫人的
如果用
始终把
威斯康
官网上
将进行
少女心
尽快的
履行的
工程等
工程量
带到了
年主持
年我国
库兹马
很清楚
心想事
成绩的
我依然
我只想
所以她
手动挡
扶贫办
招聘会
日新月
时发现
是两个
是最为
是社会
是那么
曾说过
有光泽
望远镜
村民组
板块的
林郭勒
每年都
每次都
民族的
水涨船
清康熙
激发了
现在我
白萝卜
的一代
的商品
的大脑
的工厂
的思念
的版本
的资源
神经炎
站站长
等一些
等著作
管理区
精湛的
网规划
罗德曼
美术系
群体中
老和尚
而其他
肿瘤的
背景墙
苦不堪
茉莉花
被取消
见面了
该地区
谢霆锋
贡献奖
距离塔
跟他们
过来了
这一场
逝去的
都市圈
都市报
银行间
销售量
锅老师
首付款
马鞍山
驱动的
魔法师
Auto
NASA
aily
comp
imes
ovel
▁NBA
▁Rom
▁des
▁国务院
▁我觉得
▁闪存式
不断增长
两个月的
个人认为
中国地质
主要就是
主要贡献
也不愿意
也是我们
也被称为
书法艺术
了一口气
什么事情
伊利诺伊
保持不变
做出贡献
其中彝族
内心世界
冠状动脉
别有一番
到处都是
区教育局
华润置地
发表文章
可爱的小
合作项目
和俄罗斯
地理标志
大专院校
奥运冠军
妇科检查
安全系统
官方宣布
宫颈息肉
对于很多
就一定要
就开始了
就是如此
已经不再
干干净净
应运而生
建筑施工
强基计划
总会计师
成为全球
成人教育
手术切除
才能达到
投资决策
报告文学
数理统计
文理学院
新兴产业
昂克赛拉
最后还是
有很强的
正式上线
水土保持
汽车销售
治疗期间
流浪地球
深圳大学
煤矿安全
的人认为
的孩子们
的真实性
研究方法
确保安全
社会团体
科学基金
第三十章
组织编制
给了我们
聊斋志异
职业院校
联系起来
虚拟现实
行政事业
表达能力
距离卢浮
身体不适
远程办公
道家养生
都是自己
预计今年
香格里拉
▁Bali
▁more
▁比赛性质
▁第二百六
▁第十一条
▁道格变身
严重的影响
人民解放军
医院的专家
国家卫健委
城堡博物馆
塞瓦斯蒂安
就不一样了
市场占有率
布里斯托尔
提供了套间
最受欢迎的
有一段时间
森林覆盖率
物流包装箱
的一本图书
的教学工作
的角度来看
第三十一章
纪律审查和
进一步做好
urismo
▁服务不太好
主要种植茶叶
在全球范围内
思想政治工作
无痛人流手术
水利水电工程
海滩度假酒店
等性功能障碍
经济和信息化
资产配置策略
配有私人泳池
▁性价比非常高
不信由你博物馆
别墅酒店是您来
距离卢浮宫打车
▁Applied
住房和城乡建设局
发表于晋江文学网
▁九又四分之三站台
教材习题答案与解析
无垃圾集中堆放场地
:】
DL
FI
FS
PT
ko
▁俄
▁肝
一星
七种
中建
丽晶
之曰
乘员
书豪
争抢
二度
人名
伊万
伏魔
会费
传道
余次
佛家
修习
全城
八部
写实
几日
划入
划拨
则应
剑湖
劝退
动容
劲旅
半衰
卡宴
卡都
卫城
卸妆
双打
双流
发证
受潮
古怪
可循
史称
吃香
各具
后坐
听后
唇膏
国文
地藏
坐上
坡村
埃莱
埋头
外企
外型
大伙
大勋
大厂
大炮
大雄
天帝
太深
奥康
存续
学得
学渣
安迪
官微
实车
富里
对拼
小妹
小鹿
尘封
展品
岩洞
崭新
左腿
带好
常熟
年建
年经
庄乡
库尔
开枪
微粒
志国
怀揣
总管
想用
成热
成章
我真
或其
抹去
拆借
捕鱼
接诊
撩人
改写
整机
施压
无有
日由
昨夜
是按
暗暗
村和
来此
极寒
桥面
气得
水河
水洗
沉降
没得
沿袭
清查
渊博
炒菜
片酬
物和
王庙
王楚
琐碎
瑞恩
甩挂
白嫩
盛会
相容
相看
真气
硫磺
祛风
稚嫩
等书
签到
简章
紧扣
纳闷
美协
而要
联考
肩上
腋窝
节节
芝士
茂盛
蓦然
被省
西华
西夏
见不
警力
认出
记分
试飞
财源
账单
贵在
轻轨
轻铁
达摩
运费
近在
还多
远走
通的
道台
道袍
遮肉
重聚
金靴
长汀
闯关
防备
防癌
阵子
阻拦
难治
震慑
青天
风声
驶入
鲁夫
鹦鹉
鼓鼓
?""
Can
OUT
ogn
rem
▁%,
▁Ho
▁IG
▁TV
▁ra
▁二十
▁做好
▁典型
▁可见
▁国产
▁新浪
▁新的
▁母亲
▁海滨
▁联合
▁西甲
▁调查
▁质量
▁道生
一个很
万余人
万像素
三分钟
不去的
不和谐
中国籍
丰台区
为城市
为标准
为防止
也未必
了一道
了过去
仔细看
他们不
他觉得
伊甸园
传承人
伦蒂诺
余额宝
佛菩萨
你不要
养殖场
制片厂
前后的
化处理
却并不
又不会
发达的
受伤的
变得很
只可惜
可以再
可增加
合资车
告一段
和中央
和功能
在临床
在水中
地发现
外观和
大学和
好的话
孕晚期
宇宙的
家族式
对道教
将出现
小区内
小城镇
就到了
巨蟹座
布莱恩
年龄在
应届生
建造的
引进的
张艺兴
彩色的
快速路
性能的
总量的
情况及
情况等
房管局
承受的
撰写了
斯特雷
无反顾
智慧和
最高点
有益于
核心区
氛围灯
汇集了
熊祖模
现行的
的岁月
的强度
的景象
的镜头
皇帝的
皮埃尔
盛大的
精子的
缴纳的
而中国
而到了
而成为
肠梗阻
胶稠度
莱万特
行业和
西蒙斯
见到的
记者会
讲解了
评价和
还特意
遂宁市
遗落的
邀请函
钟南山
长宽比
阻击战
阻力位
高级别
黑暗中
Love
Mark
ecut
ould
▁Dom
▁Sam
▁don
▁trs
▁天津市
▁美泉宫
上当受骗
下列情形
不是没有
专业技能
专业英语
中华文化
主要是指
人事教育
人民公社
从而提高
他的妻子
体育学院
你的生活
促进作用
保健食品
保持距离
免费咨询
全体会议
其他民族
内防反弹
创建工作
利率下行
利用职务
医用口罩
医药卫生
县教育局
参加活动
发育不良
可以肯定
可以降低
尽可能的
平均海拔
并不陌生
总经济师
所具有的
技术指导
教学指导
数码相机
方法就是
明显高于
景观很好
最美丽的
最著名的
月被评为
机械工程
根本就不
格格不入
欧阳娜娜
正规医院
此项工作
海峡两岸
煤炭工业
特区政府
特拉布宗
疫情蔓延
百亿补贴
目的就是
直播平台
真正实现
私立学校
秦牛正威
第二百一
第二百三
糖尿病人
线上复试
统一管理
罪魁祸首
腿部线条
苏亚雷斯
茜茜公主
西部地区
课程教材
近照曝光
进行研究
那么这个
重点大学
金色大厅
长租公寓
隔离期间
非常感谢
黑梳子山
▁屏幕面板
▁正文语种
▁魔兽世界
不知道自己
世卫组织的
乘坐出租车
可行性研究
在不知不觉
墨西哥美洲
封闭式管理
折合人民币
新闻出版局
是什么意思
有乡村医生
目的是为了
红星美凯龙
胜利纪念柱
自己的情绪
这样的搭配
Switch
urface
▁电视等设施
不来梅的城市
传递更多信息
农业综合开发
四川师范大学
是一种常见的
现有确诊病例
高校开学时间
▁Theory
主要销售往县内
书法家协会会员
人均可支配收入
套房酒店让您在
安瑶理疗康复贴
工业和信息化部
旅馆位于马德里
监督管理委员会
酒店位于雅加达
▁博斯普鲁斯海峡
道路交通事故处理
不来梅的城市音乐家
距离德里贾玛清真寺
城镇职工基本医疗保险
▁properties
▁领导小组下设办公室在县
▁整间住宿位于地面楼层等设施
AJ
LV
](
yc
▁丛
▁乙
▁写
▁几
▁动
▁崇
▁度
▁港
▁留
▁短
▁退
▁遨
▁零
▁顶
丁字
万格
下有
不谈
两度
中时
中韩
之恩
之泪
了些
五天
亚利
亦为
亦凡
体面
作协
你真
佩里
便在
俊闵
共舞
内政
农行
凯歌
凯莉
到他
办的
匈奴
北朝
博美
卷土
压在
及各
受凉
受压
口干
古井
台前
史的
各班
向善
含水
四合
四家
四类
圣贤
在眉
均被
太师
奥赛
如潮
字子
学学
定力
宝库
小有
小童
居前
山里
布加
布罗
年省
应予
康路
张口
弹道
强光
当上
待发
德县
志士
怡保
悠扬
情调
意蕴
成片
打分
扔掉
抱负
拖到
招数
换气
掩埋
搁浅
数日
整日
文名
文工
方方
施法
无益
昌盛
明晰
明漾
显赫
晨光
更可
有法
未央
术的
枯竭
查汶
标段
档位
歌谣
正非
残余
毛竹
污渍
法王
泡水
泥灸
海西
渐行
溪市
潺潺
濮阳
热忱
热恋
煎汤
王伟
玩性
瓦房
由衷
画幅
白日
皮疹
直白
相位
相片
碑林
离汉
秋凤
章旨
等高
算命
粉红
粘性
维塔
缭绕
美文
群中
翁根
联袂
胡斯
能动
自嘲
自得
花里
萨拜
蓄势
蓝绿
融融
行性
被我
装上
西临
解约
试训
诺维
谨防
貌美
超低
超度
轶事
辅警
辉映
辛寺
远东
选题
道馆
都好
酶的
里头
长此
长跑
闲聊
雄性
雅的
雷神
非得
鞠躬
风琴
风行
马店
驰名
黑素
鼎力
NGA
TXT
VGA
key
rik
▁gu
▁出自
▁出装
▁劳动
▁包装
▁园林
▁小儿
▁心理
▁注释
▁站在
▁等待
▁答案
一个字
一般会
上档次
下调至
不甘心
不能说
两年来
临沧市
主办方
之前就
也受到
也是让
他不会
价格和
任务和
休赛期
但是要
保质期
信证券
债务人
充电宝
克服了
公开的
出土的
切入点
刘德华
力量感
史蒂夫
合格率
和义务
售楼部
处女座
女孩的
婚姻的
它们是
家里人
对这种
将获得
小公主
小男孩
小蛮腰
尽量少
展览会
帕特里
帮助你
平等的
并给予
张国伟
思想上
性病例
惊呆了
愈来愈
找机会
拳击馆
挑战者
换言之
排名前
排气管
政府在
效果和
斯巴鲁
方面都
无与伦
日之前
是唯一
是清迈
普普通
曝光的
更健康
更是一
有好处
有计划
桃花源
楼市的
殡仪馆
泡核桃
洗发水
海岸线
游戏币
满足于
点就是
玻璃珠
生长在
的一笔
的中年
的共同
的卫生
的小白
的机构
的阅读
直接用
相信在
矛盾的
秋冬季
科植物
科研院
穿衣服
等不良
等机构
简单又
精神科
紧凑级
老奶奶
而在于
肆无忌
能增加
能提供
荷叶边
萨苏纳
葫芦岛
蒿俊闵
让一追
话语权
诱人的
说服力
豪华版
负责制
踏踏实
这一种
这一类
这让我
阿伯丁
集团在
青年的
面部的
饿了么
麦弗逊
黑木耳
andi
ayer
etwe
mann
show
uber
ulti
▁Big
▁MAX
▁Mac
▁Mel
▁Non
▁Pra
▁只要你
▁同学们
▁有的人
▁第十二
▁美丽的
一丝不苟
一个月内
三个疗程
不幸的是
不折不扣
不由自主
不能超过
中欧班列
中职学校
主要介绍
久治不愈
也受到了
也是一位
书法篆刻
任何一种
做大做强
光明日报
全面实施
公开表示
关注我们
其实都是
养老机构
决策部署
出版日期
分配利润
原创作品
县长办公
只有自己
可以尝试
可以成为
和维生素
国际学校
土地储备
在校门口
夏威夷大
外汇交易
大幅度的
夫妻生活
如果觉得
存储空间
审计报告
宣传力度
对于这种
常务委员
引人入胜
微创手术
性生活的
我们希望
所使用的
提供在线
教育改革
教育方针
无论是从
明显下降
显得格外
最美好的
有良好的
服务项目
杜马盖地
法律服务
混动系统
爱情公寓
物理实验
现任中共
生产发展
电动调节
疑难问题
的大规模
相关手续
石油需求
研究提出
祛斑产品
第二百二
艺术教育
融资租赁
负责协调
车道保持
这个社会
这么好的
这些因素
这是由于
这是非常
逐步恢复
遵义市委
镇道路为
除此以外
集团旗下
预防为主
鼓励孩子
andic
▁cell
▁note
▁一直以来
▁备案单位
代表国家队
信号与系统
全资子公司
共同努力下
医院皮肤科
及时的治疗
备案立项号
对学生进行
就是这样的
布斯堡王宫
政治部主任
教科文组织
正确的方法
的人际关系
的最大功率
的治疗方案
费尔南德斯
waRent
▁Dream
▁第六十四章
中心酒店位于
交通十分便利
同比去年同期
据不完全统计
机动车驾驶人
距离都灵中央
违法违规行为
道路交通管理
革命根据地的
wohnung
▁主要参考文献
▁支持图片格式
▁支持视频格式
也是您来到伦敦
位于阿姆斯特丹
别墅酒店让您在
圣尼古拉斯教堂
好巧网酒店评分
美术家协会会员
茜茜公主博物馆
Terminal
▁去景点非常方便
夏威夷大岛已下线
科技股份有限公司
道路交通安全管理
▁Chamonix
▁Communic
公里匈牙利国会大厦
农民收入主要以种植
纪律审查和监察调查
距离民族独立纪念碑
距离科隆大教堂步行
▁索菲亚王后艺术中心
是伦敦最热门的酒店之一
套房酒店都会是您住宿的绝佳选择
度假酒店通过提供优质贴心的服务和
-【
En
hs
▁庞
▁推
ライ
七夕
三卷
三段
三组
上虞
不归
专案
两眼
两腿
中上
中又
为奇
义凌
乐言
二千
五杀
亟待
人像
仅此
以偿
伊姆
低吸
何其
你很
侄女
保藏
信件
信服
像他
全勤
内江
分外
则不
助你
勒索
匡胤
千玺
升入
压倒
叉车
双拥
右转
吴江
和阿
喜闻
嘻嘻
四点
因特
国寺
在东
地砖
堵住
声势
多糖
夜色
大部
天黑
太虚
娓娓
娜塔
孤身
宋史
官场
室的
封号
就差
嵌顿
差旅
已过
并联
库森
座右
徐徐
忧心
快了
快进
情义
情仇
惊吓
惊呼
惠阳
想看
房款
扫地
抒发
抢到
拉米
放款
映入
是种
是让
更少
有形
未果
机位
杜仲
束腰
板式
果期
枫树
栋梁
校训
桥上
梦之
梯度
楼顶
榜上
次子
比心
民情
氧吧
汛期
河谷
洗盘
海选
润肤
湿式
潘森
烘烤
烧制
父本
版画
牙周
牧草
物权
状体
狂犬
猪肝
献身
玛塔
现世
瓦图
甸县
留出
瘦腿
盐务
直奔
石的
硕果
礼节
空投
笑道
签了
粥样
绕后
绣花
缝纫
罗家
美男
老总
而得
而走
而降
耿耿
联名
肥厚
胃部
胆怯
脑力
苍生
茶树
茶馆
蒙蒙
蛋清
街机
街舞
表率
装订
观战
该州
责怪
责编
践踏
较远
过目
这则
选线
通神
邓嘉
酸的
防病
雄县
青青
鞭炮
音箱
顺水
预收
领奖
黄梅
LCD
PVC
Son
gps
▁Ba
▁hy
▁其一
▁剪辑
▁在我
▁地球
▁大型
▁早泄
▁欧阳
▁漫画
▁爱上
▁药物
三个字
不再有
个进球
主流的
也就会
交流会
人生观
人社部
任教于
优点是
低功率
作业帮
做人的
入口处
内容是
几乎都
出生时
分析的
到中国
制造了
刺激的
加盟商
医疗系
十周年
升级的
半年的
及治疗
及管理
发生时
古装剧
另一方
可以向
名字叫
向前走
含水量
和责任
回忆起
团团长
在当今
在此前
基础性
外观上
大世界
大广场
大眼睛
学到的
对个人
对胎儿
已经为
带走了
平均每
年全县
年完成
并成功
应具备
建国后
开始对
张三丰
形容词
征服了
徐冬冬
成本低
或者有
报道了
抱朴子
拉酒店
按程序
措施和
无论你
日公布
昌平区
明亮的
是一对
是道教
有独钟
杯冠军
梅州市
模式中
正式的
沃库森
活跃的
深刻地
混合型
清新的
王先生
球迷的
生涯中
疫情中
的几种
的姿势
的居民
的思考
的战争
的报告
的热议
的长裙
直筒裤
眉山市
立遗嘱
等多部
篇一律
粒进球
综合楼
编著的
罗弗敦
置物柜
美味的
考虑了
而目前
肚子里
艺术与
落实好
蔡英文
行李箱
补习班
观点的
角质层
设机构
评论家
走向了
转换器
达成的
还是得
还特别
这便是
这几种
选择上
那也是
那我们
都拥有
释放出
重灾区
针对于
铁道部
限制的
非营利
预应力
飞机的
马上就
马大胆
Flat
hong
▁Inc
▁副教授
▁复习题
▁李小璐
一波团战
个人账户
中国证券
中央银行
主队球场
买一送一
二十五年
以免造成
但是作为
体系结构
信息收集
医疗费用
医院妇科
卫星定位
只能选择
可不可以
各大媒体
告一段落
在本赛季
外出打工
外阴白斑
大多数的
安全教育
安全配置
官网显示
实际应用
就知道了
工程监理
已经完成
带状疱疹
年发行的
应用系统
当务之急
形成一种
心理状态
志愿填报
我们都是
打野英雄
投资环境
指导老师
效果最好
是很好的
智能汽车
更倾向于
最关心的
机缘巧合
检测能力
正式进入
沟自然村
河南大学
海景公寓
温德米尔
物理学家
现金红利
甚至还会
男科疾病
知识体系
积极分子
粮食生产
紧急状态
经济状况
结果就是
肆无忌惮
能够提供
财务报表
辛辣食物
这一点上
这个节目
道义逻辑
道路红线
遗传物质
遗址公园
遗迹化石
长效机制
隔离治疗
非常安静
非常重视
餐厅酒店
ident
▁Film
▁when
▁东方玄幻
▁娱乐作品
▁新京报讯
▁第二百零
▁第十三条
▁第十四条
中国留学生
伯多禄教堂
公寓式单间
养殖业产业
看起来十分
知识产权局
第三十三章
血小板减少
补充维生素
被害犹太人
规划许可证
距离白沙滩
还可以通过
这就意味着
etween
▁标准单人间
▁标准双床房
▁第六十五章
公里格拉纳达
加床不需付费
广西师范大学
托雷莫利诺斯
是一部连载于
股票投资组合
距离国王大道
ogether
▁Island
套房酒店是您来
相关负责人表示
pernight
交通事故损害赔偿
被害犹太人纪念碑
计算机科学与技术
房地产开发有限公司
)【
MG
MH
PU
gu
▁偷
▁祝
▁量
一棵
万种
三包
不倦
两台
两把
两用
中转
丹超
书信
云浮
京沪
人鱼
仁净
从无
以最
伤寒
余力
余户
倾力
偏食
停用
偿债
元神
兹拉
养鱼
再新
冲进
冷链
凶险
出奇
出题
刀具
刘建
到乡
匪夷
华文
单从
危难
压痛
厌食
原市
去爱
古拉
向县
周天
和爱
国医
国泰
图兰
在以
场镇
大把
大汉
天宇
奔放
孤僻
守在
安息
定增
定线
实情
富商
就先
就学
尽检
山头
巧唯
已从
巴尼
帮您
年改
往届
往昔
总务
患难
悼念
成指
打打
打赏
扬言
把好
拷贝
按需
挪超
据传
播报
断路
施用
无拘
旧事
时对
昏暗
是先
是分
是同
有氧
朝圣
本轮
来为
来吧
来院
松树
松花
校名
欢声
欣欣
正门
毫安
氪金
法罗
活出
浇灌
淡薄
清冷
温润
点子
烈日
爽口
独处
玄妙
率低
率在
玉树
瓣膜
男爵
登台
的为
的词
盈亏
盘旋
相冲
真武
矢量
矩形
硬的
神像
算上
索道
繁重
经管
结界
给小
缥缈
罗巴
老三
而解
背驰
能不
能被
能静
自小
色古
苗头
苗苗
落马
街坊
评奖
诗篇
谁家
谁说
谷底
豆豉
贝斯
赞德
越早
足部
跑动
路斯
跳蚤
迈入
通通
那片
邵阳
重构
锡吉
队是
防撞
隽逸
雕琢
雨伞
零星
鞍山
顶替
预赛
领证
食客
饥荒
驳回
驻军
骁龙
鸿蒙
麻油
龙凤
MCN
mod
pan
pos
▁OF
▁十八
▁十六
▁好的
▁字数
▁成为
▁我说
▁新增
▁最少
▁正是
▁海外
▁消息
▁玫瑰
▁用法
▁话说
▁课后
一人一
一半的
三十一
上千万
不下去
不够好
不对劲
不是吗
不胜数
与北京
专属的
也难怪
五花八
但依然
但是其
体验馆
使用后
全家人
其中在
决定在
加索尔
努瓦勒
勇敢地
匹马力
反卫星
受制于
可有效
吃水果
后进行
和城市
唯美的
圣家堂
在纽约
在身边
型企业
垩白度
城南门
大灯组
媒体人
它不仅
审稿人
将重点
并最终
座右铭
建设与
影像学
很舒服
总导演
恍然大
我们家
我公司
户人家
才能有
把所有
披露的
掀起了
支原体
方案的
方法来
既不能
是一张
普陀山
月收窄
本菲卡
李熙凝
校园内
档案馆
梁安妮
检尽检
治疗仪
海口市
消失的
湖公园
理念的
用起来
的一处
的一批
的人体
的好友
的小编
的最爱
的案件
的生日
的身高
的配合
的长相
的难题
的高峰
的高效
相反的
神经节
第一张
第一篇
第三排
等学科
细菌的
经常有
缺点是
网约车
置身于
自贸区
致病菌
菲斯塔
行为与
要结合
诺维奇
责任书
超检查
距离乡
辛苦苦
进步的
适当地
通证券
邱淑贞
青年人
高考的
omet
raft
▁Dec
▁Kir
▁Tra
▁备案地
▁旧金山
▁生活中
▁福建省
▁第二次
▁虽然说
▁魁北克
三分之二
上下功夫
不再担任
不能低于
不规则的
业务范围
中国文学
之友协会
也不需要
亚硝酸盐
产品价格
仁净香露
价值观的
任前公示
保护工作
信息共享
信息检索
光荣称号
全面建成
公开遴选
关注一下
协调配合
合并而成
喇嘛千诺
喜怒哀乐
在他们的
场均得分
基本建设
奖获得者
学校教师
寥寥无几
对冲基金
工作目标
工委书记
差不多的
彻底清除
很多同学
成功案例
战略规划
技术推广
抓住机会
拉拳击馆
挺身而出
提供了带
放假时间
教育科研
有太多的
正常工作
民主管理
气候宜人
没有丝毫
深刻影响
相关业务
相关情况
石油化工
砂石路面
研究基地
社会和谐
竭尽全力
管理干部
组织指导
而且还会
荷兰红屋
虽然目前
购房需求
跌至负值
迫切需要
银鸽投资
闭上眼睛
需要我们
韩版修身
ender
▁中国文学
▁第十二条
▁高速公路
一段时间的
与生俱来的
为大家带来
交流与合作
今天我们就
充足的睡眠
全村有农户
公里多伦多
其实并不是
区人民法院
十分重要的
协会副会长
很容易导致
找到自己的
文艺出版社
水稻等作物
潇湘晨报网
热水不太好
的医疗服务
第三十二章
篮球运动员
系统的组成
艺术科学城
莱比锡红牛
讲述了一个
配有迷你吧
▁Enter
▁Vatic
▁现效力球队
努瓦勒埃利耶
北京理工大学
可以说是非常
的密切接触者
莫斯科迪纳摩
革命烈士陵园
第二次世界大战
给大家介绍一下
距离老城区步行
免费局域网等设施
公寓位于斯普利特
共用卫浴间等设施
距离东湄本寺步行
距离大英博物馆步行
遵义市残疾人联合会
,*
DP
fc
ǎo
▁孝
▁封
▁淘
▁燕
▁葛
一女
一提
万圣
上册
下册
不配
与该
丑恶
为界
之靴
事中
交配
亮色
人节
仁慈
以利
企划
但未
作图
倍数
偿付
元至
六朝
养阴
冠王
冲刷
减半
刀剑
分拆
划线
刘学
剩女
劳资
勇往
匪浅
升的
半夏
单薄
卖得
占卜
卡内
古桥
名号
后座
和双
和在
在未
城是
塔下
夏利
外教
大平
好过
如烟
委派
安检
宙斯
宝来
实绩
将向
小国
小张
尔瓦
就为
年金
序言
底座
底板
开窍
异步
强健
心胸
快攻
快活
慈禧
或未
扑救
报业
拍拍
招人
挂靠
挡风
振华
支教
敦促
文博
斑驳
断层
日寇
春的
是位
显胖
暴走
本部
杏花
村域
果蝇
梦见
检定
正版
每条
水运
泡芙
波折
波的
海航
涨到
深水
清军
清心
溪地
灯饰
爱意
牛油
牛瘟
王金
玩转
班上
甘心
疫病
神学
祭奠
离岸
等十
红叶
纯朴
维恩
维艰
缺钙
美梦
美爵
能干
若现
茯茶
茶业
莲娜
菌种
蒂姆
要我
词人
该县
误工
赏金
赖特
赵薇
趴在
跳投
轮机
辣的
追捕
逝者
避世
酸味
采煤
重彩
重担
金丝
铜牌
长着
长靴
防爆
阵雨
阿胶
陈志
陡坡
院级
随队
非议
预审
飞向
飞舞
饭吃
马头
鲜嫩
龋齿
Alp
DPS
ION
Rio
lan
oke
orp
▁CN
▁人体
▁十五
▁导论
▁庄子
▁忘了
▁思念
▁真的
▁笔者
▁解析
▁这张
▁这段
▁遮天
れない
一度的
上升至
下功夫
不放弃
中也有
中成长
为原则
主持的
也让人
也都有
习惯的
五年级
他不是
以下是
价格也
优化了
但如今
决赛圈
凹造型
出一种
出一辙
创纪录
初中的
到之处
到头来
前中期
力娜扎
加快了
十余年
半衰期
印度洋
却依旧
原本是
又来了
史诗级
和未来
和田玉
和运动
品种的
图巴尔
在许多
埋下了
培养和
基础课
大容量
大概在
大萧条
太阳报
子系统
它们在
宗地块
将推出
小印度
小说的
常常是
幸运的
应该要
废弃物
开始后
张义凌
当初的
影片中
性收费
我和你
拉吉里
招商局
拿到的
持续了
播放量
操控性
效力过
教师在
斯巴达
是一辆
是东京
是香港
月生于
有一名
有力地
有气味
有益的
有直接
服务队
未婚妻
本规定
机动性
比上年
氧化碳
洗手间
测量的
深度的
渐行渐
温馨的
照顾好
爆发了
特殊性
球蛋白
用热水
的大好
的尴尬
的样式
的矛盾
的简单
的自由
的运用
程序后
竞技否
第二步
等一批
等特殊
精华液
终于要
经研究
继电器
翻译成
胡尔克
自己被
舒适感
衢州市
被媒体
要经过
要达到
调查中
赚钱的
路缘石
转变成
远方的
退休后
透露了
那以后
部分是
都不太
都很高
金融业
阅读的
陪孩子
预选赛
高技术
麻烦了
Loft
apan
free
ilot
ique
unes
▁Mal
▁Shi
▁sim
▁三十六
▁主客场
▁图书馆
▁大运河
▁柬埔寨
▁第一位
▁第一篇
一个人去
三个阶段
不受影响
中医中药
中国古典
中的重要
为了满足
了解情况
伦理思想
作品出处
保利尼奥
关注的是
具有良好
创作时间
创造条件
前排座椅
势在必行
北京日报
可以快速
同色系的
呼伦贝尔
呼吸系统
喜游国旅
国立大学
在游戏里
大大增加
如果遇到
实验结果
对于这些
工伤保险
已经成了
广大市民
引人注目
引导孩子
形态特征
总台记者
情不自禁
感到非常
感觉不到
我们无法
我是一个
投资建议
提供专业
提高认识
攀枝花市
教材使用
整个造型
最流行的
机械设备
欧冠冠军
此时此刻
每年都有
民国时期
河北大学
流动资金
清洁卫生
物理化学
独自一人
现任中国
甩挂运输
的时候会
科学管理
积极发展
符合条件
第二百五
绩效考核
综合执法
绿色食品
缺一不可
英国政府
菲维之元
行业管理
装饰公司
规划红线
角色扮演
购房合同
车辆行驶
轻型货架
还是十分
这一次的
这一现象
道德讲堂
都市小说
鉴别诊断
霍夫酒店
青春活力
面肌痉挛
首届中国
James
ntown
▁Flor
▁this
▁太阳百货
▁实训提示
▁对手球队
▁浴室很小
▁行政套房
一段时间内
万平方公里
丰富多彩的
事务管理局
人与人之间
仓储笼重量
公里新加坡
具有较强的
发展中国家
和社会发展
商务印书馆
国家公务员
如果出现了
很多人认为
得天独厚的
提升自己的
研究生导师
磨铁中文网
第三十四章
等违法行为
聚集性疫情
道路与桥梁
Taycan
ontact
thepro
▁Heart
▁hotel
▁圣马可广场
▁第六十七章
▁第六十八章
值得关注的是
公里瓦茨大街
刺激性的食物
受到疫情影响
有什么想说的
每日经济新闻
浴室不够理想
统计数据显示
遵义市残疾人
▁位置非常方便
公里马加什教堂
分钟共和国广场
卫生健康委员会
--------
▁Control
党内严重警告处分
网络科技有限公司
集中隔离医学观察
▁Standard
分钟君士坦丁凯旋门
国务院联防联控机制
工作领导小组办公室
▁character
汽车旅馆都为您想到了
距离德里贾玛清真寺打车
BE
Cy
▁军
▁寒
▁纽
▁线
▁软
一姐
一拍
万卷
万古
三岁
上牌
不洁
与道
东街
两支
两组
两间
丹青
之徒
之象
九成
了这
争创
事变
二首
亮了
亲临
亿联
仁德
他乡
代代
以对
众望
会面
你把
佳节
供暖
依偎
停赛
健将
入座
全包
公信
再无
农耕
分了
创世
加压
升任
华商
卖到
原籍
吕梁
君王
吨的
吴忠
周公
周后
味觉
呼喊
和杨
哈尼
响亮
嘈杂
四库
四强
囤积
坪镇
塞克
壮志
外翻
外露
多肽
天祥
奇观
女巫
奶妈
如鱼
嬉戏
存世
季的
导热
小刘
小宝
小手
少华
岳父
巨龙
应先
建功
强效
德高
心安
快慢
怀中
怀有
性侵
悔恨
我先
战斧
打掉
找人
报关
拉拉
拜师
择校
拱桥
挥洒
掏出
推到
操刀
放得
敬明
数一
敲定
整条
无怨
无瑕
日日
春雨
晚霞
景甜
暗藏
最想
朋克
本心
杂念
杂文
村庙
村道
松紧
核弹
桂冠
棘手
止痒
母本
水到
水疱
永嘉
永康
油墨
流离
浅显
涂改
淡黄
烘托
烧香
特写
狡猾
玉兰
生来
生菜
男团
直视
相克
相合
眷顾
确有
礼记
礼金
神采
种地
窝点
站场
筑基
粗略
红土
红衣
细蕊
结缔
罗列
美里
耐药
背锅
能吃
脂质
脸皮
自保
自给
花冠
芳雨
范式
营口
萨瓦
蒂尼
薄片
薯类
虾米
装了
要向
观其
讲讲
诺沃
贬低
贵贱
赢利
走一
赶往
跋涉
车体
转转
达姆
过街
近身
还让
适配
选材
途锐
速算
道孚
遗书
邓义
邓俊
那家
里萨
重合
钉子
钦佩
铃声
铜像
难了
需在
面佛
韵律
韶华
预知
飞飞
馈赠
骨伤
骨肉
高官
高斯
鱿鱼
鲫鱼
黄陂
ACC
ACT
ARM
KOL
PCR
PDD
ago
boy
ift
ope
rod
vis
▁IF
▁er
▁いつ
▁一路
▁专题
▁参证
▁基督
▁宇宙
▁对外
▁探索
▁真正
▁穿越
▁粤语
▁道商
▁道歉
▁道门
▁邓光
一下就
一个叫
一条龙
三年后
上学的
不了了
不会像
不复发
两边的
个省份
中国有
中寻找
也出现
也没能
交响乐
人左右
他们所
体现的
你一定
你以为
信访局
充电器
关注哦
创立于
到什么
加斯特
十字架
博物院
原定于
去世了
又不是
发行于
发起的
另一名
叶剑英
合唱团
同行业
和媒体
和政府
和监督
和重点
品质的
因涉嫌
圣胡安
在这部
堪萨斯
天水围
天通银
奖得主
存储间
学子们
家长和
将更加
少女的
居民的
年业绩
并按照
广告的
库纳克
当时在
很快的
德国杯
心仪的
必须先
思维的
我总是
我来说
戴姆勒
所以对
手上的
把我们
指标的
排在了
推动下
支出的
收益的
教授级
散热器
整理了
日发行
日活动
时需要
是生命
是首尔
曲靖市
有超过
机制的
杀伤力
李女士
村酒店
样式的
欢迎您
欧洲的
正县级
测体温
演变成
演员表
烤瓷牙
现场的
甘情愿
甜甜的
的前脸
的力度
的培训
的夜晚
的妇女
的来源
的病例
的运行
矛盾和
立交桥
等设备
约翰斯
纪念币
组织员
美美的
老龄化
而变化
而自己
股份制
获中国
蒙特雷
蕴含着
血友病
被感染
货物的
还只是
这是对
违背了
连云港
遇罗锦
那不是
郑板桥
郭麒麟
金银花
阿尔克
露头角
青城山
非常快
食用的
饮食中
高高的
odes
omes
▁Wen
▁ant
▁fil
▁学院桥
▁第三位
▁锡耶纳
一起分享
业务能力
中国哲学
也并没有
了很多的
交流平台
亲身经历
人士表示
优秀党员
体系认证
做出来的
全球市场
减肥方法
出乎意料
到底是谁
前世今生
匪夷所思
医疗事故
历史新高
参考用书
及时了解
商业秘密
四川成都
在了一起
场上司职
城市交通
基本资料
境外疫情
天津天海
小的时候
就是没有
尼亚大学
已经成功
市委党校
开启大招
开除党籍
很有意思
恍然大悟
投资价值
拼多多的
排名第三
控制技能
提供更多
搭配一件
搭配起来
教学大纲
是典型的
是正确的
森林火灾
正确认识
每个孩子
注意到了
电力公司
的主人公
监管工作
直播卖货
相关内容
石油储备
科技项目
管控措施
系副主任
系副教授
自我隔离
茅台机场
距镇政府
这个道理
这些事情
这种东西
重大影响
铁路道口
锦上添花
降幅收窄
随着时间
顺利开展
light
▁参证章旨
▁手提电脑
▁第三百一
▁第二百四
▁第十五条
▁责任编辑
▁选育单位
▁里亚托桥
主要农作物
今天小编就
公里渔人堡
公里链子桥
内分泌系统
农作物品种
可实现任意
四缸发动机
实验室检查
库纳克钟楼
最好的医院
比对照增产
永远的君主
消费者权益
消费者来说
第三十六章
计算机专业
计算机辅助
距离玛利恩
还是很大的
这个世界上
高级经济师
isting
▁elect
▁卫生非常好
▁大运河夕阳
▁第六十六章
人身损害赔偿
区国家税务局
宣传教育活动
抗日战争时期
救助基金管理
爱国主义教育
菩提树下大街
▁威尼斯公爵宫
▁威尼斯叹息桥
▁威尼斯总督府
▁安康圣母教堂
消费品零售总额
距离红灯区打车
酒店位于芭堤雅
酒店位于莫斯科
▁Process
农民人均纯收入由
法律法规或监管机构
社会主义核心价值观
距离爱丁堡城堡步行
距离翁贝托长廊步行
▁威尼斯圣马可大教堂
岁以下的儿童一张加床
theproperty
别墅酒店通过提供优质贴心的服务和
+-
Ta
lc
▁乡
▁优
▁延
▁补
▁辆
▁阮
ろう
一节
下入
下同
不按
不温
与白
丛中
中联
之火
也向
也常
二叉
亏钱
云霄
亚湾
产学
京广
他了
他州
仙界
仰光
任用
伊布
伊犁
佐助
体表
你都
便当
催生
党群
入微
全免
公婆
其乐
其然
军在
军政
几近
分和
利黑
刻字
加薪
勤学
包揽
博得
卫报
吐鲁
和陈
哎呀
喜事
喝的
器乐
四柱
四门
在想
地黄
坡头
塑形
天坛
天安
女式
她想
如云
嫩塞
子镇
它为
安镇
宗法
家轿
尊崇
小桥
尖塔
尽其
层高
屏峰
巫术
帝豪
带我
年因
年夏
幻影
开庭
开战
开挂
弗利
当众
彭博
志成
忧患
怀柔
性温
懵了
戏骨
手撕
才对
执笔
报应
披着
拆解
挂机
挚爱
掌上
探望
推翻
提质
收容
改了
敢说
新任
无家
无级
明艳
星人
晾干
晾晒
暂未
曲子
更应
最常
有理
本院
朱家
机上
林县
林寺
步履
武神
母猪
比值
水润
汉中
海内
消遣
深爱
溪村
灵山
爆表
父女
牵涉
现居
白肉
皮裤
省时
看官
睡了
研报
私信
竞相
笔触
纳亚
绵羊
绸缪
罪行
羲之
翻转
耐寒
耐热
肛泰
肛裂
能对
腰膝
英大
董里
蓄积
融汇
行医
要低
警备
讲坛
评说
该股
谐音
谢贤
费劲
起拍
超薄
跳楼
输注
辽篮
进站
通络
道北
酒楼
酸钠
里路
野猪
阜新
队列
难逃
集料
雪球
韩寒
顶点
风尘
飘窗
飞升
飞龙
马蓉
魂魄
鸟语
鸵鸟
龙光
龙卷
ABC
KRW
che
ids
tel
ump
”)。
”。(
▁Je
▁VS
▁买房
▁哈弗
▁总阐
▁担任
▁校对
▁死亡
▁涉外
▁突破
▁精神
▁考试
▁运营
▁邓元
三年来
三轮车
下一站
下调了
不下的
不仅让
不利的
不平凡
为了能
乌托邦
买房的
亿美金
企业对
休闲鞋
位英雄
低油价
作用和
你永远
你还在
供应量
倒不如
兑美元
公司于
内巴切
再配上
写出了
创新性
刷新率
副队长
匹配的
卓越的
却有着
去参加
参同契
参议院
另一面
可促进
周末年
和生态
哈里斯
喜闻乐
土库曼
在运动
在近日
复课后
多说了
天地间
她还是
尊重和
就完全
就是将
希望她
年前后
年后的
并且是
应聘者
弗勒尔
强化了
当其冲
得其反
态度和
性胃炎
恩波利
成分的
成本和
戴安娜
打击乐
托纳利
把一个
持续到
掌握的
排卵期
接近于
提供更
政工师
斯拉夫
方向键
无意间
日内瓦
晋城市
更不是
更有效
最令人
有好的
本土化
来获得
格酒店
检测仪
樊振东
欧标箱
消息网
热处理
爱不释
生物的
用户在
用手指
的人的
的危机
的口碑
的好看
的打法
的春天
的神奇
的种子
的贷款
目标看
磐石舰
示范园
科林斯
第一集
第二场
类资产
紧身裤
组织对
组织者
经费的
而他们
股本的
股票的
脱离了
自己会
蒙恬的
被录取
走的是
转向灯
软组织
过一个
过日子
运用的
还要求
这两人
金巧巧
铜川市
长久的
非对称
靠谱的
顺利地
顽强的
颁布的
飞机上
高精度
astr
cell
duct
gori
ough
▁Lee
▁par
▁气味重
▁深圳市
▁詹姆斯
▁这时候
▁道德与
一体化的
下降趋势
两家公司
中华书局
中央财政
义无反顾
也不一定
产品设计
产品销售
人际交往
他们就会
侵权行为
俄罗斯的
保守治疗
信息采集
克拉玛依
公告显示
公里皇家
关于调整
关机时间
分析化学
分钟自由
利黑沙滩
制作工艺
副大队长
北京地区
千篇一律
厘米左右
口自然村
场均得到
型糖尿病
基地建设
多囊卵巢
天地万物
如出一辙
如愿以偿
实用新型
对应两个
就让我们
山林面积
市财政局
幸福到家
开启预售
心理疏导
必须具备
才是真正
才能完成
技能培训
投资理财
控制效果
教学能手
文件浏览
时要注意
最低水平
最新一期
有条件的
植物保护
比较明显
毕业生的
水土流失
没有关系
特别是对
生活垃圾
生物学家
电子设备
石油公司
社会道德
神经外科
神经纤维
积极争取
突然发现
第二作者
第二百七
系列活动
结婚生子
维尔茨堡
能够成为
膳食公寓
节省电量
苦不堪言
营销渠道
表现出色
评价标准
调查处理
质量保证
近些年来
还是选择
这个技能
这个项目
进行评估
适得其反
适用法律
都不陌生
配音演员
青训补偿
马丁内斯
Doinb
ommod
▁Hist
▁出场时间
不为人知的
主要农产品
也越来越多
什么样的人
儿童俱乐部
元小型套房
公里城堡山
具有丰富的
删除等功能
办事处主任
助理工程师
呈现出来的
建立和完善
强大的资料
海景双人间
生物多样性
的注意事项
经营许可证
结核病防治
职业生涯的
详细介绍了
随时随地的
高级三人间
ensing
riting
▁Flats
专业技术职务
国务院办公厅
我们可以看出
教育行政部门
滨湖尼亚加拉
管理有限公司
陕西师范大学
音乐之友协会
▁贵州省遵义县
先进基层党组织
存储间文件浏览
对应两个繁体字
距离艺术科学城
强大的资料管理器
提供了三卧室别墅
struction
▁道路危险货物运输
城镇居民基本医疗保险
楚国苦县厉乡曲仁里人
音乐之友协会金色大厅
人民代表大会常务委员会
可实现任意存储间文件浏览
归属于上市公司股东的净利润
精品酒店一直致力于为广大顾客
)×
GE
To
ZL
”《
▁事
▁季
▁昂
▁球
▁私
▁笑
▁谷
▁面
える
んだ
ンス
一排
一鸣
世茂
两处
中子
久诚
乘机
也像
五言
产期
今朝
从新
伯雷
位上
体魄
作的
佩蒂
佩门
做菜
做错
催促
养活
内痔
再添
冷库
凋零
刚从
判别
到过
加紧
劲松
升职
双杀
取经
口乡
可乘
可做
台媒
合浦
同质
名流
后场
后继
呼啸
囊中
四卷
四条
四起
回笼
埋线
基奇
塔古
外丹
多病
天高
头枕
套用
如玉
姑苏
威望
威特
婚房
字眼
学徒
学界
学龄
宗元
家教
富美
导语
尔米
就又
屋檐
州县
差阳
布克
师表
干果
并没
幻化
广度
床间
庞贝
建都
弦乐
弯弯
弹射
御姐
必读
怒了
愈演
感同
成群
戒酒
所幸
手头
抽搐
拉迪
指针
捡到
掺杂
摇身
收涨
收货
斑秃
斜挎
斯林
施策
日与
日蛛
昌吉
更迭
本钱
村长
标榜
校花
梅森
横穿
武陵
每刻
比作
比拉
水煮
永兴
求医
沉郁
沙门
洞宾
海啸
润燥
渊明
满堂
濂溪
炒至
热能
爱岗
牙科
狼行
的恶
盖子
省略
短时
积食
立平
笨拙
等各
籽粒
粗细
紧缩
红烧
结伴
络绎
群落
而动
耐人
耐候
胶带
脚尖
腿上
自作
自办
芦笋
花式
芳草
莱卡
菲勒
葵花
蒋欣
蝉意
补上
西式
要害
订正
请了
调子
谜题
谢绝
谨记
豪生
豫园
赏罚
超然
跑的
身躯
转头
较深
这会
这幅
逐级
道统
避让
邓以
邓健
邛崃
那颗
野菜
量力
钢轨
问诊
防寒
阿曼
陈晓
陵墓
飘扬
飞来
首套
马列
驻桥
高台
高远
鱼儿
鲁豫
鹧鸪
黑料
FPS
GLB
ITM
Ind
Lin
Pal
SQL
bao
iab
iko
ska
▁CM
▁FL
▁上图
▁书法
▁分钟
▁前锋
▁化妆
▁华东
▁团队
▁培训
▁天空
▁女儿
▁巴尔
▁当日
▁梗概
▁费城
▁通知
▁遗弃
▁重新
▁高压
下发了
不可取
不完善
不彻底
不知情
与传播
与妻子
中世纪
习惯于
五年的
交给了
交货的
人间的
他不仅
他知道
以下几
会议的
但也是
信益舒
做的是
公司总
再接再
写下了
冠军的
利斯卡
到北京
前男友
医学与
十字星
双方都
和交流
和数据
在上级
在遵义
地面的
女子的
如来藏
定名为
实现对
对学校
小分子
小时图
小细节
居住证
已经不
已经将
巴巴拉
并不少
应尽量
念珠菌
恢复的
愈演愈
感人的
我以前
房产税
所有者
承受着
技术等
投资客
担任了
按计划
授予的
排名中
接收器
政策性
教学法
斯基宫
新经济
方法及
是出于
是华欣
是如此
是时候
最先进
月加入
有不同
有人会
有各种
有机肥
朝阳市
本辖区
比之前
淮南子
漳州市
灵魂的
烊千玺
热力学
王健林
球队在
生水起
用筷子
百老汇
的三分
的中场
的例子
的分泌
的蔬菜
监管者
真实地
真的要
第二款
等各项
等环节
经常吃
维尔德
老老实
职工的
肯定和
补充说
覆盖面
让对方
软硬件
过渡到
还经常
这两者
逆周期
选手的
通过与
遮瑕膏
都不好
配得上
革命军
amin
edia
ette
otes
ship
vest
▁Bro
▁Fin
▁May
▁min
▁据美国
▁玻璃岛
▁苏黎世
一般采用
不经意间
专业从事
世界顶级
中的角色
丰胸产品
也会影响
也有利于
人参皂苷
仅仅只是
优势互补
优惠活动
促销活动
信息发布
元家庭房
克里斯托
全力打造
出来之后
北京青年
区委常委
医院就诊
历史最佳
参与其中
发展迅速
吃什么药
吉利汽车
启动仪式
国家规定
在实践中
多种天然
大型企业
如果可以
宏观政策
实地考察
实证研究
客人在安
家庭生活
就业形势
展现出来
很多企业
很多粉丝
思维能力
截至发稿
所以如果
技术力量
文体广电
是一部由
有效预防
歌词同步
正在接受
毫不夸张
消防工作
物流台车
特拉福德
特聘教授
的大多数
的第一天
的问题是
皮肤瘙痒
监督分类
社会秩序
神经细胞
科学学院
第三百一
第二百九
等部门要
经济条件
经过多年
综合来看
美国加州
老市政厅
脱贫致富
腾讯视频
艺术作品
蝉意集市
行动方案
[...]
