{"<unk>": 0, "<s>": 1, "</s>": 2, "<0x00>": 3, "<0x01>": 4, "<0x02>": 5, "<0x03>": 6, "<0x04>": 7, "<0x05>": 8, "<0x06>": 9, "<0x07>": 10, "<0x08>": 11, "<0x09>": 12, "<0x0A>": 13, "<0x0B>": 14, "<0x0C>": 15, "<0x0D>": 16, "<0x0E>": 17, "<0x0F>": 18, "<0x10>": 19, "<0x11>": 20, "<0x12>": 21, "<0x13>": 22, "<0x14>": 23, "<0x15>": 24, "<0x16>": 25, "<0x17>": 26, "<0x18>": 27, "<0x19>": 28, "<0x1A>": 29, "<0x1B>": 30, "<0x1C>": 31, "<0x1D>": 32, "<0x1E>": 33, "<0x1F>": 34, "<0x20>": 35, "<0x21>": 36, "<0x22>": 37, "<0x23>": 38, "<0x24>": 39, "<0x25>": 40, "<0x26>": 41, "<0x27>": 42, "<0x28>": 43, "<0x29>": 44, "<0x2A>": 45, "<0x2B>": 46, "<0x2C>": 47, "<0x2D>": 48, "<0x2E>": 49, "<0x2F>": 50, "<0x30>": 51, "<0x31>": 52, "<0x32>": 53, "<0x33>": 54, "<0x34>": 55, "<0x35>": 56, "<0x36>": 57, "<0x37>": 58, "<0x38>": 59, "<0x39>": 60, "<0x3A>": 61, "<0x3B>": 62, "<0x3C>": 63, "<0x3D>": 64, "<0x3E>": 65, "<0x3F>": 66, "<0x40>": 67, "<0x41>": 68, "<0x42>": 69, "<0x43>": 70, "<0x44>": 71, "<0x45>": 72, "<0x46>": 73, "<0x47>": 74, "<0x48>": 75, "<0x49>": 76, "<0x4A>": 77, "<0x4B>": 78, "<0x4C>": 79, "<0x4D>": 80, "<0x4E>": 81, "<0x4F>": 82, "<0x50>": 83, "<0x51>": 84, "<0x52>": 85, "<0x53>": 86, "<0x54>": 87, "<0x55>": 88, "<0x56>": 89, "<0x57>": 90, "<0x58>": 91, "<0x59>": 92, "<0x5A>": 93, "<0x5B>": 94, "<0x5C>": 95, "<0x5D>": 96, "<0x5E>": 97, "<0x5F>": 98, "<0x60>": 99, "<0x61>": 100, "<0x62>": 101, "<0x63>": 102, "<0x64>": 103, "<0x65>": 104, "<0x66>": 105, "<0x67>": 106, "<0x68>": 107, "<0x69>": 108, "<0x6A>": 109, "<0x6B>": 110, "<0x6C>": 111, "<0x6D>": 112, "<0x6E>": 113, "<0x6F>": 114, "<0x70>": 115, "<0x71>": 116, "<0x72>": 117, "<0x73>": 118, "<0x74>": 119, "<0x75>": 120, "<0x76>": 121, "<0x77>": 122, "<0x78>": 123, "<0x79>": 124, "<0x7A>": 125, "<0x7B>": 126, "<0x7C>": 127, "<0x7D>": 128, "<0x7E>": 129, "<0x7F>": 130, "<0x80>": 131, "<0x81>": 132, "<0x82>": 133, "<0x83>": 134, "<0x84>": 135, "<0x85>": 136, "<0x86>": 137, "<0x87>": 138, "<0x88>": 139, "<0x89>": 140, "<0x8A>": 141, "<0x8B>": 142, "<0x8C>": 143, "<0x8D>": 144, "<0x8E>": 145, "<0x8F>": 146, "<0x90>": 147, "<0x91>": 148, "<0x92>": 149, "<0x93>": 150, "<0x94>": 151, "<0x95>": 152, "<0x96>": 153, "<0x97>": 154, "<0x98>": 155, "<0x99>": 156, "<0x9A>": 157, "<0x9B>": 158, "<0x9C>": 159, "<0x9D>": 160, "<0x9E>": 161, "<0x9F>": 162, "<0xA0>": 163, "<0xA1>": 164, "<0xA2>": 165, "<0xA3>": 166, "<0xA4>": 167, "<0xA5>": 168, "<0xA6>": 169, "<0xA7>": 170, "<0xA8>": 171, "<0xA9>": 172, "<0xAA>": 173, "<0xAB>": 174, "<0xAC>": 175, "<0xAD>": 176, "<0xAE>": 177, "<0xAF>": 178, "<0xB0>": 179, "<0xB1>": 180, "<0xB2>": 181, "<0xB3>": 182, "<0xB4>": 183, "<0xB5>": 184, "<0xB6>": 185, "<0xB7>": 186, "<0xB8>": 187, "<0xB9>": 188, "<0xBA>": 189, "<0xBB>": 190, "<0xBC>": 191, "<0xBD>": 192, "<0xBE>": 193, "<0xBF>": 194, "<0xC0>": 195, "<0xC1>": 196, "<0xC2>": 197, "<0xC3>": 198, "<0xC4>": 199, "<0xC5>": 200, "<0xC6>": 201, "<0xC7>": 202, "<0xC8>": 203, "<0xC9>": 204, "<0xCA>": 205, "<0xCB>": 206, "<0xCC>": 207, "<0xCD>": 208, "<0xCE>": 209, "<0xCF>": 210, "<0xD0>": 211, "<0xD1>": 212, "<0xD2>": 213, "<0xD3>": 214, "<0xD4>": 215, "<0xD5>": 216, "<0xD6>": 217, "<0xD7>": 218, "<0xD8>": 219, "<0xD9>": 220, "<0xDA>": 221, "<0xDB>": 222, "<0xDC>": 223, "<0xDD>": 224, "<0xDE>": 225, "<0xDF>": 226, "<0xE0>": 227, "<0xE1>": 228, "<0xE2>": 229, "<0xE3>": 230, "<0xE4>": 231, "<0xE5>": 232, "<0xE6>": 233, "<0xE7>": 234, "<0xE8>": 235, "<0xE9>": 236, "<0xEA>": 237, "<0xEB>": 238, "<0xEC>": 239, "<0xED>": 240, "<0xEE>": 241, "<0xEF>": 242, "<0xF0>": 243, "<0xF1>": 244, "<0xF2>": 245, "<0xF3>": 246, "<0xF4>": 247, "<0xF5>": 248, "<0xF6>": 249, "<0xF7>": 250, "<0xF8>": 251, "<0xF9>": 252, "<0xFA>": 253, "<0xFB>": 254, "<0xFC>": 255, "<0xFD>": 256, "<0xFE>": 257, "<0xFF>": 258, "\u2581t": 259, "in": 260, "er": 261, "\u2581a": 262, "on": 263, "re": 264, "he": 265, "at": 266, "or": 267, "st": 268, "en": 269, "\\\"": 270, "\u2581c": 271, "\u2581the": 272, "it": 273, "le": 274, "\u2581s": 275, "an": 276, "al": 277, "ar": 278, "ou": 279, "is": 280, "\u2581f": 281, "\u2581p": 282, "\u2581w": 283, "es": 284, "ing": 285, "ion": 286, "ed": 287, "\u2581b": 288, "ic": 289, "\u2581o": 290, "nd": 291, "\u2581d": 292, "\u2581m": 293, "ro": 294, "et": 295, ";\\": 296, "\u2581in": 297, "as": 298, "ct": 299, "ent": 300, "\u2581to": 301, "el": 302, "\u2581of": 303, "am": 304, "om": 305, "--": 306, "\u2581and": 307, "\u2581=": 308, "\u2581n": 309, "\u2581re": 310, "\u2581h": 311, "\u2581th": 312, "il": 313, "id": 314, "im": 315, "lo": 316, "ut": 317, "ac": 318, "se": 319, "\u2581e": 320, "ur": 321, "\u2581S": 322, "ad": 323, "\u2581(": 324, ".\\": 325, "ol": 326, "\u2581T": 327, "ig": 328, ")\\": 329, "ot": 330, "\u2581I": 331, ");\\": 332, "iv": 333, "\u2581g": 334, "od": 335, "\u2581{": 336, "\u2581C": 337, "if": 338, "ation": 339, "us": 340, "\u2581A": 341, "\u2581l": 342, "ag": 343, "\u2581\\\"": 344, "\u2581is": 345, "ate": 346, "ul": 347, "ay": 348, "un": 349, "ue": 350, "\u2581st": 351, "\u2581for": 352, "}\\": 353, "ce": 354, "//": 355, "ch": 356, "th": 357, "\u2581v": 358, "em": 359, "\u2581y": 360, "\u2581{\\": 361, "ers": 362, ",\\": 363, "ame": 364, "**": 365, "pe": 366, "ab": 367, "\\\\": 368, "ith": 369, "\u2581be": 370, "\u2581on": 371, "um": 372, "\u2581<": 373, "ly": 374, "ow": 375, "ist": 376, "----": 377, "\u2581*": 378, "ort": 379, "ap": 380, "\u2581P": 381, "\u2581M": 382, "ex": 383, "\u2581con": 384, "ter": 385, "ir": 386, "our": 387, ">\\": 388, "av": 389, "ew": 390, "tr": 391, "ub": 392, "ht": 393, "ver": 394, "pt": 395, "\u2581B": 396, "ass": 397, "\u2581that": 398, "\u2581'": 399, "res": 400, "ction": 401, "\u2581de": 402, "\u2581as": 403, "\u2581with": 404, "\u2581D": 405, "port": 406, "\u2581it": 407, "\u2581pro": 408, "\u2581R": 409, "end": 410, "out": 411, "and": 412, "nt": 413, "ment": 414, "\u2581F": 415, "ess": 416, "op": 417, "ke": 418, "\u2581al": 419, "ain": 420, "est": 421, "=\\\"": 422, "\u2581r": 423, "\u2581L": 424, "==": 425, "age": 426, "up": 427, "ri": 428, "\u2581an": 429, "qu": 430, "\u2581wh": 431, "\u2581W": 432, "\u2581$": 433, "rom": 434, "\u2581-": 435, "urn": 436, "()": 437, "ect": 438, "\u2581ex": 439, "\u2581this": 440, "\u2581}\\": 441, "\u2581H": 442, "os": 443, "\u2581com": 444, "ore": 445, "ile": 446, "\u2581N": 447, "pl": 448, "\u2581E": 449, "com": 450, ":\\": 451, "art": 452, "\u2581or": 453, "ere": 454, "\u2581you": 455, "oc": 456, "iz": 457, "ity": 458, "con": 459, "ack": 460, "ill": 461, "lass": 462, "turn": 463, "\u2581G": 464, "able": 465, "\u2581\\": 466, "int": 467, "ine": 468, "\u2581The": 469, "\u2581are": 470, "\u2581if": 471, "ld": 472, "ight": 473, "get": 474, "\u2581O": 475, "\u2581lo": 476, "ant": 477, "ata": 478, "ult": 479, "..": 480, "\u2581at": 481, "ure": 482, "\u2581tr": 483, "ext": 484, "ive": 485, "de": 486, "\u2581[": 487, "\u2581se": 488, "</": 489, "##": 490, "\u2581from": 491, "lic": 492, "orm": 493, "\u2581he": 494, "ies": 495, "act": 496, "ind": 497, "ang": 498, "\u2581le": 499, "per": 500, "ave": 501, "all": 502, "--------": 503, "ype": 504, "\u2581by": 505, "\u2581ch": 506, "ust": 507, "\u2581not": 508, "\u2581was": 509, "ib": 510, "ial": 511, "ode": 512, "ase": 513, "import": 514, "ff": 515, "ip": 516, "ast": 517, "ok": 518, "::": 519, "->": 520, "\u2581we": 521, "__": 522, "elf": 523, "\u2581j": 524, "are": 525, "\\\",": 526, "ice": 527, "ost": 528, "\u2581sh": 529, "ve": 530, "ire": 531, "ard": 532, "cl": 533, "\u2581return": 534, "rou": 535, "tp": 536, "name": 537, "ption": 538, "ime": 539, "str": 540, "(\\\"": 541, "ck": 542, "****": 543, "ath": 544, "\u2581u": 545, "\u2581}": 546, "\u2581us": 547, "ser": 548, "ord": 549, "\u2581|": 550, "\u2581U": 551, "ple": 552, "\u2581can": 553, "\u2581//": 554, "\u2581class": 555, "ace": 556, "ans": 557, "In": 558, "nT": 559, "ide": 560, "ould": 561, "ork": 562, "ublic": 563, "to": 564, "ject": 565, "\u2581have": 566, "ak": 567, "one": 568, "\u2581new": 569, "\u2581+": 570, "ont": 571, "\u2581J": 572, "pro": 573, "('": 574, "sp": 575, "ud": 576, "\u2581k": 577, "ated": 578, "que": 579, "form": 580, "\u2581@": 581, "ail": 582, "put": 583, "ite": 584, "\u2581:": 585, "alue": 586, "ign": 587, "te": 588, "',": 589, "ber": 590, "iss": 591, "ell": 592, "ary": 593, "\\\"\\": 594, "Re": 595, "cc": 596, ").": 597, "\u2581pl": 598, "====": 599, "ize": 600, "\u2581do": 601, "\u2581your": 602, "\u2581ad": 603, "ance": 604, "ition": 605, "ong": 606, "ss": 607, "\u2581ab": 608, "\u2581pr": 609, "ory": 610, "\u2581V": 611, "nimport": 612, "\u2581Th": 613, "ome": 614, "\u2581en": 615, "();\\": 616, "St": 617, "ild": 618, "\u2581In": 619, "\u2581/": 620, "du": 621, "iew": 622, "ll": 623, "low": 624, "ge": 625, "\u2581str": 626, "so": 627, "\u2581will": 628, "og": 629, "\u2581get": 630, "err": 631, "\u2581#": 632, "unction": 633, "ull": 634, "set": 635, "hen": 636, "\u2581un": 637, "ich": 638, "ress": 639, "ef": 640, "ear": 641, "ach": 642, "ens": 643, "ia": 644, "\u2581ap": 645, "\u2581cont": 646, "\u2581&": 647, "\u2581.": 648, "\u2581ar": 649, "ence": 650, "ations": 651, "div": 652, "li": 653, "ally": 654, "ake": 655, "aram": 656, "ug": 657, "user": 658, "\\\":": 659, "\u2581res": 660, "\u2581K": 661, "``": 662, "row": 663, "ount": 664, "cri": 665, "tring": 666, "\u2581out": 667, "),": 668, "fer": 669, "\u2581up": 670, "ep": 671, "{\\": 672, "ents": 673, "\u2581has": 674, "\u2581but": 675, "ther": 676, "\u2581ne": 677, "\u2581public": 678, "pon": 679, "\u2581im": 680, "ink": 681, "\u2581all": 682, "ft": 683, "ie": 684, "\u2581go": 685, "ER": 686, "nA": 687, "\u2581\\\\": 688, "log": 689, "les": 690, "quest": 691, "\u2581me": 692, "://": 693, "ob": 694, "\u2581def": 695, "\\\">": 696, "/\\": 697, "erv": 698, "cre": 699, "\u2581self": 700, "sh": 701, "\u2581`": 702, "aw": 703, "own": 704, "gh": 705, "ous": 706, "\u2581so": 707, "ax": 708, "IN": 709, "\u2581i": 710, "odel": 711, "ov": 712, "ree": 713, "pr": 714, "ery": 715, "gr": 716, "che": 717, "\u2581St": 718, "ON": 719, "fig": 720, "oid": 721, "ne": 722, "\u2581=>": 723, "yst": 724, "Ex": 725, "ound": 726, "app": 727, "\u2581bo": 728, "ors": 729, "\u2581</": 730, "eth": 731, "nc": 732, "vent": 733, "ical": 734, "]\\": 735, "ry": 736, "bo": 737, "\u2581int": 738, "\u2581which": 739, "\u2581set": 740, "\u2581one": 741, "ings": 742, "lect": 743, "----------------": 744, "ions": 745, "ark": 746, "this": 747, "ener": 748, "ph": 749, "\u2581Y": 750, "ec": 751, "io": 752, "Pro": 753, "\u2581per": 754, "\u2581more": 755, "Name": 756, "\u516c\u53f8": 757, "\u2581dis": 758, "key": 759, "iel": 760, "ix": 761, "nThe": 762, "http": 763, "\u2581*/\\": 764, "\u2581pre": 765, "\u2581work": 766, "led": 767, "vel": 768, "\u2581my": 769, "\u2581function": 770, "\u2581their": 771, "enc": 772, "()\\": 773, "rr": 774, "we": 775, "ert": 776, "********": 777, "\u2581col": 778, "atch": 779, "use": 780, "ng": 781, "ystem": 782, "\u2581they": 783, "pec": 784, "ES": 785, "her": 786, "ms": 787, "ty": 788, "\\\",\\": 789, "\u2581time": 790, "oint": 791, "\u2581Ch": 792, "self": 793, "ield": 794, "nder": 795, "ict": 796, "add": 797, "\u2581==": 798, "\u2581el": 799, "data": 800, "\u4e00\u4e2a": 801, "Id": 802, "old": 803, "irst": 804, "uild": 805, "\u2581des": 806, "pect": 807, "\u2581const": 808, "\u2581inter": 809, "\u2581name": 810, "Con": 811, "atic": 812, "\u2581man": 813, "ange": 814, "pos": 815, "arg": 816, "\u2581_": 817, "val": 818, "return": 819, "ick": 820, "\u2581his": 821, "cont": 822, "\u2581li": 823, "ish": 824, "\u2581about": 825, "\u2581add": 826, "ual": 827, "Cont": 828, "\u2581data": 829, "issue": 830, "ays": 831, "\u2581any": 832, "\u2581also": 833, "\\\">\\": 834, "nS": 835, "fo": 836, "\u2581var": 837, "ource": 838, "ator": 839, "\u2581use": 840, "\u2581part": 841, "\u2581Re": 842, "\u2581su": 843, "\u2581qu": 844, "cess": 845, "\u2581>": 846, "\u2581It": 847, "ca": 848, "bject": 849, "username": 850, "Type": 851, "))": 852, "\u2581who": 853, "roup": 854, "ates": 855, "ely": 856, "\u2581ro": 857, "ific": 858, "\u2581cre": 859, "min": 860, "nI": 861, "\u2581!": 862, "####": 863, "\u2581when": 864, "\u6211\u4eec": 865, "String": 866, "alse": 867, "ude": 868, "\u2581comm": 869, "ock": 870, "AT": 871, "rit": 872, "\u5de5\u4f5c": 873, "\u2581other": 874, "\u2581over": 875, "ater": 876, "\u53ef\u4ee5": 877, "nC": 878, "ian": 879, "OR": 880, "urre": 881, "read": 882, "\u2581sp": 883, "co": 884, "ml": 885, "ble": 886, "\u2581ag": 887, ".\\\"": 888, "\u2581comp": 889, "\u2581te": 890, "umber": 891, "file": 892, "\u2581x": 893, "\u4e2d\u56fd": 894, "son": 895, "itle": 896, "AR": 897, "EN": 898, "eng": 899, "\u2581end": 900, "ra": 901, "view": 902, "========": 903, "ts": 904, "inal": 905, "\u2581This": 906, "\u2581file": 907, "ose": 908, "\u2581were": 909, "\u2581our": 910, "\u2581there": 911, "cal": 912, "fter": 913, "ref": 914, "uct": 915, "ton": 916, "ault": 917, "dd": 918, "essage": 919, "ivate": 920, "\u2581sup": 921, "\u2581some": 922, "uth": 923, "ys": 924, "param": 925, "ample": 926, "col": 927, "ise": 928, "):\\": 929, "ning": 930, "ool": 931, "](": 932, "nf": 933, "ank": 934, "Res": 935, "ns": 936, "List": 937, "ash": 938, "><": 939, "lock": 940, "be": 941, "\u2581err": 942, "line": 943, "////": 944, "ues": 945, "ages": 946, "type": 947, "round": 948, "']": 949, "ersion": 950, "abel": 951, "',\\": 952, "ID": 953, "ense": 954, "quire": 955, "\u2581import": 956, "['": 957, "wo": 958, "\u2581--": 959, "\u2581value": 960, "\u2581id": 961, "\u2581would": 962, "\u2581test": 963, "ove": 964, "comment": 965, "\u2581no": 966, "https": 967, "\u4fe1\u606f": 968, "\u2581been": 969, "\u2581kn": 970, "IT": 971, "ating": 972, "ied": 973, "ames": 974, "ST": 975, "\u2581em": 976, "ade": 977, "clude": 978, "\u2581need": 979, "plic": 980, "Com": 981, "\u2581like": 982, "date": 983, "\u2581void": 984, "\u2581them": 985, "load": 986, "ethod": 987, "td": 988, "nW": 989, "ments": 990, "\u2581fe": 991, "\u2581else": 992, "ception": 993, "ache": 994, "rap": 995, "ics": 996, "\u2581sa": 997, "**\\": 998, "igh": 999, "anc": 1000, "\u2581year": 1001, "\u2581type": 1002, "tif": 1003, "ven": 1004, "ccess": 1005, "\u2581under": 1006, "AM": 1007, "urrent": 1008, "\u2581her": 1009, "\u2581had": 1010, "\u2581pos": 1011, "\u2581am": 1012, "\u2581into": 1013, "ative": 1014, "br": 1015, "ask": 1016, "\u2581val": 1017, "ger": 1018, "ient": 1019, "der": 1020, "\u2581first": 1021, "duct": 1022, "arch": 1023, "Data": 1024, "($": 1025, "\u2581Pro": 1026, "\u2581just": 1027, "))\\": 1028, "\u2581co": 1029, "ann": 1030, "ument": 1031, "nB": 1032, "ervice": 1033, "ps": 1034, "work": 1035, "fr": 1036, "RE": 1037, "tem": 1038, "AL": 1039, "\u2581off": 1040, "\u65f6\u95f4": 1041, "\u2581pe": 1042, "\u2581inst": 1043, "\u2581We": 1044, "\\\");\\": 1045, "ices": 1046, "ars": 1047, "\u2581op": 1048, "ute": 1049, "def": 1050, "comm": 1051, "\u2581null": 1052, "als": 1053, "test": 1054, "\u2581true": 1055, "\u2581what": 1056, "),\\": 1057, "\u2581act": 1058, "\u2581may": 1059, "\u2581form": 1060, "\u2581result": 1061, "\u2581only": 1062, "ader": 1063, "`\\": 1064, "cript": 1065, "tern": 1066, "\u2581\u201c": 1067, "span": 1068, "\u2581bet": 1069, "?\\": 1070, "text": 1071, "px": 1072, "\u2581Q": 1073, "\u2581back": 1074, "\u2581sub": 1075, "vid": 1076, "\u2581its": 1077, "irect": 1078, "nD": 1079, "(\\": 1080, "LE": 1081, "SE": 1082, "\u2581reg": 1083, "its": 1084, "Ch": 1085, "));\\": 1086, "atus": 1087, "\u2581how": 1088, "\u2581rec": 1089, "\u2581Com": 1090, "ting": 1091, "\u2581should": 1092, "\u4f01\u4e1a": 1093, "ule": 1094, "\u2581string": 1095, "\u2581He": 1096, "very": 1097, "\u6ca1\u6709": 1098, "\u2581trans": 1099, "\u2581spec": 1100, "ious": 1101, "\u2581dif": 1102, "ible": 1103, "\u2581cl": 1104, "ful": 1105, "lp": 1106, "treturn": 1107, "ures": 1108, "yp": 1109, "string": 1110, "sum": 1111, "code": 1112, "\u81ea\u5df1": 1113, "ollow": 1114, "Tr": 1115, "\u2581list": 1116, "pp": 1117, "size": 1118, "\u2581,": 1119, "ma": 1120, "ava": 1121, "ttp": 1122, "yle": 1123, "ner": 1124, "'\\": 1125, "sert": 1126, "\u2581than": 1127, "but": 1128, "hat": 1129, "ray": 1130, "ons": 1131, "heck": 1132, "nP": 1133, "ody": 1134, "ople": 1135, "ular": 1136, "\u2581rel": 1137, "\u2581Un": 1138, "\u2581%": 1139, "back": 1140, "ility": 1141, "\u2581Se": 1142, "\u7ba1\u7406": 1143, "nM": 1144, "\u2581org": 1145, "\u2581then": 1146, "\u2581make": 1147, "\\\")\\": 1148, "\u2581String": 1149, "pre": 1150, "idth": 1151, "reat": 1152, "rc": 1153, "AN": 1154, "ey": 1155, "CC": 1156, "ities": 1157, "\u2581start": 1158, "\u2581sc": 1159, "of": 1160, "new": 1161, "\u2581two": 1162, "\u2581private": 1163, "value": 1164, "ctions": 1165, "\u2581Tr": 1166, "\u670d\u52a1": 1167, "np": 1168, "ithub": 1169, "\u2581ind": 1170, "opy": 1171, "\u2581rem": 1172, "ek": 1173, "nF": 1174, "\u8fdb\u884c": 1175, "ased": 1176, "ength": 1177, "\u2581ent": 1178, "man": 1179, "\u2581Ex": 1180, "trib": 1181, "uff": 1182, "list": 1183, "url": 1184, "\u2581dr": 1185, "ier": 1186, "mer": 1187, "ptions": 1188, "oth": 1189, "rough": 1190, "eter": 1191, "air": 1192, "right": 1193, "...": 1194, "ole": 1195, "Col": 1196, "und": 1197, "\u53d1\u5c55": 1198, "\u2581she": 1199, "\u2581read": 1200, "cond": 1201, "ream": 1202, "var": 1203, "\u2581used": 1204, "\u2581where": 1205, "\u2581ph": 1206, "az": 1207, "\u2581Con": 1208, "path": 1209, "rror": 1210, "lement": 1211, "ement": 1212, "ature": 1213, "fore": 1214, "ww": 1215, "github": 1216, "ily": 1217, "serv": 1218, "IL": 1219, "\u2581run": 1220, "rite": 1221, "clud": 1222, "().": 1223, "plo": 1224, "\u2581false": 1225, "play": 1226, "../": 1227, "\u2581play": 1228, "\u4ea7\u54c1": 1229, "amp": 1230, "\u2581follow": 1231, "\u2581after": 1232, "ren": 1233, "\u95ee\u9898": 1234, "____": 1235, "\u2581ob": 1236, "indow": 1237, "\u2581char": 1238, "\u2581gr": 1239, "\u2581\u2013": 1240, "ify": 1241, "rol": 1242, "CT": 1243, "\u2581!=": 1244, "\u2581these": 1245, "arget": 1246, "nH": 1247, "ood": 1248, "\u2581using": 1249, "\u2581people": 1250, "\u2581look": 1251, "\u2581\u53d1": 1252, "time": 1253, "not": 1254, "To": 1255, "lease": 1256, "no": 1257, "\u2581*\\": 1258, "const": 1259, "press": 1260, "Value": 1261, "erson": 1262, "ets": 1263, "\u2581static": 1264, "ward": 1265, "ough": 1266, "class": 1267, "day": 1268, "ember": 1269, "icense": 1270, "\u2581know": 1271, "\u2581ser": 1272, "].": 1273, "formation": 1274, "\u2581require": 1275, "\u2581want": 1276, "orld": 1277, "js": 1278, "\u2581min": 1279, "roll": 1280, "cept": 1281, "\u2581help": 1282, "\u2581br": 1283, "';\\": 1284, "\u2581dist": 1285, "');\\": 1286, "\u2581ac": 1287, "md": 1288, "let": 1289, "\u4ec0\u4e48": 1290, "for": 1291, "\u2581through": 1292, "ution": 1293, "ym": 1294, "util": 1295, "\u2581acc": 1296, "red": 1297, "\u2581]": 1298, "\u2581let": 1299, "AS": 1300, "IC": 1301, "\u2581right": 1302, "org": 1303, "></": 1304, "\u5e02\u573a": 1305, "\u2581could": 1306, "ational": 1307, "velop": 1308, "\u2581number": 1309, "the": 1310, "UL": 1311, "\u2581most": 1312, "perty": 1313, "\u2581case": 1314, "!\\": 1315, "\u2581You": 1316, "\\\";\\": 1317, "by": 1318, "\u2581well": 1319, "gin": 1320, "\u2581key": 1321, "ait": 1322, "par": 1323, "oun": 1324, "nTh": 1325, "ateg": 1326, "\u2581differ": 1327, "me": 1328, "resent": 1329, "Set": 1330, "File": 1331, "\u2581)": 1332, "\u2581sim": 1333, "****************": 1334, "\u2581///": 1335, "ION": 1336, "\u2581z": 1337, "],": 1338, "\u2581find": 1339, "start": 1340, "include": 1341, "ern": 1342, "any": 1343, "\u2581see": 1344, "ustom": 1345, "++": 1346, "UT": 1347, "\u2581does": 1348, "nO": 1349, "\u2581mod": 1350, "fil": 1351, "\u2581show": 1352, "ware": 1353, "cription": 1354, "gram": 1355, "\u2581If": 1356, "\u2581model": 1357, "py": 1358, "_{": 1359, "\u2581stud": 1360, "\u2581long": 1361, "\u2581gener": 1362, "')\\": 1363, "Exception": 1364, "\u4f7f\u7528": 1365, "\u6280\u672f": 1366, "wn": 1367, "Get": 1368, "\u2581cons": 1369, "cent": 1370, "View": 1371, "Error": 1372, "\u3002\\": 1373, "ession": 1374, "nIn": 1375, "\u2581every": 1376, "Se": 1377, "oin": 1378, "AME": 1379, "ife": 1380, "uch": 1381, "ik": 1382, "\u2581resp": 1383, "html": 1384, "lient": 1385, "ackage": 1386, "\u2581?": 1387, "')": 1388, "ines": 1389, "fl": 1390, "\u2581now": 1391, "RO": 1392, "ower": 1393, "ized": 1394, "lection": 1395, ",\\\"": 1396, "uring": 1397, "\u5185\u5bb9": 1398, "word": 1399, "\u2581sm": 1400, "DE": 1401, "\u2581fl": 1402, "\u5982\u679c": 1403, "ces": 1404, "uthor": 1405, "\u2581state": 1406, "':": 1407, "\u2581ext": 1408, "item": 1409, "fe": 1410, "\u2581De": 1411, "reak": 1412, "ote": 1413, "raph": 1414, "itt": 1415, "ffect": 1416, "\u2581hand": 1417, "\u2581&&": 1418, "\u2581Sh": 1419, "hed": 1420, "ponse": 1421, "\u2581inv": 1422, "\u2581user": 1423, "\u2581app": 1424, "ager": 1425, "gs": 1426, "ited": 1427, "\u2581such": 1428, "\u2581Ar": 1429, "Test": 1430, "face": 1431, "\u2581way": 1432, "\u2581said": 1433, "ah": 1434, "\u2581text": 1435, "order": 1436, "ends": 1437, "ten": 1438, "mod": 1439, "ocument": 1440, "arn": 1441, "\u2581includ": 1442, "}$": 1443, "ween": 1444, "lay": 1445, "```\\": 1446, "ector": 1447, "ler": 1448, "lob": 1449, "\u2581very": 1450, "\u2581pol": 1451, "\u2581->": 1452, "nL": 1453, "\u2581la": 1454, "reg": 1455, "\u2581},\\": 1456, "unc": 1457, "\u2581href": 1458, "index": 1459, "void": 1460, "\u2581http": 1461, "\u2581ass": 1462, "\u2581**": 1463, "ush": 1464, "Object": 1465, "\u2581each": 1466, "\u2581final": 1467, "iver": 1468, "\u2581build": 1469, "ins": 1470, "\u2581book": 1471, "\u2581Al": 1472, "\u2581fil": 1473, "\u2581system": 1474, "ename": 1475, "label": 1476, "\u2581don": 1477, "\u2581ed": 1478, "\u2581fr": 1479, "net": 1480, "Text": 1481, "til": 1482, "\u2581good": 1483, "\u2581cal": 1484, "\u2581support": 1485, "\u2581point": 1486, "\u2581line": 1487, "\u2581cor": 1488, "cause": 1489, "\u2581An": 1490, "\u2581par": 1491, "struct": 1492, "\u5c31\u662f": 1493, "\u2581As": 1494, "\u2581did": 1495, "arent": 1496, "ponent": 1497, "En": 1498, "\u2581try": 1499, "\u2581because": 1500, "\u2581many": 1501, "model": 1502, "sub": 1503, "ince": 1504, "\u2581X": 1505, "='": 1506, "NAME": 1507, "ason": 1508, "\u2581while": 1509, "loat": 1510, "ET": 1511, "uc": 1512, "MA": 1513, "\u2581\u00b7": 1514, "Key": 1515, "\u2581)\\": 1516, "go": 1517, "());\\": 1518, "Im": 1519, "\u2581down": 1520, "\u2581even": 1521, "\u2581expect": 1522, "\u2581sign": 1523, "other": 1524, "\u2581current": 1525, "etail": 1526, "\u2581here": 1527, "map": 1528, "\u2581bel": 1529, "\u2581process": 1530, "\u2581exper": 1531, "\u2581New": 1532, "ision": 1533, "\u2581call": 1534, "action": 1535, "\u2581sol": 1536, "\u2581method": 1537, "ouse": 1538, "\u8fd9\u4e2a": 1539, "config": 1540, "imes": 1541, "State": 1542, "iven": 1543, "\u2581high": 1544, "\u2581found": 1545, "._": 1546, "\u2581For": 1547, "\u63d0\u4f9b": 1548, "\u2581before": 1549, "wer": 1550, "less": 1551, "\u2581error": 1552, "ider": 1553, "De": 1554, "\u2581think": 1555, "The": 1556, "\u2581between": 1557, "ization": 1558, "wh": 1559, "By": 1560, "\u2581et": 1561, "\u8054\u7cfb": 1562, "input": 1563, "bs": 1564, "\u2581aut": 1565, "\u2581pass": 1566, "\u2581same": 1567, "\u2581years": 1568, "\u2581sur": 1569, "\u2581comple": 1570, "\u2581again": 1571, "ined": 1572, "////////": 1573, "iness": 1574, "\u5b66\u751f": 1575, "ential": 1576, "\u2581:=": 1577, "miss": 1578, "\u2581/**\\": 1579, "ants": 1580, "\u2581System": 1581, "\\\")": 1582, "########": 1583, "ook": 1584, "ives": 1585, "\u6839\u636e": 1586, "\u2581dec": 1587, "sc": 1588, "Item": 1589, "\u2581size": 1590, "try": 1591, "nN": 1592, "ouble": 1593, "Time": 1594, "ains": 1595, "ivers": 1596, "\\\".": 1597, "IS": 1598, "ared": 1599, "ience": 1600, "\u2581mon": 1601, "tt": 1602, "aking": 1603, "\u2581License": 1604, "\u2581aw": 1605, "lick": 1606, "\u2581main": 1607, "land": 1608, "ync": 1609, "\u6d3b\u52a8": 1610, "\u6559\u80b2": 1611, "yn": 1612, "rem": 1613, "\u2581object": 1614, "ually": 1615, "\u2581last": 1616, "PI": 1617, "/*": 1618, "ond": 1619, "\u2581gu": 1620, "plication": 1621, "over": 1622, "\u2581});\\": 1623, "\u2581check": 1624, "lib": 1625, "\u4ed6\u4eec": 1626, "ever": 1627, "vice": 1628, "\u2581log": 1629, "ED": 1630, "\u2581product": 1631, "ister": 1632, "\u2581print": 1633, "\u2581code": 1634, "\u2581information": 1635, "\u2581provid": 1636, "\u9700\u8981": 1637, "================": 1638, "ale": 1639, "\u2581being": 1640, "print": 1641, "\u2581iss": 1642, "];\\": 1643, "\u7ecf\u6d4e": 1644, "\u2581create": 1645, "ified": 1646, "\u7cfb\u7edf": 1647, "\u2581Res": 1648, "rray": 1649, ":\\\"": 1650, "\u76f8\u5173": 1651, "ric": 1652, "\u2581\\\"\\\"": 1653, "ved": 1654, "OT": 1655, "uration": 1656, "\u2581post": 1657, "\u2581cr": 1658, ").\\": 1659, "alth": 1660, "pace": 1661, "aining": 1662, "qual": 1663, "\u2581open": 1664, "\u2581own": 1665, "\u901a\u8fc7": 1666, "\u2581him": 1667, "UR": 1668, "Add": 1669, "\u2581default": 1670, "mp": 1671, "using": 1672, "ists": 1673, "alk": 1674, "Config": 1675, "\u2581rep": 1676, "chool": 1677, "\u2581different": 1678, "\u2581param": 1679, "\u2581much": 1680, "ences": 1681, "Request": 1682, "\u2581group": 1683, "error": 1684, "\u2581request": 1685, "init": 1686, "aut": 1687, "\u2581develop": 1688, "\u5df2\u7ecf": 1689, "\u56fd\u5bb6": 1690, "AD": 1691, "count": 1692, "\u6240\u6709": 1693, "ndef": 1694, "\u2581cent": 1695, "met": 1696, "\u2581mat": 1697, "ox": 1698, "itor": 1699, "oot": 1700, "ather": 1701, "ground": 1702, "ee": 1703, "\u2581\u2047": 1704, "oken": 1705, "aster": 1706, "Un": 1707, "Service": 1708, "~~": 1709, "aj": 1710, "Th": 1711, "\u7f51\u7ad9": 1712, "mary": 1713, "[]": 1714, "\u2581And": 1715, "ux": 1716, "state": 1717, "AC": 1718, "lish": 1719, "\u793e\u4f1a": 1720, "\u2581top": 1721, "urs": 1722, "Path": 1723, "\u2581config": 1724, "plate": 1725, "dis": 1726, "oci": 1727, "\u2581som": 1728, "\u2581Z": 1729, "\u2581field": 1730, "\u2581clo": 1731, "\u2581bl": 1732, "pend": 1733, "Int": 1734, "Sh": 1735, "\u2581writ": 1736, "\u2581oper": 1737, "CO": 1738, "\u2581person": 1739, "Map": 1740, "[\\\"": 1741, "\u2581child": 1742, "\u2581made": 1743, "uffer": 1744, "ats": 1745, "api": 1746, "ta": 1747, "\u2581__": 1748, "\u2581direct": 1749, "\u2581fin": 1750, "\u73b0\u5728": 1751, "\u2581tem": 1752, "\u2581att": 1753, "\u2581art": 1754, "ced": 1755, "bers": 1756, "\u2581av": 1757, "\u2014\u2014": 1758, "ainer": 1759, "usiness": 1760, "med": 1761, "Info": 1762, "bl": 1763, "\u2581num": 1764, "\u2581take": 1765, "loc": 1766, "\u2581);\\": 1767, "\u2581mem": 1768, "\u2581bu": 1769, "\u2581sk": 1770, "\u2581best": 1771, "\u4e2d\u5fc3": 1772, "\u2581following": 1773, "\u4e0d\u662f": 1774, "lear": 1775, "angu": 1776, "\u2581med": 1777, "\u2581day": 1778, "\u2581project": 1779, "\u5efa\u8bbe": 1780, "\u2581<<": 1781, ");": 1782, "ride": 1783, "\u2581fam": 1784, "Model": 1785, "\u2581Col": 1786, "\u2581assert": 1787, "ference": 1788, "\u4f5c\u8005": 1789, "\u2581both": 1790, "\u2581serv": 1791, "\u8981\u6c42": 1792, "User": 1793, "hip": 1794, "uss": 1795, "\u2581path": 1796, "\u2581mark": 1797, "\u2581\u6211": 1798, "\u8bbe\u8ba1": 1799, "={": 1800, "link": 1801, "akes": 1802, "\u2581met": 1803, "idd": 1804, "content": 1805, "json": 1806, "\u2581||": 1807, "vir": 1808, "ott": 1809, "php": 1810, "):": 1811, "pty": 1812, "els": 1813, "\u9879\u76ee": 1814, "\u2581must": 1815, "apt": 1816, "oy": 1817, "Ind": 1818, "\u751f\u6d3b": 1819, "\u2581std": 1820, "\u2581real": 1821, "\u2581version": 1822, "\u8f6f\u4ef6": 1823, "\u4e13\u4e1a": 1824, "search": 1825, "ases": 1826, "ency": 1827, "\u2581del": 1828, "\u2581example": 1829, "\u4e3b\u8981": 1830, "\u2581order": 1831, "ished": 1832, "\u2581those": 1833, "\u6709\u9650": 1834, "\u7684\u4eba": 1835, "\u2581Wh": 1836, "create": 1837, "ailable": 1838, "\u2581car": 1839, "\u56e0\u4e3a": 1840, "nect": 1841, "\u5317\u4eac": 1842, "\u2581How": 1843, "\u2581item": 1844, "}}": 1845, "(),": 1846, "Form": 1847, "Event": 1848, "ribut": 1849, "\u7528\u6237": 1850, "box": 1851, "\u7684\u4e00": 1852, "cho": 1853, "\u2581vis": 1854, "vert": 1855, "\u2581Le": 1856, "AB": 1857, "result": 1858, "\u2581next": 1859, "come": 1860, "db": 1861, "Man": 1862, "\u53ef\u80fd": 1863, "tract": 1864, "\u65b9\u5f0f": 1865, "\u2581program": 1866, "At": 1867, "lete": 1868, "icle": 1869, "inter": 1870, "((": 1871, "\\\"></": 1872, "\u751f\u4ea7": 1873, "\u2581second": 1874, "CH": 1875, "^{": 1876, "\u2581IN": 1877, "Context": 1878, "length": 1879, "igned": 1880, "\u2581\u8bf7": 1881, "iable": 1882, "ING": 1883, "\u2581event": 1884, "\u2581mov": 1885, "ness": 1886, "\u2581quest": 1887, "itions": 1888, "\u2581world": 1889, "\u5b89\u5168": 1890, "\u2581init": 1891, "top": 1892, "\u2581allow": 1893, "\u2581proble": 1894, "He": 1895, "\u2581poss": 1896, "info": 1897, "stance": 1898, "\u60c5\u51b5": 1899, "Log": 1900, "\u2581appro": 1901, "my": 1902, "\u2581ter": 1903, "ross": 1904, "mit": 1905, "ENT": 1906, "\u2581ke": 1907, "\u4e2a\u4eba": 1908, "orn": 1909, "ags": 1910, "\\\"]": 1911, "enu": 1912, "###": 1913, "LO": 1914, "rop": 1915, "tc": 1916, "\u2581life": 1917, "valid": 1918, "Param": 1919, "\u4e16\u754c": 1920, "\u2581input": 1921, "\u9009\u62e9": 1922, "\u2581view": 1923, "Class": 1924, "\u2581great": 1925, "arm": 1926, "ape": 1927, "raw": 1928, "logy": 1929, "table": 1930, "ght": 1931, "roller": 1932, "\u7814\u7a76": 1933, "Ar": 1934, "ingle": 1935, "ron": 1936, "trans": 1937, "\u2581java": 1938, "umn": 1939, "icro": 1940, "\u2581ref": 1941, "nex": 1942, "att": 1943, "color": 1944, "\u2581team": 1945, "\u2581local": 1946, "ftware": 1947, "\u2581break": 1948, "\u7535\u8bdd": 1949, "imit": 1950, "-\\": 1951, "\u2581\u53d1\u8868": 1952, "nfrom": 1953, "\u2581struct": 1954, "};\\": 1955, "bar": 1956, "\u7684\u662f": 1957, "\u2581place": 1958, "\u2581commun": 1959, "\u2581still": 1960, "\u2581fact": 1961, "ral": 1962, "reate": 1963, "\u2581throw": 1964, "olean": 1965, "IM": 1966, "\u2581home": 1967, "\u2581ins": 1968, "request": 1969, "wit": 1970, "\u2581typ": 1971, "\u7b2c\u4e00": 1972, "thon": 1973, "ane": 1974, "\u2581loc": 1975, "tpublic": 1976, "group": 1977, "ploy": 1978, "\u2581chang": 1979, "nn": 1980, "\u2581message": 1981, "uck": 1982, "Up": 1983, "\u2581style": 1984, "ways": 1985, "anguage": 1986, "\u4ef7\u683c": 1987, "nb": 1988, "\u65b0\u95fb": 1989, "des": 1990, "FF": 1991, "\u4e0b\u8f7d": 1992, "ived": 1993, "Size": 1994, "core": 1995, "\u2581est": 1996, "point": 1997, "\u2581arg": 1998, "\u4e2d\u7684": 1999, "Node": 2000, "PE": 2001, "iving": 2002, "\u2581pat": 2003, "ql": 2004, "\u2581without": 2005, "nR": 2006, "\u2581What": 2007, "Message": 2008, "\u2581So": 2009, "uf": 2010, "\u2581report": 2011, "field": 2012, "stand": 2013, "\u2581week": 2014, "max": 2015, "\u2581contin": 2016, "},\\": 2017, "roid": 2018, "nG": 2019, "ification": 2020, "ural": 2021, "Or": 2022, "][": 2023, "\u2581Is": 2024, "ital": 2025, "Field": 2026, "\u5de5\u7a0b": 2027, "ading": 2028, "\u2581really": 2029, "define": 2030, "\u2581free": 2031, "img": 2032, "ULL": 2033, "\u2581On": 2034, "title": 2035, "ior": 2036, "\u2581/*": 2037, "clo": 2038, "pi": 2039, "num": 2040, "erg": 2041, "\u2581perform": 2042, "\u65f6\u5019": 2043, "iled": 2044, "ident": 2045, "\u2581prot": 2046, "\u540c\u65f6": 2047, "node": 2048, "meric": 2049, "\u2581Eng": 2050, "ules": 2051, "\u2581color": 2052, "\u2581Pr": 2053, "\u2581during": 2054, "orth": 2055, "\u5176\u4ed6": 2056, "ivity": 2057, "off": 2058, "ene": 2059, "ender": 2060, "\u8bc4\u8bba": 2061, "\u2581around": 2062, "\u2581prov": 2063, "tings": 2064, "\u6709\u9650\u516c\u53f8": 2065, "\u2581max": 2066, "nE": 2067, "function": 2068, "ium": 2069, "amespace": 2070, "\u2581change": 2071, "Code": 2072, "image": 2073, "ources": 2074, "ugg": 2075, "\u2581incre": 2076, "\u2581But": 2077, "iter": 2078, "AG": 2079, "\u2581Ind": 2080, "plement": 2081, "\u2581array": 2082, "UN": 2083, "\u2581tri": 2084, "nection": 2085, "\u2581partic": 2086, "viron": 2087, "\u2581happ": 2088, "utes": 2089, "lected": 2090, "IG": 2091, "\u2581produ": 2092, "part": 2093, "\u8fd9\u6837": 2094, "\u76ee\u524d": 2095, "\u5b66\u4e60": 2096, "www": 2097, "\u2581three": 2098, "etwork": 2099, "\u2581Get": 2100, "dict": 2101, "oh": 2102, "\u5206\u6790": 2103, "\u2581service": 2104, "\u8fd8\u662f": 2105, "Qu": 2106, "etails": 2107, "\u2581()": 2108, "older": 2109, "Array": 2110, "\u597d\u7684": 2111, "As": 2112, "We": 2113, "ension": 2114, "\u653f\u5e9c": 2115, "assert": 2116, "\u2581cour": 2117, "\u2581effect": 2118, "\u2581love": 2119, "ogle": 2120, "Index": 2121, "\u2581To": 2122, "dir": 2123, "},": 2124, "thing": 2125, "ique": 2126, "body": 2127, "\u5f00\u59cb": 2128, "tx": 2129, "\u2581All": 2130, "\u7f51\u7edc": 2131, "\u2581care": 2132, "df": 2133, "\u2581too": 2134, "\u2581non": 2135, "\u2581They": 2136, "\u2581level": 2137, "\u2581di": 2138, "\u56fd\u9645": 2139, "\u4eba\u5458": 2140, "left": 2141, "ves": 2142, "doc": 2143, "indows": 2144, "\u2581table": 2145, "\u4e0d\u80fd": 2146, "ci": 2147, "\u2581given": 2148, "aving": 2149, "onse": 2150, "\u6295\u8d44": 2151, "Val": 2152, "af": 2153, "\u80fd\u529b": 2154, "width": 2155, "ism": 2156, "bin": 2157, "summary": 2158, "src": 2159, "\u6240\u4ee5": 2160, "\u4eba\u6c11": 2161, "\u2581Fr": 2162, "\u2581left": 2163, "Hand": 2164, "nThis": 2165, "\u2581content": 2166, "ideo": 2167, "ift": 2168, "nal": 2169, "pert": 2170, "eters": 2171, "\u2581response": 2172, "Result": 2173, "cale": 2174, "\u2581nil": 2175, "!!": 2176, "atures": 2177, "ained": 2178, "US": 2179, "\u6587\u5316": 2180, "HE": 2181, "aces": 2182, "\u2581dat": 2183, "ai": 2184, "\u2581target": 2185, "check": 2186, "ability": 2187, "\u2581rece": 2188, "run": 2189, "bed": 2190, "args": 2191, "\u65b9\u9762": 2192, "\u2581custom": 2193, "tribute": 2194, "\\\",\\\"": 2195, "array": 2196, "lobal": 2197, "build": 2198, "\u2581tech": 2199, "{{": 2200, "\u2581say": 2201, "\u2581eas": 2202, "\u2581old": 2203, "\u2581output": 2204, "\u2581mult": 2205, "\u662f\u4e00": 2206, "ands": 2207, "sed": 2208, "\u2581review": 2209, "\u8bb0\u8005": 2210, "Def": 2211, "\u2581business": 2212, "ches": 2213, "opyright": 2214, "\u2581link": 2215, "Over": 2216, ">>": 2217, "anks": 2218, "\u2581ca": 2219, "cur": 2220, "/**\\": 2221, "filename": 2222, "```": 2223, "\u7ec4\u7ec7": 2224, "Title": 2225, "\u2581available": 2226, "\u2581coun": 2227, "ords": 2228, "ething": 2229, "\u2581pop": 2230, "down": 2231, "Ser": 2232, "\u2581range": 2233, "\u2581small": 2234, "\u2581going": 2235, "\u77e5\u9053": 2236, "\u4e0a\u6d77": 2237, "bug": 2238, "\u2581+=": 2239, "with": 2240, "./": 2241, "nclass": 2242, "istr": 2243, "post": 2244, "}{": 2245, "\u2581charact": 2246, "\u5927\u7684": 2247, "tes": 2248, "arge": 2249, "rix": 2250, "comp": 2251, "\u2581page": 2252, "place": 2253, "\u2581es": 2254, "\u2581Ad": 2255, "\u2581cond": 2256, "base": 2257, "light": 2258, "Of": 2259, "book": 2260, "\u2581She": 2261, "Build": 2262, "\u4ee5\u4e0a": 2263, "ternal": 2264, "\u2581head": 2265, "\u5927\u5b66": 2266, "\u2581power": 2267, "ffic": 2268, "Al": 2269, "ories": 2270, "object": 2271, "tn": 2272, "itional": 2273, "\u5355\u4f4d": 2274, "IP": 2275, "\u2581AN": 2276, "\u2581game": 2277, "\u2581Cont": 2278, "\u8d23\u4efb": 2279, "\u2581None": 2280, "andom": 2281, "\u2581(!": 2282, "append": 2283, "\u2581Ap": 2284, "ety": 2285, "\u2581Ph": 2286, "itive": 2287, "\u2581There": 2288, "\u90e8\u5206": 2289, "ought": 2290, "rist": 2291, "ittle": 2292, "irc": 2293, "status": 2294, "\u2581source": 2295, "\u2581conf": 2296, "\u2581image": 2297, "script": 2298, "vious": 2299, "nusing": 2300, "ibr": 2301, "\u2581List": 2302, "\u2581since": 2303, ".(": 2304, "\u4e86\u4e00": 2305, "TR": 2306, "\u2581Or": 2307, "\u2581Be": 2308, "odes": 2309, ".\u201d": 2310, "\u2581Americ": 2311, "leg": 2312, "na": 2313, "Client": 2314, "\u2581https": 2315, "Response": 2316, "\u2581equ": 2317, "\u2581ear": 2318, "\u4f46\u662f": 2319, "Element": 2320, "true": 2321, "vents": 2322, "\u2581|\\": 2323, "lex": 2324, "\u2581including": 2325, ".,": 2326, "istory": 2327, "std": 2328, "way": 2329, "\u6ce8\u518c": 2330, "MP": 2331, "\u2581consider": 2332, "head": 2333, "\u2581fa": 2334, "OS": 2335, "\u2581interest": 2336, "pen": 2337, "\u2581access": 2338, "ality": 2339, "\u73af\u5883": 2340, "\u4ee5\u53ca": 2341, "\\\"><": 2342, "aterial": 2343, "\u2581src": 2344, "\u2581distribut": 2345, "\u2581values": 2346, "\u91cd\u8981": 2347, "\u2581width": 2348, "iversity": 2349, "ulation": 2350, "\u2581put": 2351, "Manager": 2352, "\u2581index": 2353, "sole": 2354, "ither": 2355, "\u6587\u7ae0": 2356, "\u4eba\u7684": 2357, "\u2581required": 2358, "\u2581success": 2359, "\u2581another": 2360, "\u2581few": 2361, "message": 2362, "query": 2363, "ina": 2364, "\u6765\u6e90": 2365, "\u529f\u80fd": 2366, "\u6e38\u620f": 2367, "\u7f8e\u56fd": 2368, "\u2581document": 2369, "\u2581title": 2370, "\u6570\u636e": 2371, "Not": 2372, "\u2581sure": 2373, "ump": 2374, "version": 2375, "ormal": 2376, "\u2581Pl": 2377, "oute": 2378, "\u652f\u6301": 2379, "\u2581\u672c": 2380, "vironment": 2381, "\u2581Cl": 2382, "\u6211\u7684": 2383, "Mod": 2384, "\u5f71\u54cd": 2385, "\u2581context": 2386, "ected": 2387, "button": 2388, "ling": 2389, "\u884c\u4e1a": 2390, "annel": 2391, "\u2581keep": 2392, "\u2581Add": 2393, "oud": 2394, "\u2581Im": 2395, "\u5b66\u6821": 2396, "${": 2397, "orage": 2398, "ui": 2399, "OL": 2400, "urch": 2401, "\u81ea\u5df1\u7684": 2402, "\u6210\u4e3a": 2403, "\u2581better": 2404, "ird": 2405, "\u2581\u4e2d": 2406, "client": 2407, "block": 2408, "ready": 2409, "tra": 2410, "\u2581ret": 2411, "!--": 2412, "\u2581won": 2413, "\u2581ide": 2414, "\u2581include": 2415, "perties": 2416, "\u2581fri": 2417, "resh": 2418, "nRe": 2419, "sm": 2420, "abase": 2421, "){\\": 2422, "\u2581always": 2423, "\u2581something": 2424, "mon": 2425, "default": 2426, "ategory": 2427, "\u2581cho": 2428, "Date": 2429, "\u2581month": 2430, "Des": 2431, "../../": 2432, "ically": 2433, "\u2581np": 2434, "tf": 2435, "\u4e0d\u540c": 2436, "sl": 2437, "\u2581Int": 2438, "dat": 2439, "\u2581got": 2440, "\u8868\u793a": 2441, "output": 2442, "\u2581design": 2443, "\u5927\u5bb6": 2444, "format": 2445, "\u2581sit": 2446, "\u670b\u53cb": 2447, "\u2581organ": 2448, "\u5230\u4e86": 2449, "cs": 2450, "\u2581present": 2451, "argin": 2452, "\u2581ident": 2453, "Fr": 2454, "\u2581orig": 2455, "\u2581pay": 2456, "nY": 2457, "\u2581bool": 2458, "ny": 2459, "ards": 2460, "icon": 2461, "\u2581};\\": 2462, "\u2581family": 2463, "\u2581step": 2464, "\u4e00\u5b9a": 2465, "png": 2466, "\u2581block": 2467, "________": 2468, "\u2581full": 2469, "\u2581Te": 2470, "\u2581things": 2471, "\u2581anal": 2472, "\u2581specific": 2473, "AP": 2474, "\u4efb\u4f55": 2475, "soft": 2476, "lot": 2477, "SM": 2478, "CL": 2479, "ply": 2480, "\u60a8\u7684": 2481, "da": 2482, "\u2581port": 2483, "len": 2484, "\u2581might": 2485, "\u2581important": 2486, "\u2581options": 2487, "\u2581control": 2488, "lean": 2489, "mission": 2490, "ately": 2491, "eta": 2492, "\u5f88\u591a": 2493, "late": 2494, "from": 2495, "....": 2496, "Out": 2497, "\u2581school": 2498, "\u2581\u53d1\u8868\u4e8e": 2499, "open": 2500, "\u2581stand": 2501, "\u65b9\u6cd5": 2502, "With": 2503, "\u2581results": 2504, "por": 2505, "\u2581beh": 2506, "\u8fd9\u4e9b": 2507, "ru": 2508, "\u2581Can": 2509, "],\\": 2510, "nconst": 2511, "\u2581adv": 2512, "ours": 2513, "Count": 2514, "\u2581gover": 2515, "\u90fd\u662f": 2516, "mat": 2517, "ched": 2518, "\u4ee3\u8868": 2519, "ances": 2520, "plit": 2521, "\u2581OR": 2522, "\u2581node": 2523, "OD": 2524, "icy": 2525, "ML": 2526, "\u2581NULL": 2527, "\u2581base": 2528, "outh": 2529, "Trans": 2530, "ports": 2531, "\u4ee5\u4e0b": 2532, "\u2581[\\": 2533, "\u2581within": 2534, "\u2581exp": 2535, "Color": 2536, "\u2581based": 2537, "rect": 2538, "\u2581dem": 2539, "usic": 2540, "Status": 2541, "Group": 2542, "\u2581Man": 2543, "creen": 2544, "static": 2545, "ively": 2546, "\u2581feel": 2547, "\u2581At": 2548, "Pr": 2549, "eturn": 2550, "main": 2551, "\u8d28\u91cf": 2552, "\u5f00\u53d1": 2553, "current": 2554, "\u2581pub": 2555, "omen": 2556, "For": 2557, "Inter": 2558, "But": 2559, "Cl": 2560, "stru": 2561, "agement": 2562, "acy": 2563, "\u6700\u540e": 2564, "arr": 2565, "\u2581called": 2566, "OP": 2567, "\u2581issue": 2568, "\u2581Sc": 2569, "\u2581count": 2570, "\u2581fun": 2571, "\u79d1\u6280": 2572, "local": 2573, "\u2581\u5c0f": 2574, "abled": 2575, "\u2581law": 2576, "\u2581No": 2577, "\u2581Set": 2578, "\u2581\u5728": 2579, "\u9500\u552e": 2580, "True": 2581, "\u2581map": 2582, "\u2581spe": 2583, "Em": 2584, "mark": 2585, "\u2581enc": 2586, "\u2581appe": 2587, "inc": 2588, "irt": 2589, "ights": 2590, "gress": 2591, "\u2581turn": 2592, "\u2581health": 2593, "\u4f60\u7684": 2594, "\u63d0\u9ad8": 2595, "pression": 2596, "\u2581cert": 2597, "ead": 2598, "\u2581little": 2599, "\u2581tot": 2600, "web": 2601, "ids": 2602, "hand": 2603, "\u2581pres": 2604, "\u2581sum": 2605, "\u51fa\u73b0": 2606, "ocus": 2607, "\u2581position": 2608, "\u2581possible": 2609, "\u53d1\u73b0": 2610, "null": 2611, "ocial": 2612, "\u5168\u56fd": 2613, "\u5177\u6709": 2614, "EX": 2615, "\u2581action": 2616, "\u2581problem": 2617, "Input": 2618, "posit": 2619, "ero": 2620, "Be": 2621, "earch": 2622, "\u2581plan": 2623, "uest": 2624, "Override": 2625, "nuse": 2626, "\\\":\\\"": 2627, "\u2581$\\\\": 2628, "Loc": 2629, "\u2581provide": 2630, "\u8bbe\u5907": 2631, "\u57ce\u5e02": 2632, "nJ": 2633, "\u2581disc": 2634, "DI": 2635, "\u2581Gr": 2636, "amework": 2637, "\u2581grow": 2638, "uments": 2639, "math": 2640, "rel": 2641, "vol": 2642, "\u6709\u5173": 2643, "java": 2644, "\u2581against": 2645, "\u2581super": 2646, "arning": 2647, "\u975e\u5e38": 2648, "\u2581update": 2649, "\u2581able": 2650, "find": 2651, "actory": 2652, "\u2581\\\"\\\"\\\"\\": 2653, "Is": 2654, "\u2581che": 2655, "\u4f5c\u4e3a": 2656, "Ad": 2657, "\u2581big": 2658, "ired": 2659, "\u2581job": 2660, "\u90e8\u95e8": 2661, "\u7535\u5b50": 2662, "section": 2663, "\u2581\\\\\\": 2664, "cer": 2665, "\u2581hard": 2666, "\u2581fix": 2667, "mand": 2668, "ention": 2669, "\u66f4\u591a": 2670, "une": 2671, "side": 2672, "\u2581seem": 2673, "vers": 2674, "\u5730\u533a": 2675, "\u2581lead": 2676, "\u5b69\u5b50": 2677, "\u2581ans": 2678, "hes": 2679, "\u4ecb\u7ecd": 2680, "\u8f93\u5165": 2681, "])\\": 2682, "ipp": 2683, "\u2581cap": 2684, "ols": 2685, "nWe": 2686, "\u533b\u9662": 2687, "\u2581area": 2688, "\u2581US": 2689, "nexport": 2690, "page": 2691, "\\\\\\\\": 2692, "\u2581Bl": 2693, "ugin": 2694, "\u2581===": 2695, "\u2581install": 2696, "\u2581less": 2697, "\u2581never": 2698, "Table": 2699, "\u2581bas": 2700, "\u2581prof": 2701, "ilt": 2702, "uture": 2703, "\u2581bro": 2704, "amb": 2705, "commit": 2706, "rl": 2707, "\u2581Trans": 2708, "\u2581understand": 2709, "oney": 2710, "\u2581($": 2711, "\u76f4\u63a5": 2712, "App": 2713, "\u2581rest": 2714, "\u2581company": 2715, "flow": 2716, "server": 2717, "\u2581address": 2718, "\u2581short": 2719, "\u4e00\u4e9b": 2720, "uid": 2721, "icrosoft": 2722, "\u2581valid": 2723, "\u2581come": 2724, "\u624b\u673a": 2725, "Property": 2726, "\u2581lot": 2727, "\u8d44\u6e90": 2728, "mt": 2729, "\u2581display": 2730, "typ": 2731, "\u77e5\u8bc6": 2732, "ised": 2733, "adding": 2734, "\u2581prom": 2735, "\u2581done": 2736, "\u2581gre": 2737, "\u4e86\u89e3": 2738, "\u2581working": 2739, "\u2581sever": 2740, ")(": 2741, "Pl": 2742, "stars": 2743, "ially": 2744, "ottom": 2745, "\u6807\u51c6": 2746, "cope": 2747, "adi": 2748, "\u2581account": 2749, "SS": 2750, "\u2581hum": 2751, "\u2581Des": 2752, "atter": 2753, "Button": 2754, "rm": 2755, "thers": 2756, "{\\\\": 2757, "ayout": 2758, "unk": 2759, "\u2581body": 2760, "AA": 2761, "\u2581que": 2762, "\u2581label": 2763, "\u2581>>": 2764, "\u5408\u4f5c": 2765, "\u672c\u7f51": 2766, "ajor": 2767, "event": 2768, "Util": 2769, "uary": 2770, "Dis": 2771, "\u2581ask": 2772, "\u2581author": 2773, "board": 2774, "\u600e\u4e48": 2775, "\u5bf9\u4e8e": 2776, "\u2581single": 2777, "ended": 2778, "iod": 2779, "\u2581above": 2780, "())\\": 2781, "ESS": 2782, "\u2581\u5927": 2783, "\u2581font": 2784, "}\\\\": 2785, "ured": 2786, "\u2581fore": 2787, "\u2581double": 2788, "ope": 2789, "yl": 2790, "mm": 2791, "\u4e5f\u662f": 2792, "\u2581instance": 2793, "\u2581Test": 2794, "\u6765\u7684": 2795, "\u2581cell": 2796, "uro": 2797, "ley": 2798, "\u2581give": 2799, "\u2581site": 2800, "EST": 2801, "\u8d1f\u8d23": 2802, "\u2581Mar": 2803, "\u2581four": 2804, "\u2581offer": 2805, "ips": 2806, "//\\": 2807, "\u4e0a\u7684": 2808, "frac": 2809, "\u2581question": 2810, "\u2581water": 2811, "ATE": 2812, "ording": 2813, "\u2581already": 2814, "write": 2815, "repon": 2816, "host": 2817, "ots": 2818, "ently": 2819, "ifier": 2820, "\u6cd5\u5f8b": 2821, "reponame": 2822, "HT": 2823, "now": 2824, "\u2581mean": 2825, "\u53d1\u751f": 2826, "ograph": 2827, "aper": 2828, "\u5176\u4e2d": 2829, "\u2581bit": 2830, "\u5173\u4e8e": 2831, "atform": 2832, "idual": 2833, "\u8ba4\u4e3a": 2834, "Reg": 2835, "\u2581exist": 2836, "\u2581occ": 2837, "Image": 2838, "\u5904\u7406": 2839, "\u2581eng": 2840, "\u2581En": 2841, "\u2581cost": 2842, "Act": 2843, "\u54c1\u724c": 2844, "\u7531\u4e8e": 2845, "opt": 2846, "\u2581either": 2847, "\u2581until": 2848, "dev": 2849, "\u2581opt": 2850, "\u4e0b\u9762": 2851, "quals": 2852, "\u2581match": 2853, "\u559c\u6b22": 2854, "\u2581url": 2855, "\u2581Sp": 2856, "ably": 2857, "lin": 2858, "\u5305\u62ec": 2859, "au": 2860, "raft": 2861, "\u2581files": 2862, "\u2581inte": 2863, "cast": 2864, "char": 2865, "\u5ba2\u6237": 2866, "\u5b66\u9662": 2867, "\u5173\u7cfb": 2868, "\u663e\u793a": 2869, "ze": 2870, "dr": 2871, "Lo": 2872, "\u2581background": 2873, "\u2581client": 2874, "riter": 2875, "option": 2876, "\u53d1\u5e03": 2877, "\u2581exec": 2878, "([": 2879, "\u2581implement": 2880, "do": 2881, "\u2581When": 2882, "\u2581Fe": 2883, "msg": 2884, "Stream": 2885, "chema": 2886, "tm": 2887, "\u57fa\u672c": 2888, "ume": 2889, "\u2581Christ": 2890, "())": 2891, "\u2581May": 2892, "ari": 2893, "...\\": 2894, "ination": 2895, "update": 2896, "\u2581copy": 2897, "\u2581height": 2898, "\u5982\u4f55": 2899, "\u2581By": 2900, "\u2581invest": 2901, "omain": 2902, "Controller": 2903, "All": 2904, "lev": 2905, "Sub": 2906, "ury": 2907, "ponents": 2908, "context": 2909, "ung": 2910, "\u2581whe": 2911, "aint": 2912, "lished": 2913, "\u5e0c\u671b": 2914, "pack": 2915, "izer": 2916, "Pos": 2917, ">(": 2918, "rec": 2919, "New": 2920, "era": 2921, "Line": 2922, "idget": 2923, "\u2581descri": 2924, "erc": 2925, "\u672c\u7ad9": 2926, "\u2581float": 2927, "\u4e3a\u4e86": 2928, "\u2581option": 2929, "\u2581ra": 2930, "ilar": 2931, "\u2581learn": 2932, "\u2581package": 2933, "\u57f9\u8bad": 2934, "aim": 2935, "\u2581market": 2936, "Str": 2937, "').": 2938, "gether": 2939, "ored": 2940, "\u6cbb\u7597": 2941, "\u2581comput": 2942, "ball": 2943, "nfunc": 2944, "\u2581sent": 2945, "\u2581OF": 2946, "\u2581children": 2947, "amed": 2948, "oo": 2949, "rench": 2950, "ending": 2951, "\u2581times": 2952, "ators": 2953, "\u2581My": 2954, "\u2581story": 2955, "////////////////": 2956, "\u8fd8\u6709": 2957, "position": 2958, "\u2581software": 2959, "\u2581online": 2960, "\u2581date": 2961, "EL": 2962, "style": 2963, "assword": 2964, "\u2581command": 2965, "\u8fc7\u7a0b": 2966, "upport": 2967, "dit": 2968, "\u7248\u6743": 2969, "\u2581parent": 2970, "\u2581days": 2971, "\u2581extends": 2972, "ieve": 2973, "Component": 2974, "ides": 2975, "\u4eca\u5e74": 2976, "\u6bd4\u8f83": 2977, "css": 2978, "ken": 2979, "ls": 2980, "ication": 2981, "sg": 2982, "oper": 2983, "rows": 2984, "mb": 2985, "pose": 2986, "\u8fd9\u79cd": 2987, "\u2581File": 2988, "ysis": 2989, "imal": 2990, "\u6587\u4ef6": 2991, "ret": 2992, "else": 2993, "\u2581University": 2994, "\u2581language": 2995, "\u2581English": 2996, "witch": 2997, "\u2581pot": 2998, "\u2581impro": 2999, "ntity": 3000, "call": 3001, "nusername": 3002, "\u7684\u65f6\u5019": 3003, "\u2581miss": 3004, "TY": 3005, "\u2581later": 3006, "ython": 3007, "begin": 3008, "\u2581cou": 3009, "\u4e0d\u4f1a": 3010, "iction": 3011, "\u2581Br": 3012, "ills": 3013, "OM": 3014, "anch": 3015, "\u6750\u6599": 3016, "iple": 3017, "\u2581(\\": 3018, "(&": 3019, "\u63a8\u8350": 3020, "','": 3021, "\u2581App": 3022, "SON": 3023, "pository": 3024, "ibility": 3025, "\u2581represent": 3026, "\u2581search": 3027, "\u2581ver": 3028, "otal": 3029, "\u5546\u54c1": 3030, "\u4e0b\u4e00": 3031, "ada": 3032, "bit": 3033, "\u2581light": 3034, "npublic": 3035, "\u2581vol": 3036, "\u2581Do": 3037, "\u57fa\u7840": 3038, "\u2581along": 3039, "Content": 3040, "\u56fe\u7247": 3041, "ensor": 3042, "\u2581Not": 3043, "FA": 3044, "\u6ce8\u610f": 3045, "################": 3046, "\u2581large": 3047, "anel": 3048, "\u2581begin": 3049, "xy": 3050, "\u2581services": 3051, "Builder": 3052, "\u2581clear": 3053, "\u4e13\u5bb6": 3054, "From": 3055, "Le": 3056, "\\\").": 3057, "\u4f5c\u7528": 3058, "\u2581pract": 3059, "\u6216\u8005": 3060, "source": 3061, "\u2581Cent": 3062, "\u2581len": 3063, "\u2581total": 3064, "last": 3065, "\u2581experience": 3066, "sk": 3067, "udio": 3068, "\u800c\u4e14": 3069, "sol": 3070, "Base": 3071, "\u56fd\u5185": 3072, "VER": 3073, "\u2581past": 3074, "Handler": 3075, "\u2581/>\\": 3076, "System": 3077, "rior": 3078, "\u7b2c\u4e8c": 3079, "Token": 3080, "\u2581red": 3081, "\u2581await": 3082, "uk": 3083, "cul": 3084, "gg": 3085, "uster": 3086, "\u7ecf\u9a8c": 3087, "\u2581Gener": 3088, "target": 3089, "\u2581side": 3090, "select": 3091, "\u2581\u3011": 3092, "\u2581Dr": 3093, "nav": 3094, "Query": 3095, "eger": 3096, "ike": 3097, "\u2581special": 3098, "\u7535\u5f71": 3099, "\u65c5\u6e38": 3100, "efore": 3101, "\u6c7d\u8f66": 3102, "\u2581status": 3103, "bsite": 3104, "where": 3105, "\u2581relations": 3106, "\u70b9\u51fb": 3107, "\u2581network": 3108, "FI": 3109, "\u662f\u5426": 3110, "\u9886\u5bfc": 3111, "ymb": 3112, "ILES": 3113, "cor": 3114, "\u2581space": 3115, ",\u201d": 3116, "\u4f4d\u7f6e": 3117, "\u2581load": 3118, "\u2581\u53ea": 3119, "lements": 3120, "\u2581server": 3121, "\u2581research": 3122, "plied": 3123, "])": 3124, "\u2581fac": 3125, "\u7c7b\u578b": 3126, "\u2581web": 3127, "service": 3128, "PO": 3129, "\u2581boolean": 3130, "ney": 3131, "\u2581role": 3132, "\u2581task": 3133, "\\\"\\\"": 3134, "\u2581property": 3135, "\u2581initial": 3136, "TH": 3137, "\u2581kind": 3138, "\u5a92\u4f53": 3139, "\u2581write": 3140, "\u5e94\u8be5": 3141, "\u5b9e\u73b0": 3142, "\u2581os": 3143, "alf": 3144, "isk": 3145, "\u2581Qu": 3146, "\u2581win": 3147, "utions": 3148, "\u79d1\u5b66": 3149, "\u2581prob": 3150, "po": 3151, "next": 3152, "Equal": 3153, "\u2581cover": 3154, "vider": 3155, "nvoid": 3156, "\u2581indiv": 3157, "inary": 3158, "\u2581les": 3159, "ialog": 3160, "illion": 3161, "\u2581obt": 3162, "apter": 3163, "env": 3164, "\u2581host": 3165, "nment": 3166, "\u770b\u5230": 3167, "nIt": 3168, "\u2581making": 3169, "uggest": 3170, "\u2581-->\\": 3171, "\u2581late": 3172, "ocket": 3173, "\u4f5c\u54c1": 3174, "KE": 3175, "false": 3176, "cover": 3177, "\u2581leg": 3178, "UP": 3179, "\u4e0d\u8981": 3180, "\u2581redu": 3181, "Box": 3182, "\u2581known": 3183, "$\\\\": 3184, "\u2581changes": 3185, "CON": 3186, "active": 3187, "imum": 3188, "gan": 3189, "Instance": 3190, "ients": 3191, "\u5730\u5740": 3192, "\u2581q": 3193, "Action": 3194, "ging": 3195, "\u2581phot": 3196, "\u2581please": 3197, "aff": 3198, "response": 3199, "Per": 3200, "\u2581...": 3201, "\u2581season": 3202, "\u2581Ser": 3203, "posed": 3204, "\u2581Car": 3205, "\u5404\u79cd": 3206, "\u2581auto": 3207, "\u2581record": 3208, "\u2581However": 3209, "\u90a3\u4e48": 3210, "\u5065\u5eb7": 3211, "ohn": 3212, "\u8f6c\u8f7d": 3213, "Point": 3214, "\u2581cur": 3215, "\u5b8c\u6210": 3216, "\u6d88\u8d39": 3217, "\u54a8\u8be2": 3218, "\u2581sl": 3219, "nIf": 3220, "\u2581stop": 3221, "\u8fd9\u4e00": 3222, "ament": 3223, "});\\": 3224, "\u2581several": 3225, "cd": 3226, "iff": 3227, "\u2581Copyright": 3228, "irm": 3229, "CE": 3230, "\u4f1a\u8bae": 3231, "iment": 3232, "aged": 3233, "\u2581['": 3234, "require": 3235, "INT": 3236, "\u2581doesn": 3237, "Method": 3238, "\u2581why": 3239, "\u2581\u4e00": 3240, "module": 3241, "yc": 3242, "ibrary": 3243, "\u2581\u2018": 3244, "uccess": 3245, ".</": 3246, "\u2581together": 3247, "layer": 3248, "inst": 3249, "\u2581application": 3250, "Par": 3251, "wards": 3252, "\u2581That": 3253, "tb": 3254, "\u2581With": 3255, "\u4f1a\u5458": 3256, "\u2581expected": 3257, "\u56de\u590d": 3258, "\u2581others": 3259, "ptr": 3260, "\u2581having": 3261, ".\\\"\\": 3262, "\u2581near": 3263, "vis": 3264, "\u2581((": 3265, "Call": 3266, "\u7cbe\u795e": 3267, "\u5fc5\u987b": 3268, "\u2581French": 3269, "ayer": 3270, "\u2581uint": 3271, "ival": 3272, "cell": 3273, "\u89e3\u51b3": 3274, "\u2581format": 3275, "No": 3276, "room": 3277, "\u2581room": 3278, "\u8d44\u6599": 3279, "\u514d\u8d39": 3280, "\u2581created": 3281, "\u2581Inst": 3282, "adata": 3283, "\u2581See": 3284, "\u4e3b\u9898": 3285, "used": 3286, "aph": 3287, "\u2581study": 3288, "\u4e1a\u52a1": 3289, "Gener": 3290, "\u2581ben": 3291, "\u2581IS": 3292, "Us": 3293, "%%": 3294, "\u2581limit": 3295, "\u2581thought": 3296, "And": 3297, "\u2581meas": 3298, "\u2581variable": 3299, "ino": 3300, "Number": 3301, "\u2581ann": 3302, "\u2581Ro": 3303, "\u2581deter": 3304, "apache": 3305, "\u5f53\u524d": 3306, "\u8bba\u575b": 3307, "images": 3308, "\u2581Me": 3309, "\u2581\u2014": 3310, "urther": 3311, "\u2581character": 3312, "\u2581Up": 3313, "\u9605\u8bfb": 3314, "ones": 3315, "Hel": 3316, "\u8bf4\u660e": 3317, "\u6709\u6548": 3318, "\u53c2\u52a0": 3319, "\u8fd9\u662f": 3320, "stream": 3321, "\u2581fre": 3322, "cret": 3323, "TP": 3324, "ba": 3325, "\u2581arr": 3326, "\u2581Reg": 3327, "aring": 3328, "QL": 3329, "valu": 3330, "\u2581catch": 3331, "nbsp": 3332, "{\\\"": 3333, "\u2581low": 3334, "\u2581individual": 3335, "EM": 3336, "\u2581element": 3337, "\u2581tell": 3338, "\u2581needs": 3339, "\u63a7\u5236": 3340, "\u8fdb\u5165": 3341, "\u2581border": 3342, "DB": 3343, "header": 3344, "ram": 3345, "\u2581lik": 3346, "\u2581Go": 3347, "\u64cd\u4f5c": 3348, "\u2581Data": 3349, "\u2581fail": 3350, "\u80fd\u591f": 3351, "tpr": 3352, "center": 3353, "\u2581below": 3354, "\u5e94\u7528": 3355, "<?": 3356, "\u6b63\u786e": 3357, "\u2581means": 3358, "\u2581Dis": 3359, "conom": 3360, "\u7ecf\u8425": 3361, "\u2581Ass": 3362, "alt": 3363, "show": 3364, "Page": 3365, "gen": 3366, "idden": 3367, "method": 3368, "ypes": 3369, "\u2581thing": 3370, "\u2581diff": 3371, "\u6210\u529f": 3372, "\u2581CON": 3373, "ynam": 3374, "\u2581meet": 3375, "xx": 3376, "\u8ba1\u5212": 3377, "gener": 3378, "project": 3379, "\u2581applic": 3380, "dated": 3381, "has": 3382, "\u2581development": 3383, "\u2581dev": 3384, "\u2581feature": 3385, "\u96c6\u56e2": 3386, "\u53d1\u8868": 3387, "\u7279\u522b": 3388, "\u2581args": 3389, "pha": 3390, "\u4ea7\u4e1a": 3391, "ounds": 3392, "uly": 3393, "iddle": 3394, "unch": 3395, "\u2581State": 3396, "\u2581major": 3397, "\u2581American": 3398, "Null": 3399, "aps": 3400, "imary": 3401, "\u2581div": 3402, "Start": 3403, "\u2581gl": 3404, "\u2581Em": 3405, "\u5f00\u5c55": 3406, "TO": 3407, "ado": 3408, "process": 3409, "\u2581close": 3410, "\u2581away": 3411, "\u2581expl": 3412, "\u2581due": 3413, ".\u201d\\": 3414, "Source": 3415, "\u2581Bo": 3416, "aging": 3417, "An": 3418, "\u2581vari": 3419, "ama": 3420, "ison": 3421, "\u2581often": 3422, "\u673a\u6784": 3423, "\u8fd9\u91cc": 3424, "\u2581looking": 3425, "\u2581\u7684": 3426, "Version": 3427, "\u2581common": 3428, "\u2581margin": 3429, "height": 3430, "\u2581length": 3431, "Run": 3432, "\u2581environment": 3433, "\u83b7\u5f97": 3434, "Entity": 3435, "\u2581course": 3436, "\u2581answer": 3437, "Ph": 3438, "\u2581\u65b0": 3439, "\u2581far": 3440, "\u56e0\u6b64": 3441, "\u6d88\u606f": 3442, "\u2581previous": 3443, "umb": 3444, "Create": 3445, "\u6700\u65b0": 3446, "\u2581center": 3447, "uint": 3448, "\u2581today": 3449, "yles": 3450, "\u2581works": 3451, "\u2581points": 3452, "\u2581echo": 3453, "\u91c7\u7528": 3454, "Url": 3455, "\u4e2d\u6587": 3456, "pected": 3457, "\u2581ant": 3458, "push": 3459, "\u2581added": 3460, "\u2581depend": 3461, "XX": 3462, "ship": 3463, "\u4e0d\u8fc7": 3464, "\u2581connect": 3465, "Factory": 3466, "\u8001\u5e08": 3467, "achine": 3468, "avel": 3469, "\u2581Ab": 3470, "ica": 3471, "\u2581least": 3472, "\u2581series": 3473, "Ref": 3474, "\u8ba1\u7b97": 3475, "params": 3476, "\u2581particular": 3477, "\u2581\u7b2c": 3478, "\u2581Per": 3479, "\u2581\u4eba": 3480, "ring": 3481, "\u540d\u79f0": 3482, "Ap": 3483, "\u2581house": 3484, "\u2581students": 3485, "\u2581buy": 3486, "obj": 3487, "\u8fd0\u52a8": 3488, "\u2581writing": 3489, "\u2581once": 3490, "OC": 3491, "LI": 3492, "first": 3493, "Options": 3494, "\u2581elect": 3495, "rodu": 3496, "\u4e00\u822c": 3497, "\u7ed3\u679c": 3498, "\u770b\u8be5": 3499, "\u2581members": 3500, "amples": 3501, "\u5efa\u8bae": 3502, "\u2581::": 3503, "\u2581Cal": 3504, "\u653f\u7b56": 3505, "hy": 3506, "\u5229\u7528": 3507, "endif": 3508, "\u2581protected": 3509, "author": 3510, "\u2581associ": 3511, "parent": 3512, "\u2581ve": 3513, "\u2581simple": 3514, "\u2581invol": 3515, "\u2581Log": 3516, "\u2581Object": 3517, "ogn": 3518, "\u2581Med": 3519, "fa": 3520, "\u589e\u52a0": 3521, "ANT": 3522, "\u2581These": 3523, "\u2581United": 3524, "options": 3525, "struction": 3526, "\u5b58\u5728": 3527, "gt": 3528, "\u5730\u65b9": 3529, "\u94f6\u884c": 3530, "admin": 3531, "\u6559\u5b66": 3532, "stract": 3533, "\u2581relationship": 3534, "\u2581community": 3535, "number": 3536, "\u2581music": 3537, "ding": 3538, "tfor": 3539, "spec": 3540, "\u8d77\u6765": 3541, "\u2581Ste": 3542, "\u4e00\u76f4": 3543, "otion": 3544, "\u2581mag": 3545, "imate": 3546, "\u9152\u5e97": 3547, "\\\\\\\"": 3548, "ilter": 3549, ")$": 3550, "\u2581provided": 3551, "\u2581Co": 3552, "ising": 3553, "\u7cfb\u5217": 3554, "token": 3555, "\u2581makes": 3556, "ering": 3557, "SMILES": 3558, "\u2581complet": 3559, "ires": 3560, "\u2581select": 3561, "ounc": 3562, "icult": 3563, "Http": 3564, "most": 3565, "igr": 3566, "\u2581Par": 3567, "\u4e24\u4e2a": 3568, "strong": 3569, "\u2581})\\": 3570, "\u2581food": 3571, "MS": 3572, "\u2581distributed": 3573, "\u2581email": 3574, "filter": 3575, "Fl": 3576, "\u2581Min": 3577, "\u2581Fl": 3578, "change": 3579, "\u2581pack": 3580, "\u2581API": 3581, "\u89c9\u5f97": 3582, "join": 3583, "\u2581track": 3584, "\u2581neg": 3585, "utils": 3586, "\u2581whether": 3587, "ferences": 3588, "\u2581mar": 3589, "ites": 3590, "({": 3591, "\u2581hig": 3592, "font": 3593, "cr": 3594, "\u2581features": 3595, "HO": 3596, "ASS": 3597, "ued": 3598, "\u2581der": 3599, "\u2581}}": 3600, "Server": 3601, "\u2581\u3010": 3602, "///": 3603, "---\\": 3604, "\u2581NOT": 3605, "\u2581Mon": 3606, "({\\": 3607, "\u2581actually": 3608, "\u2581One": 3609, "\u2581mom": 3610, "irection": 3611, "lang": 3612, "\u884c\u4e3a": 3613, "\u5386\u53f2": 3614, "\u8f93\u51fa": 3615, "aa": 3616, "\u2581video": 3617, "\u2581offic": 3618, "\u2581except": 3619, "\u2581THE": 3620, "\u2581started": 3621, "})\\": 3622, "pg": 3623, "\u2581money": 3624, "\u5e74\u7684": 3625, "\u79ef\u6781": 3626, "\u2581strong": 3627, "\u4fdd\u62a4": 3628, "Rec": 3629, "\u5efa\u7b51": 3630, "Default": 3631, "\u2581enough": 3632, "sv": 3633, "ni": 3634, "Block": 3635, "\u67e5\u770b": 3636, "\u2581det": 3637, "\u2581imp": 3638, "\u2581chall": 3639, "sure": 3640, "joy": 3641, "oll": 3642, "ops": 3643, "\u4e0d\u65ad": 3644, "\u2581social": 3645, "\u2581po": 3646, "\u2581suggest": 3647, "docs": 3648, "\u4ed6\u7684": 3649, "Read": 3650, "\u2581didn": 3651, "parse": 3652, "\u2581material": 3653, "avor": 3654, "\u767b\u5f55": 3655, "\u4ea4\u6613": 3656, "\u2581talk": 3657, "omet": 3658, "\u2581Ne": 3659, "etch": 3660, "\u2581women": 3661, "oman": 3662, "bb": 3663, "curity": 3664, "\u2581city": 3665, "obile": 3666, "Command": 3667, "\u2581\u8054\u7cfb": 3668, "\u4e4b\u540e": 3669, "\u2581Act": 3670, "SI": 3671, "\u2581employ": 3672, "\u2581visit": 3673, "\u9996\u9875": 3674, "ele": 3675, "ilities": 3676, "rypt": 3677, "\u770b\u8be5\u4f5c\u8005": 3678, "float": 3679, "ster": 3680, "hel": 3681, "\u2581certain": 3682, "\u6761\u4ef6": 3683, "Check": 3684, "\u4e07\u5143": 3685, "\u2581focus": 3686, "\u2581\u00e0": 3687, "\u6c34\u5e73": 3688, "emplate": 3689, "\u7559\u8a00": 3690, "files": 3691, "nnamespace": 3692, "\u2581reason": 3693, "pc": 3694, "\u2581though": 3695, "On": 3696, "root": 3697, "\u4eca\u5929": 3698, "signed": 3699, "\u68c0\u67e5": 3700, "\uff1a\\": 3701, "depend": 3702, "\u867d\u7136": 3703, "\u5224\u65ad": 3704, "]);\\": 3705, "Label": 3706, "apping": 3707, "\u2581tre": 3708, "\u5c0f\u65f6": 3709, "\u2581box": 3710, "\u6548\u679c": 3711, "\u2581become": 3712, "\u2581query": 3713, "\u53ea\u6709": 3714, "\u2581teach": 3715, "Task": 3716, "ached": 3717, "\u2581ID": 3718, "\u2581types": 3719, "End": 3720, "vo": 3721, "gre": 3722, "();": 3723, "\u2581issues": 3724, "\u4e00\u8d77": 3725, "\u2581${": 3726, "unity": 3727, "`,": 3728, "\u2581android": 3729, "nology": 3730, "fect": 3731, "quence": 3732, "\u2581details": 3733, "\u7f51\u4e0a": 3734, "Buffer": 3735, "\u5de5\u4e1a": 3736, "\u2581discuss": 3737, "]:": 3738, "eline": 3739, "inition": 3740, "\u2581;": 3741, "email": 3742, "\u2581ess": 3743, "\u89c4\u5b9a": 3744, "utor": 3745, "\u2581hold": 3746, "\u2581du": 3747, "\u2581Some": 3748, "\u539f\u56e0": 3749, "\u2581future": 3750, "\u2581air": 3751, "ters": 3752, "\u2581similar": 3753, "nown": 3754, "\u7f16\u8f91": 3755, "ving": 3756, "UM": 3757, "\u7efc\u5408": 3758, "ause": 3759, "\u2581film": 3760, "![": 3761, "Listener": 3762, "control": 3763, "\u611f\u89c9": 3764, "\u5c5e\u4e8e": 3765, "\u2581running": 3766, "rt": 3767, "inate": 3768, "\u2581\u53ea\u770b\u8be5\u4f5c\u8005": 3769, "oss": 3770, "nV": 3771, "clus": 3772, "nYou": 3773, "SP": 3774, "Sc": 3775, "\u2581\u4e0d": 3776, "\u5728\u7ebf": 3777, "\u2581signific": 3778, "\u7ed3\u6784": 3779, "\u2581express": 3780, "\u2581treat": 3781, "\u2581original": 3782, "\u2581easy": 3783, "\u4e00\u6b21": 3784, "aken": 3785, "level": 3786, "aset": 3787, "\u2581happen": 3788, "tributes": 3789, "tthis": 3790, "see": 3791, "\u7136\u540e": 3792, "istry": 3793, "\u2581personal": 3794, "\u2026\u2026": 3795, "\u2581period": 3796, "\u2581\\\"/": 3797, "\u2581clean": 3798, "\u2581sw": 3799, "istic": 3800, "\u2581educ": 3801, "FT": 3802, "\u4e00\u6b65": 3803, "oding": 3804, "\u5173\u6ce8": 3805, "\u6211\u56fd": 3806, "ocol": 3807, "\u2581God": 3808, "\u2581getting": 3809, "\u7535\u89c6": 3810, "\u4e00\u6837": 3811, "\u2581Pol": 3812, "SC": 3813, "ouch": 3814, "ony": 3815, "%,": 3816, "\u2581Part": 3817, "\u8003\u8bd5": 3818, "#\\": 3819, "\u2581Def": 3820, "\u2581human": 3821, "master": 3822, "itted": 3823, "ries": 3824, "je": 3825, "nms": 3826, "ises": 3827, "ocker": 3828, "URL": 3829, "ias": 3830, "ana": 3831, "gor": 3832, "\u2581yet": 3833, "\u2581activ": 3834, "abor": 3835, "\u2581row": 3836, "Valid": 3837, "tag": 3838, "\u4ea4\u901a": 3839, "space": 3840, "\u2581dest": 3841, "ymbol": 3842, "sw": 3843, "UI": 3844, "\u2581amount": 3845, "\u2581says": 3846, "\u7684\u5927": 3847, "uit": 3848, "\u2581energ": 3849, "\u2581doing": 3850, "\u2581potential": 3851, "\u4e4b\u95f4": 3852, "mem": 3853, "\u65b0\u7684": 3854, "Link": 3855, "\u81ea\u7136": 3856, "fully": 3857, "\u2581json": 3858, "aug": 3859, "\u4e00\u4e0b": 3860, "\u2581continue": 3861, "iam": 3862, "\u2581module": 3863, "Gr": 3864, "ube": 3865, "\u2581ever": 3866, "\u2581console": 3867, "bum": 3868, "\u2581agre": 3869, "essages": 3870, "\u5e2e\u52a9": 3871, "\u2581country": 3872, "EC": 3873, "enn": 3874, "Resource": 3875, "\u2581early": 3876, "\u8303\u56f4": 3877, "\u2581indust": 3878, "irtual": 3879, "\u2581wait": 3880, "\u2581Jan": 3881, "\u2581correct": 3882, "common": 3883, "\u2581John": 3884, "\u5e7f\u544a": 3885, "ABLE": 3886, "\u63d0\u51fa": 3887, "\u2581store": 3888, "\u2581history": 3889, "PL": 3890, "\u2581website": 3891, "product": 3892, "\u9519\u8bef": 3893, "\u2581move": 3894, "ORT": 3895, "\u2581join": 3896, "\u2581interface": 3897, "ln": 3898, "rest": 3899, "\u2581Ge": 3900, "ae": 3901, "\u2581general": 3902, "\u2581PR": 3903, "(),\\": 3904, "None": 3905, "\u2581products": 3906, "align": 3907, "upy": 3908, "=>": 3909, "\u52a0\u5f3a": 3910, "ERR": 3911, "UE": 3912, "\u2581instead": 3913, "lt": 3914, "\u65e5\u672c": 3915, "\uff0e\\": 3916, "\u2581quality": 3917, "\u2581polit": 3918, "respon": 3919, "fix": 3920, "\u2581World": 3921, "Update": 3922, "child": 3923, "\u2581events": 3924, "lections": 3925, "\u589e\u957f": 3926, "google": 3927, "nFor": 3928, "bf": 3929, "\u7f51\u53cb": 3930, "\u62e5\u6709": 3931, "\u2581Ed": 3932, "unt": 3933, "\u2581live": 3934, "mut": 3935, "ULT": 3936, "\u4fdd\u8bc1": 3937, "\u8fbe\u5230": 3938, "\u2581gen": 3939, "\u2581draw": 3940, "\u2581device": 3941, "\u2581contact": 3942, "PR": 3943, "\u2581face": 3944, "\u76ee\u6807": 3945, "\u2581description": 3946, "chedu": 3947, "VE": 3948, "Layout": 3949, "(_": 3950, "icate": 3951, "cat": 3952, "\u2581cult": 3953, "IO": 3954, "*/\\": 3955, "EMA": 3956, "\u2581deal": 3957, "\u2581respons": 3958, "hent": 3959, "tvar": 3960, "\u2581price": 3961, "nvar": 3962, "\u2581hot": 3963, "\u2581needed": 3964, "\u7535\u8111": 3965, "cel": 3966, "container": 3967, "\u5173\u952e": 3968, "only": 3969, "zure": 3970, "\u2581via": 3971, "\u2581foot": 3972, "\u65e5\u671f": 3973, "\u5f62\u6210": 3974, "unit": 3975, "\u62db\u8058": 3976, "nOn": 3977, "\u2581fig": 3978, "\u2581True": 3979, "imple": 3980, "\u2581young": 3981, "\u2581models": 3982, "\u79ef\u5206": 3983, "\u5efa\u7acb": 3984, "BU": 3985, "\u2581root": 3986, "graph": 3987, "\u2581respect": 3988, "exec": 3989, "lege": 3990, "description": 3991, "ales": 3992, "\u7ed3\u5408": 3993, "\u2581After": 3994, "year": 3995, "encies": 3996, "\u2581Intern": 3997, "\u2581Nov": 3998, "\u2581compet": 3999, "\u5b9e\u9645": 4000, "\u2581DE": 4001, "\u2581across": 4002, "\u2581Inter": 4003, "\u2581\u4e0a": 4004, "\u2581[]": 4005, "\u2581took": 4006, "\u2581section": 4007, "\u6b22\u8fce": 4008, "\u2581sort": 4009, "\u2581resol": 4010, "ilit": 4011, "atural": 4012, "\u2581Comp": 4013, "\u2581terms": 4014, "\u2581pur": 4015, "\u2581recomm": 4016, "\u4ea7\u751f": 4017, "\u2581rights": 4018, "types": 4019, "\u2581quick": 4020, "\u2581men": 4021, "\u2581building": 4022, "\u2581larg": 4023, "\u2581Type": 4024, "\u2581training": 4025, "ges": 4026, "\u2581ax": 4027, "aced": 4028, "ds": 4029, "\u91cd\u70b9": 4030, "ili": 4031, "\u2581User": 4032, "\u6559\u5e08": 4033, "\u62a5\u544a": 4034, "\u81ea\u52a8": 4035, "Mode": 4036, "\u2581fund": 4037, "\u2581various": 4038, "\u7a7a\u95f4": 4039, "Select": 4040, "\u7ec6\u80de": 4041, "urope": 4042, "enses": 4043, "bt": 4044, "\u2581friend": 4045, "card": 4046, "reet": 4047, "ged": 4048, "\u7ee7\u7eed": 4049, "~~~~": 4050, "\u2581Red": 4051, "\u2581Date": 4052, "\u97f3\u4e50": 4053, "\u2581profession": 4054, "\u2581Count": 4055, "\u2581seen": 4056, "Provider": 4057, "\u2500\u2500": 4058, "\u2581integr": 4059, "PC": 4060, "\u2581items": 4061, "\u2581night": 4062, "\u2581$(": 4063, "\u2581~": 4064, "\u2581region": 4065, "home": 4066, "\u4e5f\u4e0d": 4067, "ided": 4068, "structor": 4069, "\u2581press": 4070, "\u2581Rec": 4071, "\u2581Dep": 4072, "\u529e\u516c": 4073, "\u2581dep": 4074, "\u2581subject": 4075, "property": 4076, "\u2581performance": 4077, "izing": 4078, "\u4ea4\u6d41": 4079, "\u2581comment": 4080, "\u6d4f\u89c8": 4081, "Output": 4082, "cf": 4083, "\u2581defined": 4084, "\u2581autom": 4085, "instance": 4086, "\u6211\u4eec\u7684": 4087, "\u2581\u4e2d\u56fd": 4088, "auth": 4089, "\u2581government": 4090, "\u2581padding": 4091, "abs": 4092, "\u2581energy": 4093, "close": 4094, "\u2581filter": 4095, "\u2581member": 4096, "ga": 4097, "served": 4098, "ried": 4099, "\u5236\u5ea6": 4100, "mo": 4101, "\u2581users": 4102, "False": 4103, "mes": 4104, "\u2581bar": 4105, "though": 4106, "\u2581phys": 4107, "\u5f97\u5230": 4108, "\u2581word": 4109, "\u2581handle": 4110, "\u89c2\u70b9": 4111, "\u2581global": 4112, "empty": 4113, "AY": 4114, "\u2581black": 4115, "\u9700\u6c42": 4116, "\u2581pers": 4117, "\u2581West": 4118, "igation": 4119, "\u6df1\u5733": 4120, "\u2581accept": 4121, "\u8bed\u8a00": 4122, "---": 4123, "train": 4124, "eral": 4125, "gorith": 4126, "txt": 4127, "leased": 4128, "cm": 4129, ")=": 4130, "\u00e9s": 4131, "attr": 4132, "\u2581location": 4133, "\u2581Return": 4134, "ho": 4135, "Json": 4136, "ctx": 4137, "\u2581mode": 4138, "remove": 4139, "Address": 4140, "\u2581benef": 4141, "\u2581loss": 4142, "ula": 4143, "CP": 4144, "\u2581async": 4145, "req": 4146, "()->": 4147, "ades": 4148, "TE": 4149, "OG": 4150, "nfunction": 4151, "pol": 4152, "ensions": 4153, "\u2581behav": 4154, "\u2581article": 4155, "Aut": 4156, "\u2581enjoy": 4157, "\u901a\u77e5": 4158, "nAs": 4159, "\u2581States": 4160, "\u2581nov": 4161, "\u2581>=": 4162, "Comp": 4163, "[:": 4164, "\u2581release": 4165, "\u2581apply": 4166, "\u2581resource": 4167, "\u2581wr": 4168, "bool": 4169, "\u2581positive": 4170, "annot": 4171, "\u5e16\u5b50": 4172, "\u53ea\u662f": 4173, "\u2581circ": 4174, "\u57fa\u91d1": 4175, "\u2581came": 4176, "xml": 4177, "ynt": 4178, "\u2581window": 4179, "\u2581info": 4180, "rapper": 4181, "\u2581explo": 4182, "oto": 4183, "\u2581conditions": 4184, "verage": 4185, "\u6bd4\u8d5b": 4186, "\u2581necess": 4187, "\u2581sat": 4188, "\u2581player": 4189, "dist": 4190, "\u2581ANY": 4191, "gl": 4192, "cp": 4193, "ARR": 4194, "address": 4195, "ledge": 4196, "fs": 4197, "ha": 4198, "\u4e0d\u5f97": 4199, "dom": 4200, "exp": 4201, "del": 4202, "ij": 4203, "idge": 4204, "npackage": 4205, "\u2581received": 4206, "\u2581Rep": 4207, "\u2581included": 4208, "\u2581share": 4209, "ners": 4210, "\u5168\u90e8": 4211, "\u2581send": 4212, "\u2581normal": 4213, "\u2581idea": 4214, "BA": 4215, "ORD": 4216, "\u2581hope": 4217, "\u2581mind": 4218, "delete": 4219, "Types": 4220, "Var": 4221, "sing": 4222, "Filter": 4223, "\u2581mass": 4224, "\u2581card": 4225, "\u2581button": 4226, "\u2581further": 4227, "Length": 4228, "\u2581Create": 4229, "\u2581compl": 4230, "\u2581coll": 4231, "\u2581pick": 4232, "acing": 4233, "___": 4234, "\u2581significant": 4235, "\u2581cut": 4236, "imer": 4237, "\u641c\u7d22": 4238, "\u2581age": 4239, "nK": 4240, "\u6765\u81ea": 4241, "erman": 4242, "\u63cf\u8ff0": 4243, "Off": 4244, "\u2581=\\": 4245, "\u2581Val": 4246, "actions": 4247, "\u2581flow": 4248, "\u2581camp": 4249, "ATION": 4250, "asing": 4251, "Web": 4252, "aur": 4253, "\u2581dig": 4254, "\u2581School": 4255, "ians": 4256, "\u2581bad": 4257, "\u2581render": 4258, "\u2581Oct": 4259, "zz": 4260, "sql": 4261, "acity": 4262, "inner": 4263, "\u2581ge": 4264, "\u2581doc": 4265, "values": 4266, "missions": 4267, "\u2581graph": 4268, "wise": 4269, "patch": 4270, "aven": 4271, "\u2581comes": 4272, "(\\\\": 4273, "PRO": 4274, "Sp": 4275, "location": 4276, "amera": 4277, "undle": 4278, "Module": 4279, "EMAIL": 4280, "Attribute": 4281, "ART": 4282, "\u2581went": 4283, "\u5176\u5b83": 4284, "rs": 4285, "ointer": 4286, "package": 4287, "\u5e73\u53f0": 4288, "\u2581multiple": 4289, "vector": 4290, "\u827a\u672f": 4291, "store": 4292, "Row": 4293, "la": 4294, "\u2581cannot": 4295, "mail": 4296, "\u5176\u5b9e": 4297, "\u6a21\u5f0f": 4298, "\u2581HT": 4299, "RL": 4300, "\u5e7f\u5dde": 4301, "\u2581save": 4302, "\u2581complete": 4303, "\u8868\u73b0": 4304, "just": 4305, "\u2581City": 4306, "\u8fdb\u4e00\u6b65": 4307, "ming": 4308, "\u2581Cor": 4309, "aker": 4310, "\u2581throws": 4311, "ccount": 4312, "\u2581song": 4313, "irectory": 4314, "hing": 4315, "\u2581beaut": 4316, "gn": 4317, "\u2581complex": 4318, "ialize": 4319, "CTION": 4320, "\u51b3\u5b9a": 4321, "\u521b\u65b0": 4322, "\u2581script": 4323, "react": 4324, "\u2581rate": 4325, "izes": 4326, "umns": 4327, "\u8be6\u7ec6": 4328, "tprivate": 4329, "\u5b9e\u65bd": 4330, "ceed": 4331, "amily": 4332, "entity": 4333, "Equals": 4334, "Pre": 4335, "\u2581\u6709": 4336, "\u2581solution": 4337, "\u2581York": 4338, "\u2581und": 4339, "\u2581download": 4340, "\u2581Sup": 4341, "\u2581methods": 4342, "\u76ee\u7684": 4343, "\u6307\u4ee4": 4344, "inding": 4345, "\u2581Aug": 4346, "Format": 4347, "\u2581questions": 4348, "\u2581tests": 4349, "\u53d8\u5316": 4350, "\u2581admin": 4351, "rowser": 4352, "mar": 4353, "leep": 4354, "Back": 4355, "Function": 4356, "\u2581National": 4357, "ITY": 4358, "medi": 4359, "\u2581separ": 4360, "\u5ba3\u4f20": 4361, "\u2581months": 4362, "\u2581component": 4363, "\u5168\u9762": 4364, "PS": 4365, "\u2581+\\": 4366, "imest": 4367, "\u2581random": 4368, "\u2581blog": 4369, "\u2581provides": 4370, "CD": 4371, "\u4e00\u79cd": 4372, "\u2581stream": 4373, "ief": 4374, "\u5177\u4f53": 4375, "\u2581mix": 4376, "\u7b54\u6848": 4377, "mine": 4378, "anced": 4379, "!\\\"": 4380, "irth": 4381, "\u2581parameters": 4382, "\u2581Out": 4383, "\u2581trad": 4384, "\u2581media": 4385, "anged": 4386, "nTo": 4387, "pm": 4388, "git": 4389, "yt": 4390, "\u2581remove": 4391, "lation": 4392, "ober": 4393, "\u2581Gu": 4394, "Oper": 4395, "\u2581Your": 4396, "\u2581template": 4397, "\u2581related": 4398, "send": 4399, "\u2581token": 4400, "astic": 4401, "\u73b0\u4ee3": 4402, "\u2581anything": 4403, "\u2581className": 4404, "\u2581unique": 4405, "weight": 4406, "ka": 4407, "closed": 4408, "oder": 4409, "\u2581Class": 4410, "\u2581addition": 4411, "\u2581games": 4412, "logical": 4413, "\u2581\u52a0": 4414, "scri": 4415, "ios": 4416, "Ob": 4417, "Control": 4418, "\u2581Aust": 4419, "\u65e0\u6cd5": 4420, "ague": 4421, "\u58f0\u660e": 4422, "Fe": 4423, "buf": 4424, "\u5bfc\u81f4": 4425, "step": 4426, "SD": 4427, ">,": 4428, "split": 4429, "\u2581land": 4430, "\u2581Apr": 4431, "Utils": 4432, "II": 4433, "\u98df\u54c1": 4434, "\u2581written": 4435, "oring": 4436, "\u60a3\u8005": 4437, "task": 4438, "\u2581five": 4439, "\u2581\\\"\\\"\\\"": 4440, "prot": 4441, "\u2581Char": 4442, "\u2581contrib": 4443, "\u2581fall": 4444, "\u63a5\u53d7": 4445, "\u6b63\u5728": 4446, "ements": 4447, "\u2581among": 4448, "icles": 4449, "\u7ecf\u8fc7": 4450, "nswer": 4451, "tint": 4452, "})": 4453, "\u53ca\u65f6": 4454, "\u2581Version": 4455, "\u2581ago": 4456, "\u2581connection": 4457, "\u2581white": 4458, "\u2581Mark": 4459, "\u9020\u6210": 4460, "\u5206\u949f": 4461, "\u2581hours": 4462, "iet": 4463, "ambda": 4464, "istration": 4465, "\u9762\u79ef": 4466, "rics": 4467, "Dat": 4468, "upyter": 4469, "\u8d2d\u4e70": 4470, "imation": 4471, "\u8d44\u91d1": 4472, "\u7684\u4e8b": 4473, "iles": 4474, "framework": 4475, "'.": 4476, "\u2581South": 4477, "|\\": 4478, "\u2581econom": 4479, "API": 4480, "\u2581whole": 4481, "\u2581(\\\"": 4482, "python": 4483, "\u6765\u8bf4": 4484, "btn": 4485, "\u2581unit": 4486, "MM": 4487, "\u2581\u0441": 4488, "\u6bd5\u4e1a": 4489, "angle": 4490, "\u2581pie": 4491, "\u5e76\u4e0d": 4492, "connect": 4493, "\u2581ach": 4494, "\u2581risk": 4495, "\u2581additional": 4496, "\u2581million": 4497, "\u2581front": 4498, "roy": 4499, "\u2581<=": 4500, "\u2581walk": 4501, "\u2581den": 4502, "\u2581session": 4503, "Api": 4504, "tml": 4505, "$(": 4506, "\u2581everything": 4507, "adius": 4508, "\u2581[]\\": 4509, "\u2581etc": 4510, "rew": 4511, "\u2581functions": 4512, "\u597d\u53cb": 4513, "\u7533\u8bf7": 4514, "<!--": 4515, "\u2581Europe": 4516, "\u9999\u6e2f": 4517, "\u2581prior": 4518, "'),\\": 4519, "\u2581arch": 4520, "\u4e1c\u897f": 4521, "\u2581<!--": 4522, "\u2581learning": 4523, "NO": 4524, "\u2581Review": 4525, "adio": 4526, "\u2581Check": 4527, "\u2581Str": 4528, "\u2581dim": 4529, "\u771f\u5b9e": 4530, "\u2581hel": 4531, "\u2581trying": 4532, "fort": 4533, "\u2581\u6ce8\u518c": 4534, "iful": 4535, "\u2581engine": 4536, "\u2581shows": 4537, "\u56de\u7b54": 4538, "iance": 4539, "\u2581estab": 4540, "conf": 4541, "orch": 4542, "\u5b8c\u5168": 4543, "\u2581strateg": 4544, "\u4eba\u4eec": 4545, "\u4fdd\u6301": 4546, "\u2581forward": 4547, "aries": 4548, "Part": 4549, "\u2581cases": 4550, "\u2581tw": 4551, "meta": 4552, "\u2581opport": 4553, "display": 4554, "\u5148\u751f": 4555, "ii": 4556, "\u6709\u7684": 4557, "\u2581half": 4558, "\u2581analysis": 4559, "\u5de6\u53f3": 4560, "\u2581rather": 4561, "tempt": 4562, "\u804c\u4e1a": 4563, "verse": 4564, "Arg": 4565, "ks": 4566, "\u2581Key": 4567, "uation": 4568, "\u2581Sm": 4569, "ille": 4570, "?\\\"": 4571, "omb": 4572, "long": 4573, "osp": 4574, "\u2581seems": 4575, "\u2581False": 4576, "istor": 4577, ".*": 4578, "\u2581stay": 4579, "$$": 4580, "\u2581EX": 4581, "\u4eba\u624d": 4582, "erm": 4583, "\u540c\u5b66": 4584, "\u2581\u00e9": 4585, "\u2581Sub": 4586, "\u2581aff": 4587, "\u2581paper": 4588, "\u2581mor": 4589, "Process": 4590, "gment": 4591, "\u2581problems": 4592, "\u2581align": 4593, "ipe": 4594, "nm": 4595, "}/": 4596, "ALL": 4597, "dim": 4598, "\u2581standard": 4599, "\u73b0\u573a": 4600, "\u2581built": 4601, "anger": 4602, "Ext": 4603, "\u2581transform": 4604, "FL": 4605, "\u2581flo": 4606, "\u65b9\u6848": 4607, "\u53c2\u4e0e": 4608, "eq": 4609, "\u2581minutes": 4610, "\u793e\u533a": 4611, "save": 4612, "\u2581Post": 4613, "\u2581click": 4614, "\u2581named": 4615, "\u2581jour": 4616, "\u2581infl": 4617, "\u662f\u5728": 4618, "password": 4619, "template": 4620, "\u2581commit": 4621, "FO": 4622, "\u2581crit": 4623, "\u2581Open": 4624, "\u2581remov": 4625, "\u6027\u7684": 4626, "shape": 4627, "\u2581Array": 4628, "\u2581someone": 4629, "\u6587\u672c": 4630, "here": 4631, "\u4ef7\u503c": 4632, "\u2581screen": 4633, "KEY": 4634, "Write": 4635, "\u7b26\u5408": 4636, "\u2581net": 4637, "GL": 4638, "\u2581particip": 4639, "\u2581register": 4640, "\u2581importance": 4641, "\u4e4b\u4e00": 4642, "heet": 4643, "produ": 4644, "tty": 4645, "refix": 4646, "\u2581Will": 4647, "\u2581words": 4648, "\\\"/": 4649, "\u2581override": 4650, "\u2581obj": 4651, "\u2581mer": 4652, "\u2581entry": 4653, "Dep": 4654, "\u2581\\\"<": 4655, "\u2581friends": 4656, "\u2581Web": 4657, "atal": 4658, "airs": 4659, "\u2581Rem": 4660, "\u2581structure": 4661, "\u2581gir": 4662, "\u2581\u53d1\u5e03": 4663, "\u2581approach": 4664, "\u2581tag": 4665, "iday": 4666, "\u2581ey": 4667, "\u2581\u8bf7\u6839\u636e": 4668, "Vis": 4669, "\u66f4\u65b0": 4670, "ounter": 4671, "etime": 4672, "\u2581perfect": 4673, "\u2581third": 4674, "agn": 4675, "------------": 4676, "hash": 4677, "\u7684\u95ee\u9898": 4678, "\u2581claim": 4679, "\u2581however": 4680, "\u8c03\u67e5": 4681, "++)": 4682, "ao": 4683, "\u544a\u8bc9": 4684, "\u6b63\u5e38": 4685, "gy": 4686, "\u6ce8\u660e": 4687, "Header": 4688, "\u901f\u5ea6": 4689, "\u8003\u67e5": 4690, "\u536b\u751f": 4691, "byte": 4692, "tries": 4693, ".<": 4694, "\u2581intern": 4695, "Case": 4696, "\u62a5\u9053": 4697, "\u53cd\u5e94": 4698, "Exec": 4699, "\u2581Run": 4700, "\u7a0b\u5e8f": 4701, "\u7684\u8bdd": 4702, "\u2581taking": 4703, "\u2581watch": 4704, "\u7b80\u5355": 4705, "items": 4706, "Width": 4707, "\u519c\u4e1a": 4708, "\u52aa\u529b": 4709, "\u5546\u4e1a": 4710, "\u2581lower": 4711, "sec": 4712, "jpg": 4713, "ptember": 4714, "elt": 4715, "\u2581uses": 4716, "\u2581systems": 4717, "\u2581currently": 4718, "\u2581returns": 4719, "\u2581Sk": 4720, "bor": 4721, "\u2581vi": 4722, "ervices": 4723, "can": 4724, "umer": 4725, "Spec": 4726, "anies": 4727, "\u2581predict": 4728, "ping": 4729, "session": 4730, "elling": 4731, "\u72b6\u6001": 4732, "\u2581introdu": 4733, "IES": 4734, "ros": 4735, "\u2581difficult": 4736, "\u2581RE": 4737, "elves": 4738, "kg": 4739, "Ed": 4740, "tcase": 4741, "\u2581calcul": 4742, "debug": 4743, "came": 4744, "aves": 4745, "\u2581mot": 4746, "\u5168\u7403": 4747, "ERT": 4748, "Style": 4749, "\u751f\u7269": 4750, "Frame": 4751, "\u2581percent": 4752, "\u2581impact": 4753, "\u5236\u4f5c": 4754, "\u2581Sol": 4755, "\u2581heart": 4756, "ario": 4757, "\u2581March": 4758, "coming": 4759, "igger": 4760, "\u2581pict": 4761, "\u2581sex": 4762, "\u2581wor": 4763, "Windows": 4764, "chan": 4765, "ography": 4766, "\u2581Form": 4767, "pri": 4768, "device": 4769, "\u2581consum": 4770, "command": 4771, "\u4e3b\u4e49": 4772, "\u4e2a\u6708": 4773, "\u51c6\u5907": 4774, "\u2581lim": 4775, "UB": 4776, "\u89c4\u5212": 4777, "\u5bb6\u5ead": 4778, "\u2581]\\": 4779, "\u51fa\u6765": 4780, "\u751a\u81f3": 4781, "Met": 4782, "fin": 4783, "\u2581parameter": 4784, "\u2581\u4f60": 4785, "TYPE": 4786, "\u2581probably": 4787, "\u6807\u9898": 4788, "Max": 4789, "\u2581Art": 4790, "\u2581North": 4791, "\u2581death": 4792, "\u2581entire": 4793, "=\\\"#": 4794, "alle": 4795, "\u2581Bar": 4796, "mber": 4797, "\u2581More": 4798, "\u624d\u80fd": 4799, "\u2581characters": 4800, "\u6388\u6743": 4801, "Container": 4802, "\u2581Please": 4803, "Core": 4804, "Menu": 4805, "\u2581became": 4806, "\u2581bring": 4807, "\u2581eff": 4808, "nThere": 4809, "\u2581pain": 4810, "Script": 4811, "\u2581ur": 4812, "Change": 4813, "auto": 4814, "\u666e\u901a": 4815, "after": 4816, "\u2581six": 4817, "\u2581contains": 4818, "\u7684\u5c0f": 4819, "\u2581decl": 4820, "ology": 4821, "ursor": 4822, "\u0435\u043d": 4823, "\u2581note": 4824, "\u2581believe": 4825, "den": 4826, "\u2581die": 4827, "\u2581hy": 4828, "Rem": 4829, "\u2581],\\": 4830, "\u2581column": 4831, "ham": 4832, "IND": 4833, "menu": 4834, "click": 4835, "then": 4836, "\u2581active": 4837, "Empty": 4838, "--\\": 4839, "\u6539\u9769": 4840, "STR": 4841, "\u2581weight": 4842, "\u2581WARR": 4843, "\u4f20\u7edf": 4844, "istics": 4845, "\u2581enter": 4846, "\u4efb\u52a1": 4847, "():\\": 4848, "\u662f\u4e00\u4e2a": 4849, "itude": 4850, "\u6253\u5370": 4851, "should": 4852, "\u2581tool": 4853, "Init": 4854, "\u5bb9\u6613": 4855, "\u601d\u60f3": 4856, "\u2581Mc": 4857, "based": 4858, "\u2581taken": 4859, "\u2581ST": 4860, "\u2581Work": 4861, "aid": 4862, "\u2581Service": 4863, "gu": 4864, "\u2581inside": 4865, "\u7528\u4e8e": 4866, "\u2581June": 4867, "\u4e0d\u4ec5": 4868, "\u82f1\u8bed": 4869, "ENSE": 4870, "\u2581higher": 4871, "\u51fa\u7684": 4872, "\u2581elements": 4873, "buffer": 4874, "\u5b9a\u7684": 4875, "dk": 4876, "nstatic": 4877, "\u2581params": 4878, "uel": 4879, "iers": 4880, "\u2581'./": 4881, "\u4f53\u80b2": 4882, "\u2581increase": 4883, "\u2581management": 4884, "\u7f8e\u5143": 4885, "\u5546\u52a1": 4886, "nWhat": 4887, "hib": 4888, "\u771f\u7684": 4889, "\u2581assum": 4890, "nap": 4891, "\u8bb8\u591a": 4892, "\u2581Public": 4893, "\u2581fit": 4894, "IB": 4895, "\u2581Ref": 4896, "\u2581View": 4897, "sequ": 4898, "frame": 4899, "fficient": 4900, "Tag": 4901, "\u2581exact": 4902, "\u5de5\u5177": 4903, "\u2581properties": 4904, "Dir": 4905, "uses": 4906, "\u2581Time": 4907, "\u2581\u79ef\u5206": 4908, "\u2581database": 4909, "\u2581bal": 4910, "\u2581\u5929": 4911, "\u2581fields": 4912, "\u6b4c\u8bcd": 4913, "\u2581album": 4914, "non": 4915, "\u2581purch": 4916, "\u2581experi": 4917, "__(": 4918, "edia": 4919, "\u2581prote": 4920, "Mat": 4921, "custom": 4922, "layout": 4923, "\u2581\u60a8": 4924, "\u2581names": 4925, "\u2581directory": 4926, "\u6309\u7167": 4927, "\u2581ep": 4928, "\u2581raise": 4929, "\u2581High": 4930, "\u2581memory": 4931, "\u2581collection": 4932, "\u2581'/": 4933, "\u2581exc": 4934, "CR": 4935, "idx": 4936, "DR": 4937, "Configuration": 4938, "\u2581Pe": 4939, "\u2581tax": 4940, "\u2581lib": 4941, "known": 4942, "Post": 4943, "\u8fd9\u4e48": 4944, "jupyter": 4945, "Child": 4946, "like": 4947, "\u2581takes": 4948, "ese": 4949, "\u2581El": 4950, "\u2581configuration": 4951, "\u2581Fin": 4952, "ev": 4953, "vention": 4954, "OK": 4955, "\u2581delete": 4956, "ancial": 4957, "IAL": 4958, "\u2581images": 4959, "Click": 4960, "\u51fa\u4e86": 4961, "plot": 4962, "\u5b9e\u9a8c": 4963, "\u89c6\u9891": 4964, "Order": 4965, "\u2581Pre": 4966, "win": 4967, ">();\\": 4968, "Position": 4969, "\u5e7f\u4e1c": 4970, "*\\": 4971, "\u2581db": 4972, "Thread": 4973, "\u8d85\u8fc7": 4974, "ques": 4975, "models": 4976, "\u2581County": 4977, "\u2581espec": 4978, "atur": 4979, "\u2581news": 4980, "edit": 4981, "nif": 4982, "otes": 4983, "It": 4984, "Connection": 4985, "\u2581obtain": 4986, "\u2581sample": 4987, "\u2581Use": 4988, "\u2581ir": 4989, "Entry": 4990, "bottom": 4991, "ICENSE": 4992, "cache": 4993, "%.": 4994, "\u2581includes": 4995, "\u2581players": 4996, "\u968f\u7740": 4997, "ensive": 4998, "\u2581platform": 4999, "expected": 5000, "stack": 5001, "\u2581War": 5002, "\u4fdd\u969c": 5003, "\u59d4\u5458": 5004, "\u2581Off": 5005, "\u2581Text": 5006, "Access": 5007, "Level": 5008, "\u2581General": 5009, "\u2581cross": 5010, "\u2581associated": 5011, "QU": 5012, "\u53d6\u5f97": 5013, "zer": 5014, "\u2581lines": 5015, "\u00e3o": 5016, "\u2581specified": 5017, "tab": 5018, "\u8c03\u6574": 5019, "\u2581Park": 5020, "props": 5021, "Open": 5022, "\u2581according": 5023, "VAL": 5024, "\u2581Windows": 5025, "\u2581regard": 5026, "\u7269\u8d28": 5027, "This": 5028, "system": 5029, "\u4ee5\u6765": 5030, "\u673a\u68b0": 5031, "ynamic": 5032, "\u2581Read": 5033, "Char": 5034, "kit": 5035, "\u4e3a\u4ec0\u4e48": 5036, "\u2581April": 5037, "\u2581Write": 5038, "alled": 5039, "Ass": 5040, "\u2581vers": 5041, "\u4fdd\u9669": 5042, "\u6210\u7acb": 5043, "\u2581term": 5044, "outer": 5045, "\u2581grad": 5046, "Option": 5047, "element": 5048, "\u2581simply": 5049, "Work": 5050, ":(": 5051, "\u2581likely": 5052, "ams": 5053, "\u2581library": 5054, "ZE": 5055, "Min": 5056, "rip": 5057, "\u610f\u89c1": 5058, "\u2581isn": 5059, "\u2581\u043f": 5060, "\u2581moment": 5061, "\u2581none": 5062, "weet": 5063, "\u2581His": 5064, "\u2581July": 5065, "\u2581selected": 5066, "\u2581production": 5067, "cember": 5068, "\u2581determin": 5069, "\u6267\u884c": 5070, "\u2581Comm": 5071, "\u884c\u653f": 5072, "\u2581appear": 5073, "\u804c\u4f4d": 5074, "blob": 5075, "rown": 5076, "\u2581util": 5077, "Params": 5078, "\u5730\u4ea7": 5079, "\u5f15\u8d77": 5080, "Bar": 5081, "\u8bbe\u7f6e": 5082, "\u2581areas": 5083, "\u2581\u4e2a": 5084, "\u2581Just": 5085, "SH": 5086, "\u2581groups": 5087, "\u2581reading": 5088, "\u2581tour": 5089, "\u4f9b\u5e94": 5090, "isf": 5091, "entry": 5092, "\u5f62\u5f0f": 5093, "andid": 5094, "\u2581couple": 5095, "ORM": 5096, "\u2581conc": 5097, "spring": 5098, "\u7b2c\u4e09": 5099, "\u2581\\\"\\\\": 5100, "\u2581AND": 5101, "\u2581Software": 5102, "\u2581challeng": 5103, "\u2581Fig": 5104, "\u2581extra": 5105, "lim": 5106, "IR": 5107, "ables": 5108, "DIR": 5109, "\u94fe\u63a5": 5110, "\u2581virtual": 5111, "Project": 5112, "\u2581Here": 5113, "ua": 5114, "\u2581nav": 5115, "\u5e72\u90e8": 5116, "\u2581buffer": 5117, "\u65b9\u4fbf": 5118, "\u2581trust": 5119, "\u5236\u9020": 5120, "\u2581quite": 5121, "istance": 5122, "alpha": 5123, "vec": 5124, "\u2581nothing": 5125, "DF": 5126, "\u8c22\u8c22": 5127, "\u2581WIT": 5128, "\u2581resources": 5129, "\u5206\u522b": 5130, "']\\": 5131, "mode": 5132, "TER": 5133, "\u2581exception": 5134, "\u2581switch": 5135, "\u2581{}\\": 5136, "\u2581fire": 5137, "\u2581Aut": 5138, "GET": 5139, "(-": 5140, "\u2581recogn": 5141, "dt": 5142, "\u2581Error": 5143, "\u2581wonder": 5144, "\u5b89\u88c5": 5145, "NS": 5146, "\u2581Pres": 5147, "aches": 5148, "NC": 5149, "pay": 5150, "make": 5151, "quare": 5152, "\u4ee5\u540e": 5153, "\u7a3f\u4ef6": 5154, "\u7ecf\u7406": 5155, "\u2581shown": 5156, "\u4fc3\u8fdb": 5157, "\u4e3e\u884c": 5158, "\u2581Now": 5159, "icens": 5160, "\u2581Mod": 5161, "adow": 5162, "Hash": 5163, "\u2581wanted": 5164, "\u2581<?": 5165, "grad": 5166, "\u2581Cre": 5167, "rief": 5168, "\u2581internal": 5169, "nHow": 5170, "\u2581ensure": 5171, "\u2581failed": 5172, "\u2581round": 5173, "before": 5174, "\u2581solid": 5175, "\u2581soon": 5176, "adem": 5177, "ATH": 5178, "offset": 5179, "eds": 5180, "total": 5181, "\u2581Hel": 5182, "\u627f\u62c5": 5183, "\u2581argument": 5184, "nCh": 5185, "imestamp": 5186, "\u2581almost": 5187, "\u2581industry": 5188, "\u2581regular": 5189, "Interface": 5190, "\u7fa4\u4f17": 5191, "BC": 5192, "\u2581released": 5193, "\u2581[\\\"": 5194, "\u2581empty": 5195, "Store": 5196, "\u673a\u4f1a": 5197, "Repository": 5198, "\u2581\u043e": 5199, "\u0440\u0430": 5200, "\u2581\u7cbe": 5201, "\u2581capt": 5202, "\u5171\u540c": 5203, "\u2581quant": 5204, "\u2581reference": 5205, "\u2581condition": 5206, "uestion": 5207, "\u89e3\u7b54": 5208, "\u2581La": 5209, "\u2581favor": 5210, "sign": 5211, "\u2581novel": 5212, "mas": 5213, "car": 5214, "\u2581repl": 5215, "\u2581ways": 5216, "\u2581played": 5217, "\u2581Our": 5218, "\u2581thread": 5219, "artment": 5220, "LL": 5221, "Pol": 5222, "\u2581Brit": 5223, "nEx": 5224, "\u2581pretty": 5225, "NA": 5226, "$_{": 5227, "\u2581cook": 5228, ">&": 5229, "\u2581{{": 5230, "eb": 5231, "\u2581upon": 5232, "\u2581German": 5233, "iting": 5234, "ellow": 5235, "ycle": 5236, "\u2581ful": 5237, "\u4e0b\u9762\u7684": 5238, "gorithm": 5239, "equal": 5240, "aily": 5241, "\u2581August": 5242, "\u7b80\u4ecb": 5243, "('/": 5244, "\u2581former": 5245, "\u2581held": 5246, "\u2581},": 5247, "\u2581\u0432": 5248, "\u6307\u5bfc": 5249, "quires": 5250, "\u2581sense": 5251, "\u2581January": 5252, "\u591a\u5c11": 5253, "\u2581\u3011\u3010": 5254, "\u91d1\u878d": 5255, "\u5e76\u4e14": 5256, "ico": 5257, "\u4e30\u5bcc": 5258, "wner": 5259, "\u7ade\u4e89": 5260, "\u8eab\u4f53": 5261, "PT": 5262, "\u2581tree": 5263, "\u2581Lo": 5264, "Window": 5265, "sy": 5266, "\u2581allows": 5267, "\u2581Code": 5268, "\u2581effort": 5269, "\u2581published": 5270, "\u2581Am": 5271, "ME": 5272, "\u660e\u663e": 5273, "\u4f60\u4eec": 5274, "\u4e3b\u4efb": 5275, "\u6536\u5165": 5276, "uy": 5277, "bot": 5278, "\u8bbe\u65bd": 5279, "\u2581Loc": 5280, "\u2581Build": 5281, "\u2581mut": 5282, "Vector": 5283, "\u2581stat": 5284, "bind": 5285, "\u2581located": 5286, "document": 5287, "job": 5288, "Unit": 5289, "toString": 5290, "rot": 5291, "\u2581September": 5292, "\u53d7\u5230": 5293, "\u2581parse": 5294, "\u2581matter": 5295, "\u2581{\\\"": 5296, "vm": 5297, "ernel": 5298, "\u2581From": 5299, "AND": 5300, "\u2581bound": 5301, "\u2581comb": 5302, "\u2581looks": 5303, "\u2581indic": 5304, "\u575a\u6301": 5305, "\u2581evalu": 5306, "\u2581flex": 5307, "\u2581hit": 5308, "\u2581war": 5309, "\u2581\u0438": 5310, "ech": 5311, "atory": 5312, "nov": 5313, "\u2581msg": 5314, "afe": 5315, "replace": 5316, "semb": 5317, "ufact": 5318, "\u2581alt": 5319, "\u2581fast": 5320, "\u2581especially": 5321, "\u2581technology": 5322, "example": 5323, "\u8fd0\u884c": 5324, "witter": 5325, "\u2581Exception": 5326, "\u2581Free": 5327, "\u2581natural": 5328, "\u2581hom": 5329, "\u5173\u95ed": 5330, "\u2581Then": 5331, "Return": 5332, "\u2581average": 5333, "\u2581living": 5334, "\u2581header": 5335, "\u2581Are": 5336, ";&": 5337, "\u6536\u85cf": 5338, "\\\\\\": 5339, "Settings": 5340, "iler": 5341, "\u2581\u043d": 5342, "\u5fc3\u7406": 5343, "\u653f\u6cbb": 5344, "\u2581train": 5345, "acter": 5346, "\u89c4\u6a21": 5347, "Cache": 5348, "\u6c11\u65cf": 5349, "Num": 5350, "Location": 5351, "\u2581October": 5352, "\u2581Map": 5353, "\u2581fn": 5354, "\u2581errors": 5355, "\u7406\u89e3": 5356, "nes": 5357, "\u2581ang": 5358, "Draw": 5359, "\u4ebf\u5143": 5360, "ferred": 5361, "\u8bb0\u5f55": 5362, "\u2581security": 5363, "\u8fd9\u6837\u7684": 5364, "ulti": 5365, "\u2581CO": 5366, "\u2581son": 5367, "asic": 5368, "\u2581maint": 5369, "\u4e0d\u5230": 5370, "\u7279\u70b9": 5371, "/*\\": 5372, "CA": 5373, "\u0441\u0442": 5374, "GE": 5375, "\u2581Microsoft": 5376, "?:": 5377, "Net": 5378, "success": 5379, "\u2581hon": 5380, "nend": 5381, "\u2581actual": 5382, "\u2581interesting": 5383, "\u2581changed": 5384, "urity": 5385, "vas": 5386, "Helper": 5387, "\u2581matrix": 5388, "\u2581Don": 5389, ")]\\": 5390, "Target": 5391, "Dec": 5392, "ROM": 5393, "\u2581everyone": 5394, "\u2581negative": 5395, "\u2581ut": 5396, "vey": 5397, "\u2581.\\": 5398, "\u2581correspon": 5399, "ociety": 5400, "\u2581sem": 5401, "\u5408\u7406": 5402, "\u65b9\u5411": 5403, "\u5148\u8fdb": 5404, "AGE": 5405, "\u2581avoid": 5406, "INE": 5407, "actor": 5408, "oice": 5409, "draw": 5410, "match": 5411, "eft": 5412, "\u2581contract": 5413, "Height": 5414, "\u2581told": 5415, "render": 5416, "pare": 5417, "\u2581cause": 5418, "\u2581Gre": 5419, "iant": 5420, "\u6709\u4e00": 5421, "IF": 5422, "\u2581choose": 5423, "\u2581companies": 5424, "\u2581career": 5425, "acc": 5426, "\u2581knowledge": 5427, "\u66f4\u52a0": 5428, "register": 5429, "\u2581Mat": 5430, "\u65b0\u534e": 5431, "Tool": 5432, "%;\\": 5433, "\u2581longer": 5434, "\u2581settings": 5435, "lose": 5436, "\u2581consist": 5437, "Stack": 5438, "transform": 5439, "IONS": 5440, "\u2581necessary": 5441, "handle": 5442, "''": 5443, "\u2581Name": 5444, "\u63d0\u5347": 5445, "\u2581scale": 5446, "\u2581Thanks": 5447, "\u2581stre": 5448, "Session": 5449, "\u533a\u57df": 5450, "\u5373\u53ef": 5451, "\u2581attack": 5452, "\u2581\u4f5c\u8005": 5453, "\u2581ste": 5454, "\u2581popular": 5455, "\\\"),": 5456, "\u2581measure": 5457, "\u2581national": 5458, "ien": 5459, "\u2581dam": 5460, "\u2581frame": 5461, "\u2581numbers": 5462, "media": 5463, "\u2581growth": 5464, "atives": 5465, "\u2581affect": 5466, "\u7684\u9ad8": 5467, "pring": 5468, "\u2581existing": 5469, "background": 5470, "\u2581policy": 5471, "\u4f18\u79c0": 5472, "aste": 5473, "nprint": 5474, "\u2581attempt": 5475, "\u6709\u4e9b": 5476, "\u2581Group": 5477, "\u2581latest": 5478, "ownload": 5479, "\u2581frequ": 5480, "bruary": 5481, "aved": 5482, "\u4e4b\u524d": 5483, "If": 5484, "\u2581Inc": 5485, "romise": 5486, "\u2581ill": 5487, "\u2581feed": 5488, "END": 5489, "CS": 5490, "\u2581links": 5491, "\u98ce\u9669": 5492, "\u2581wrong": 5493, "\u2581Ac": 5494, "\u2581recent": 5495, "BO": 5496, "\u5145\u5206": 5497, "\u2581jav": 5498, "Tree": 5499, "\u6700\u5927": 5500, "rb": 5501, "resource": 5502, "ById": 5503, "\u2581vert": 5504, "\u2581Cr": 5505, ")))\\": 5506, "\u9886\u57df": 5507, "\u2581auth": 5508, "\u2581Sch": 5509, "foot": 5510, "\u2581Sw": 5511, "Parameter": 5512, "enced": 5513, "UD": 5514, "fit": 5515, "keys": 5516, "category": 5517, "\u2581Found": 5518, "urance": 5519, "\u2581{@": 5520, "\u2581offset": 5521, "oe": 5522, "\u2581office": 5523, "\u2581outside": 5524, "assets": 5525, "\u3001\\\"": 5526, "\u53ea\u8981": 5527, "lice": 5528, "\u2581'<": 5529, "nWhen": 5530, "\u67e5\u8be2": 5531, "\u2581worked": 5532, "\u2581offers": 5533, "nAnd": 5534, "\u2581IP": 5535, "\u2581\u300a": 5536, "\u2581ground": 5537, "\u2581states": 5538, "\u533b\u7597": 5539, "tw": 5540, "(=": 5541, "\u2581hor": 5542, "\u6bcf\u5929": 5543, "sq": 5544, "agment": 5545, "hood": 5546, "Bl": 5547, "modules": 5548, "\u671f\u95f4": 5549, "pat": 5550, "oes": 5551, "tmp": 5552, "\u2581progress": 5553, "\u2581password": 5554, "\u2581channel": 5555, "\u5feb\u901f": 5556, "\u8fc7\u7a0b\u4e2d": 5557, "Search": 5558, "gree": 5559, "\u53ec\u5f00": 5560, "\u2581directly": 5561, "FAULT": 5562, "\u2581Tech": 5563, "Column": 5564, "\u2581Let": 5565, "ERROR": 5566, "\u2581beautiful": 5567, "pop": 5568, "more": 5569, "\u519c\u6751": 5570, "jav": 5571, "\u65f6\u5c1a": 5572, "Br": 5573, "drop": 5574, "\u2581Austral": 5575, "\u2581itself": 5576, "arter": 5577, "\u2581party": 5578, "cloud": 5579, "\u79fb\u52a8": 5580, "\u8bc4\u5206": 5581, "nHe": 5582, "tree": 5583, "incip": 5584, "MO": 5585, "\u5458\u5de5": 5586, "(*": 5587, "\u2581professional": 5588, "ATA": 5589, "\u2581machine": 5590, "ncy": 5591, "Port": 5592, "\u957f\u671f": 5593, "\u6b63\u5f0f": 5594, "\u6700\u9ad8": 5595, "\\\"),\\": 5596, "\u2581iter": 5597, "\u2581vector": 5598, "\u2581sound": 5599, "usr": 5600, "GB": 5601, "\u00f3n": 5602, "\u2581November": 5603, "boot": 5604, "Dr": 5605, "free": 5606, "\u2581band": 5607, "\u2581\u5e74": 5608, "\u9664\u4e86": 5609, "\u2581callback": 5610, "\u2581First": 5611, "\u2581board": 5612, "ees": 5613, "\u2581usually": 5614, "site": 5615, "\u2581returned": 5616, "\u2581Google": 5617, "second": 5618, "\u624b\u672f": 5619, "ria": 5620, "________________": 5621, "\u4e2d\u534e": 5622, "illing": 5623, "\u2581generate": 5624, "thern": 5625, "\u4e0d\u53ef": 5626, "otype": 5627, "\u8003\u8651": 5628, "grid": 5629, "copy": 5630, "holder": 5631, "\u2581Port": 5632, "\u2581considered": 5633, "ara": 5634, "case": 5635, "':\\": 5636, "\\\"]\\": 5637, "arrow": 5638, "apan": 5639, "nU": 5640, "chedule": 5641, "\u8bbf\u95ee": 5642, "\u5206\u7c7b": 5643, "loss": 5644, "\u2581\u516c\u53f8": 5645, "\u2581dom": 5646, "Top": 5647, "plete": 5648, "Body": 5649, "anges": 5650, "\u2581er": 5651, "ACK": 5652, "\u2581education": 5653, "\u8054\u5408": 5654, "cb": 5655, "\u2581),\\": 5656, "\u2581Center": 5657, "aul": 5658, "\u2581sing": 5659, "Ab": 5660, "\u7684\u53d1\u5c55": 5661, "\u4e0d\u9519": 5662, "\u2581steps": 5663, "=\\\"{{": 5664, "\u63aa\u65bd": 5665, "Integer": 5666, "styles": 5667, "\u4e0b\u5348": 5668, "\u2581absol": 5669, "\u4e2d\u592e": 5670, "\u4f18\u52bf": 5671, "\u6d4b\u8bd5": 5672, "\u6539\u53d8": 5673, "aml": 5674, "\u4e25\u91cd": 5675, "ped": 5676, "ctor": 5677, "public": 5678, "nAl": 5679, "\u2581mention": 5680, "\u6210\u7ee9": 5681, "\u7a33\u5b9a": 5682, "OW": 5683, "\u51cf\u5c11": 5684, "icensed": 5685, "\u2581\u9ad8": 5686, "\u2581yourself": 5687, "\u751f\u547d": 5688, "\u8ba4\u8bc6": 5689, "\u2581December": 5690, "\u2581Answer": 5691, "\u2581Stud": 5692, "cing": 5693, "\u2581deep": 5694, "\u5b89\u6392": 5695, "\u2581phone": 5696, "\u2581parts": 5697, "\\\"));\\": 5698, "Bo": 5699, "\u2581++": 5700, "hell": 5701, "ndefined": 5702, "Product": 5703, "\u2581\u65e5": 5704, "Const": 5705, "double": 5706, "plicit": 5707, "\u2581birth": 5708, "\u7edf\u8ba1": 5709, "func": 5710, "HER": 5711, "\u4ee3\u7406": 5712, "\u2581cas": 5713, "WAR": 5714, "\u6587\u5b57": 5715, "access": 5716, "\u6d88\u8d39\u8005": 5717, "cape": 5718, "\u2581movie": 5719, "aign": 5720, "\u2581ok": 5721, "\u2581behind": 5722, "\u2581patients": 5723, "\u2581population": 5724, "\u5e73\u65b9": 5725, "JSON": 5726, "ategories": 5727, "\u2581storage": 5728, "\u2581container": 5729, "Current": 5730, "\u6570\u91cf": 5731, "\u2581Azure": 5732, "\u2581Value": 5733, "tep": 5734, "orig": 5735, "\u2581road": 5736, "\u2581JSON": 5737, "{}": 5738, "settings": 5739, "hs": 5740, "NE": 5741, "\u2581setting": 5742, "impl": 5743, "lood": 5744, "CK": 5745, "components": 5746, "\u2581behavior": 5747, "\u2581pull": 5748, "sort": 5749, "nSo": 5750, "\u6240\u5728": 5751, "attle": 5752, "WORD": 5753, "\u5973\u6027": 5754, "\u6210\u672c": 5755, "itect": 5756, "\u2581concept": 5757, "Collection": 5758, "\u9488\u5bf9": 5759, "nint": 5760, "equ": 5761, "\u2581proper": 5762, "\u2581useful": 5763, "comes": 5764, "\u75be\u75c5": 5765, "CM": 5766, "\u90a3\u4e9b": 5767, "\u505a\u597d": 5768, "\u2581travel": 5769, "\u2581receive": 5770, "\u538b\u529b": 5771, "\u2581Air": 5772, "final": 5773, "ses": 5774, "\u2581understanding": 5775, "\u90a3\u4e2a": 5776, "\u2581ign": 5777, "install": 5778, "\u2581\u5317\u4eac": 5779, "\u53c2\u8003": 5780, "volution": 5781, "\u2581notice": 5782, "\u2581comments": 5783, "ials": 5784, "Async": 5785, "dest": 5786, "\u2581operation": 5787, "\u2581treatment": 5788, "bert": 5789, "\u5c71\u4e1c": 5790, "\u2581coming": 5791, "Render": 5792, "\u2581Color": 5793, "\u90fd\u6709": 5794, "\u91cd\u5e86": 5795, "\u771f\u6b63": 5796, "ores": 5797, "\u2581town": 5798, "\u5a31\u4e50": 5799, "sup": 5800, "hem": 5801, "\u2581Model": 5802, "insert": 5803, "Mem": 5804, "\u2581techn": 5805, "covery": 5806, "\u2581goal": 5807, "\u2581distribution": 5808, "\u9636\u6bb5": 5809, "\u2581tra": 5810, "chen": 5811, "apped": 5812, "\u5dde\u5e02": 5813, "\u2581began": 5814, "\u8bc4\u4ef7": 5815, "sem": 5816, "\u2581ones": 5817, "account": 5818, "help": 5819, "\u2581namespace": 5820, "\u2581sym": 5821, "\u2581House": 5822, "ecurity": 5823, "uge": 5824, "\u5bc6\u7801": 5825, "\u672c\u9898": 5826, "\u6545\u9009": 5827, "\u5316\u5b66": 5828, "\u2581\u3001": 5829, "\u6545\u4e8b": 5830, "rupt": 5831, "<<": 5832, "anner": 5833, "oom": 5834, "\u2581pour": 5835, "\u7ffb\u8bd1": 5836, "\u4f53\u7684": 5837, "resol": 5838, "\u5f53\u7136": 5839, "QQ": 5840, "Application": 5841, "login": 5842, "\u51fa\u53e3": 5843, "\u2581fixed": 5844, "Auth": 5845, "\u2581Assert": 5846, "\u2581PM": 5847, "ington": 5848, "\u2581license": 5849, "\u2581Dav": 5850, "EXT": 5851, "Reader": 5852, "\u2581ready": 5853, "\u2581Math": 5854, "game": 5855, "\u2581sus": 5856, "\u2581staff": 5857, "\u2581recommend": 5858, "\u2581origin": 5859, "atio": 5860, "PP": 5861, "\u2581Bro": 5862, "scope": 5863, "ascript": 5864, "\u540e\u7684": 5865, "\u53e6\u5916": 5866, "random": 5867, "\u2581URL": 5868, "DD": 5869, "\u2581choice": 5870, "\u2581btn": 5871, "\u5f53\u65f6": 5872, "Del": 5873, "\u6d59\u6c5f": 5874, "\\\":\\": 5875, "ifest": 5876, "nname": 5877, "Enc": 5878, "\u2581updated": 5879, "application": 5880, "\u2581qual": 5881, "icip": 5882, "\u4e00\u70b9": 5883, "Icon": 5884, "\u6700\u8fd1": 5885, "\u53ea\u80fd": 5886, "\u2581actions": 5887, "\u2581bre": 5888, "\u2581encour": 5889, "\u2581force": 5890, "\u5927\u91cf": 5891, "\u56e0\u7d20": 5892, "hr": 5893, "\u2581designed": 5894, "\u2581activity": 5895, "\u73b0\u8c61": 5896, "\u4e5f\u6709": 5897, "\u8ba4\u771f": 5898, "\u2581lives": 5899, "\u2581leave": 5900, "itch": 5901, "ocr": 5902, "\u2581difference": 5903, "SL": 5904, "returns": 5905, "\u2581nice": 5906, "\u2581optim": 5907, "\u8d39\u7528": 5908, "\u7ed3\u675f": 5909, "ensity": 5910, "criptor": 5911, "\u2581Apache": 5912, "enge": 5913, "oph": 5914, "\u662f\u4ec0\u4e48": 5915, "\u7279\u8272": 5916, "\u2581func": 5917, "thread": 5918, "words": 5919, "\u2581multi": 5920, "\u57f9\u517b": 5921, "\u2581starting": 5922, "illed": 5923, "\u2581Ob": 5924, "esh": 5925, "\u6301\u7eed": 5926, "\u2581convert": 5927, "\u2581theme": 5928, "ails": 5929, "egr": 5930, "\u7a0b\u5ea6": 5931, "\u786e\u5b9a": 5932, "\u5e74\u6765": 5933, "range": 5934, "\u76d1\u7763": 5935, "Description": 5936, "alls": 5937, "ares": 5938, "telse": 5939, "\u2581bed": 5940, "One": 5941, "\u89c4\u8303": 5942, "\u8fc7\u53bb": 5943, "\u2581shop": 5944, "Args": 5945, "\u2581reported": 5946, "\u2581worth": 5947, "\u4e8b\u4e1a": 5948, "Logger": 5949, "\u2581cells": 5950, "mitted": 5951, "player": 5952, "\u65f6\u4ee3": 5953, "\u672a\u6765": 5954, "\u6574\u4e2a": 5955, "Activity": 5956, "\u529e\u6cd5": 5957, "plugin": 5958, "column": 5959, "\u2581throughout": 5960, "\u2581sil": 5961, "\u2581lost": 5962, "\u7ef4\u62a4": 5963, "\u2581Cour": 5964, "ODO": 5965, "\u2581speed": 5966, "\u2581equal": 5967, "\u2581projects": 5968, "\u2581passed": 5969, "EE": 5970, "Mon": 5971, "cap": 5972, "quired": 5973, "LOG": 5974, "SET": 5975, "\u2581generated": 5976, "\u2581Top": 5977, "\u2581execut": 5978, "\u2581\u5f53\u524d": 5979, "\u4f53\u7cfb": 5980, "\u53bb\u5e74": 5981, "\u2581constant": 5982, "rate": 5983, "Account": 5984, "\u2581Returns": 5985, "ANTIES": 5986, "\u2581King": 5987, "rd": 5988, "\u2581shape": 5989, "\u9002\u5408": 5990, "\u2581io": 5991, "ampion": 5992, "\u610f\u8bc6": 5993, "\u4e92\u8054": 5994, "pers": 5995, "Device": 5996, "\u2581objects": 5997, "\u2581Config": 5998, "\u2581asked": 5999, "\u8bfe\u7a0b": 6000, "\u5b9e\u8df5": 6001, "\u7edf\u4e00": 6002, "\u2581allowed": 6003, "\u2581practice": 6004, "\u4e0b\u5217": 6005, "\u2581anyone": 6006, "\u2581books": 6007, ";;": 6008, "\u2581{}": 6009, "\u2581customer": 6010, "\u2581WARRANTIES": 6011, "Ptr": 6012, "\u2581rot": 6013, "\u2581operator": 6014, "\u5c31\u4f1a": 6015, "band": 6016, "za": 6017, "\u2581Day": 6018, "(){\\": 6019, "dates": 6020, "\u2581Spec": 6021, "\u6570\u5b57": 6022, "\u8ba1\u7b97\u673a": 6023, "bon": 6024, "\u2581temper": 6025, "\u2581byte": 6026, "users": 6027, "\u7684\u5de5\u4f5c": 6028, "TA": 6029, "\u2581inform": 6030, "\u2581club": 6031, "\u4e66\u8bb0": 6032, "\u5220\u9664": 6033, "\u2581Health": 6034, "\u2581Pat": 6035, "\u2581gets": 6036, "points": 6037, "\u5c0f\u5b66": 6038, "tre": 6039, "\u4e0d\u5c11": 6040, "Parser": 6041, "\u2581Ag": 6042, "My": 6043, "\u2581\\\",": 6044, "\u2581Har": 6045, "\u2581('": 6046, "aby": 6047, "\u2581layer": 6048, "\u2581creating": 6049, "\u2581Her": 6050, "uple": 6051, "Record": 6052, "avy": 6053, "\u8fd4\u56de": 6054, "\u4f4d\u4e8e": 6055, "\u2581described": 6056, "phone": 6057, "\u7ec4\u6210": 6058, "strap": 6059, "scale": 6060, "\u2581Black": 6061, "\u2581levels": 6062, "Graph": 6063, "\u9996\u5148": 6064, "Callback": 6065, "\u5e7f\u5927": 6066, "\u2581East": 6067, "\u2581decision": 6068, "allow": 6069, "hold": 6070, "ipeline": 6071, "\u2581..": 6072, ",'": 6073, "aws": 6074, "\u2581Image": 6075, "ango": 6076, "nSt": 6077, "\u2581\u4e09": 6078, "SQL": 6079, "\u65e5\u62a5": 6080, "\u2581independ": 6081, "Template": 6082, "\u8ddd\u79bb": 6083, "RES": 6084, "HOUT": 6085, "\u2581d\u00e9": 6086, "ership": 6087, "PORT": 6088, "\u52b3\u52a8": 6089, "\u2581core": 6090, "front": 6091, "\u2581``": 6092, "\u2581React": 6093, "Local": 6094, "\u2581Project": 6095, ".)": 6096, "\u0442\u043e": 6097, "ondon": 6098, "eg": 6099, "Impl": 6100, "\u2581aud": 6101, "\u2581FOR": 6102, "full": 6103, "_.": 6104, "\u52a0\u5165": 6105, "\u5927\u5c0f": 6106, "\u2581Russ": 6107, "\u2581\u4e0b\u4e00": 6108, "\u52a0\u5de5": 6109, "\u4e0d\u77e5\u9053": 6110, "Cell": 6111, "Values": 6112, "\u2581oil": 6113, "\u2581Sim": 6114, "\u2581Afr": 6115, ".__": 6116, "Document": 6117, "logger": 6118, "\u7684\u65b0": 6119, "how": 6120, "\u534f\u8bae": 6121, "\u2581contain": 6122, "sets": 6123, "\u8425\u9500": 6124, "asons": 6125, "\u2581mid": 6126, "\u2581elif": 6127, "\u2581essential": 6128, "bur": 6129, "MAX": 6130, "argument": 6131, "\u2581Home": 6132, "\u2581py": 6133, "itution": 6134, "\u2581February": 6135, "ining": 6136, "\u2581Option": 6137, "\u2581\u2022": 6138, "\u2581variables": 6139, "Load": 6140, "\u2581weeks": 6141, "\u2581\u8f6f\u4ef6": 6142, "\u9762\u7684": 6143, "\u2581Christian": 6144, "\u2581cli": 6145, "\u2581javax": 6146, "\u2581End": 6147, "Range": 6148, "\u2581para": 6149, "ipment": 6150, "\u2581tools": 6151, "\u8fdb\u884c\u4e86": 6152, "oon": 6153, "oke": 6154, "\u2581Id": 6155, "Edit": 6156, "\u2581aspect": 6157, "omic": 6158, "\u2581resid": 6159, "\u2581Book": 6160, "\u7684\u60c5\u51b5": 6161, "\u2581implementation": 6162, "\u2581lock": 6163, "\u2581playing": 6164, "ford": 6165, "\u2581inc": 6166, "agon": 6167, "fd": 6168, "\u2581prec": 6169, "addr": 6170, "arp": 6171, "term": 6172, "\u2581SO": 6173, "\u2581PRO": 6174, "Storage": 6175, "\u2581customers": 6176, "\u2581seek": 6177, "\u2581agreed": 6178, "\u786e\u4fdd": 6179, "\u2581Event": 6180, "equals": 6181, "\u2581ability": 6182, "ja": 6183, "\u2581Base": 6184, "\u2581bottom": 6185, "ini": 6186, "\u2581skills": 6187, "CN": 6188, "\u2581liter": 6189, "cmd": 6190, "\u5982\u6b64": 6191, "names": 6192, "\u2581classes": 6193, "interface": 6194, "EO": 6195, "\u4e8b\u4ef6": 6196, "\u5e26\u6765": 6197, ")\u3001": 6198, "ental": 6199, "ugins": 6200, "\u2581saf": 6201, "\u751f\u6210": 6202, "\u2581effective": 6203, "SA": 6204, "clear": 6205, "\u2581Any": 6206, "\u2581\u251c": 6207, "\u2581involved": 6208, "\u2581happy": 6209, "..\\": 6210, "\u2581cop": 6211, "\u2581ideas": 6212, "\u2581saw": 6213, "\u2581coord": 6214, "\u2581While": 6215, "required": 6216, "(:": 6217, "\u2581Of": 6218, "\u2581sec": 6219, "itute": 6220, ")/": 6221, "\u2581international": 6222, "\u2581sens": 6223, "\u2581woman": 6224, "Next": 6225, "\u2581Link": 6226, "ael": 6227, "\u2581*/": 6228, "\u2581led": 6229, "\u2581listen": 6230, "\u2581documentation": 6231, "'],": 6232, "\u516c\u5f00": 6233, ")->": 6234, "\u2581computer": 6235, "zy": 6236, "SO": 6237, "isions": 6238, "\u2581rules": 6239, "\u2581TH": 6240, "\u53e5\u5b50": 6241, "component": 6242, "\u6628\u5929": 6243, "\u4e00\u5207": 6244, "\u2581improve": 6245, "\u6837\u7684": 6246, "widget": 6247, "\u2581financial": 6248, "SION": 6249, "\u2581stage": 6250, "fill": 6251, "\u7c7b\u522b": 6252, "iki": 6253, "region": 6254, "\u62a5\u540d": 6255, "\u88c5\u4fee": 6256, "ictionary": 6257, "\u6700\u7ec8": 6258, "println": 6259, "\u2581Start": 6260, "\u6587\u660e": 6261, "Player": 6262, "\u2581influ": 6263, "ospital": 6264, "plications": 6265, "ida": 6266, "lines": 6267, "Properties": 6268, "nthe": 6269, "peed": 6270, "rote": 6271, "atically": 6272, "}.": 6273, "duc": 6274, "\u91cc\u7684": 6275, "\u2581gives": 6276, "\u8d8a\u6765": 6277, "\u2581effects": 6278, "\u2581supported": 6279, "\u2581primary": 6280, "ulate": 6281, "\u2581imm": 6282, "icket": 6283, "\u7406\u8bba": 6284, "\u2581evid": 6285, "\u2581remember": 6286, "\u2581Over": 6287, "\u2581slow": 6288, "nBut": 6289, "\u2581insp": 6290, "\u2581\u65e0": 6291, "\u00a0\u00a0": 6292, "\u201d\\": 6293, "^^": 6294, "\u2581\u70b9\u51fb": 6295, "hi": 6296, "\u5b8c\u5584": 6297, "cert": 6298, "\u2581\u51fa": 6299, "\u6027\u80fd": 6300, "svg": 6301, "di": 6302, "\u2581easily": 6303, "emo": 6304, "\u2581International": 6305, "\u2581exam": 6306, "\u2581/**": 6307, "mselves": 6308, "zon": 6309, "Red": 6310, "lying": 6311, "\u8d8a\u6765\u8d8a": 6312, "\u51c6\u786e": 6313, "\u2581distance": 6314, "Last": 6315, "pass": 6316, "\u2581numer": 6317, "\u2581bytes": 6318, "\u6218\u7565": 6319, "rome": 6320, "nw": 6321, "Eng": 6322, "mock": 6323, "Go": 6324, "\u2581America": 6325, "\u2581reach": 6326, "\u63a8\u8fdb": 6327, "\u2581safe": 6328, "\u2581tried": 6329, "oms": 6330, ")\\\\": 6331, "\u2581San": 6332, "\u56e2\u961f": 6333, "\u610f\u4e49": 6334, "\u914d\u7f6e": 6335, "azure": 6336, "\u2581suff": 6337, "('#": 6338, "........": 6339, "ris": 6340, "inder": 6341, "\u63d0\u793a": 6342, "\u2581altern": 6343, "\u2581WITHOUT": 6344, "\u2581basic": 6345, "\u2581sal": 6346, "force": 6347, "Serial": 6348, "erry": 6349, "\u2581themselves": 6350, "\u2581push": 6351, "\u5988\u5988": 6352, "\u8bc1\u5238": 6353, "\\\"))": 6354, "ipping": 6355, "Sign": 6356, "\u2581applicable": 6357, "\u2581ten": 6358, "\u6700\u597d": 6359, "\u6ee1\u8db3": 6360, "inline": 6361, "}}\\": 6362, "\u2581\u76f8\u5173": 6363, "\u2581plant": 6364, "ancy": 6365, "\u591a\u7684": 6366, "\u76ae\u80a4": 6367, "\u53ef\u662f": 6368, "\u5c31\u4e1a": 6369, "orge": 6370, "\u2581testing": 6371, "\u4e0a\u4e00": 6372, "stop": 6373, "icks": 6374, "\u2581applications": 6375, "\u2581successful": 6376, "urt": 6377, "MENT": 6378, "\u2581plus": 6379, "vision": 6380, "\u81ea\u7531": 6381, "\u770b\u770b": 6382, "IGHT": 6383, "Custom": 6384, "SIZE": 6385, "\u534f\u4f1a": 6386, "plements": 6387, "\u2581leading": 6388, "Match": 6389, "\u2581political": 6390, "Que": 6391, "\u2581score": 6392, "\u2581direction": 6393, "\u6cd5\u89c4": 6394, "\u8d38\u6613": 6395, "aly": 6396, "\u2581rule": 6397, "plet": 6398, "\u2581park": 6399, "annels": 6400, "AV": 6401, "\u2581sou": 6402, ":\\\\": 6403, "\u2581Met": 6404, "\u2581\u91d1": 6405, "\u2581Canada": 6406, "cos": 6407, "\u2581immedi": 6408, "=(": 6409, "_{\\\\": 6410, "\u2581activities": 6411, "\u2581rout": 6412, "\u2581define": 6413, "\u2581(*": 6414, "\u2581student": 6415, "\u2581collect": 6416, "\u2581viol": 6417, "dl": 6418, "\u4e16\u7eaa": 6419, "\u2581Associ": 6420, "\u2581hash": 6421, "\u2581central": 6422, "uous": 6423, "\u2581Mich": 6424, "\u2581\u9996\u9875": 6425, "internal": 6426, "\u2581master": 6427, "ountry": 6428, "wood": 6429, "licenses": 6430, "\u2581Vis": 6431, "\u2581reserved": 6432, "illa": 6433, "\u2581missing": 6434, "isation": 6435, "\u2581convers": 6436, "\u2581goes": 6437, "views": 6438, "velopment": 6439, "ker": 6440, "\u2581''": 6441, "olec": 6442, "\u2581expression": 6443, "\u2581prevent": 6444, "\u2581fine": 6445, "kw": 6446, "ignment": 6447, "\u5341\u5206": 6448, "\u53d1\u5c55\u7684": 6449, "elcome": 6450, "\u6838\u5fc3": 6451, "License": 6452, "pub": 6453, "Dialog": 6454, "\u2581\u4e0a\u6d77": 6455, "\u4e0b\u7684": 6456, "'],\\": 6457, "\u2581neigh": 6458, "\u627e\u5230": 6459, "\u2581\u7f51": 6460, "Mock": 6461, "Host": 6462, "\u4e0a\u5e02": 6463, "POST": 6464, "\u2581stock": 6465, "\u2581\u9875": 6466, "temp": 6467, "\\\"\\\"\\\"\\": 6468, "endar": 6469, "\u2581\u6765\u6e90": 6470, "\u2581um": 6471, "operator": 6472, "uri": 6473, "ican": 6474, "mask": 6475, "\u2581requires": 6476, "\u513f\u7ae5": 6477, "\u2581setup": 6478, "\u2581discover": 6479, "Offset": 6480, "\u2581streng": 6481, "\u2581AM": 6482, "\u2581accur": 6483, "\u2581TV": 6484, "\u2581logger": 6485, "URE": 6486, "$,": 6487, "\u673a\u5173": 6488, "Found": 6489, "\u2581icon": 6490, "Users": 6491, "Widget": 6492, "sig": 6493, "\u6c27\u5316": 6494, "cite": 6495, "\u2581undefined": 6496, "\u2581dro": 6497, "\u2581Product": 6498, "acement": 6499, "\u76f8\u4fe1": 6500, "imately": 6501, "sembly": 6502, "\u2581prop": 6503, "onstr": 6504, "real": 6505, "track": 6506, "\u4eba\u58eb": 6507, "\u2581veh": 6508, "\u2581unsigned": 6509, "nCom": 6510, "\u2581cache": 6511, "\u2581\u7528": 6512, "ifications": 6513, "\u2581satisf": 6514, "Items": 6515, "IE": 6516, "inux": 6517, "agram": 6518, "strict": 6519, "\u660e\u786e": 6520, "WS": 6521, "\u2581recently": 6522, "\u2581Japan": 6523, "\u2581fill": 6524, "\u638c\u63e1": 6525, "\u2581Ben": 6526, "irit": 6527, "riend": 6528, "\u2581Other": 6529, "\u2581decided": 6530, "normal": 6531, ")).": 6532, "\u2581python": 6533, "iring": 6534, "Are": 6535, "\u662f\u4e00\u79cd": 6536, "DA": 6537, "\u2581Table": 6538, ".[": 6539, "\\\"\u3001\\\"": 6540, "\u2581stack": 6541, "\u2581Del": 6542, "itation": 6543, "\u2581drop": 6544, "manager": 6545, "\u7528\u7684": 6546, "foo": 6547, "zip": 6548, "hidden": 6549, "\u6df1\u5165": 6550, "\u2581!==": 6551, "\u5199\u51fa": 6552, "\u540d\u5b57": 6553, "\u2581reli": 6554, "\u2581Title": 6555, "\u2581---": 6556, "\u4e0b\u6765": 6557, "ailed": 6558, "acket": 6559, "\u52a8\u7269": 6560, "printf": 6561, "\u2581AR": 6562, "ilies": 6563, "\u0440\u043e": 6564, "ILITY": 6565, "\u2581\u5982\u679c": 6566, "IV": 6567, "\u2581Python": 6568, "ooth": 6569, "\u5143\u7d20": 6570, "\u2581arguments": 6571, "none": 6572, "\u2581domain": 6573, "rib": 6574, "modal": 6575, "\u516c\u544a": 6576, "\u2581permissions": 6577, "\u52a8\u6001": 6578, "\u529b\u7684": 6579, "\u2581Update": 6580, "\u2581components": 6581, "\u843d\u5b9e": 6582, "\u2581Dec": 6583, "ometry": 6584, "het": 6585, "\u2581implied": 6586, "\u2581finally": 6587, "\u7ecf\u5e38": 6588, "PH": 6589, "\u6c5f\u82cf": 6590, "\u2581developed": 6591, "Err": 6592, "lor": 6593, "Me": 6594, "urrency": 6595, "\u2581sell": 6596, "\u51e0\u4e2a": 6597, "\u2581Hol": 6598, "\u2581dise": 6599, "\u4e0d\u540c\u7684": 6600, "lier": 6601, "asy": 6602, "LICENSE": 6603, "\u5408\u540c": 6604, "\u2581football": 6605, "\u73af\u4fdd": 6606, "\u2581Server": 6607, "\u2581Also": 6608, "fc": 6609, "\u2581sn": 6610, "while": 6611, "\u2581bus": 6612, "DS": 6613, "\u6bd4\u5982": 6614, "\u2581studies": 6615, "\u5c55\u793a": 6616, "\u2581amaz": 6617, "Co": 6618, ",\\\\": 6619, "asure": 6620, "\u2581modern": 6621, "\u2581il": 6622, "asc": 6623, "\u519c\u6c11": 6624, "First": 6625, "\u2581Rel": 6626, "\u826f\u597d\u7684": 6627, "\u2581ev": 6628, "$.": 6629, "\u2581mount": 6630, "\u5305\u88c5": 6631, "\u2581Java": 6632, "\u2581fem": 6633, "\u2581countries": 6634, "\u2581bug": 6635, "\u2581Translate": 6636, "\u2581mechan": 6637, "\u533b\u751f": 6638, "Game": 6639, "\u57fa\u5730": 6640, "\u2581histor": 6641, "\u6709\u4eba": 6642, "Cre": 6643, "grade": 6644, "window": 6645, "levant": 6646, "profile": 6647, "PATH": 6648, "\u884c\u52a8": 6649, "iding": 6650, "hentication": 6651, "\u2581Program": 6652, "sim": 6653, "\u2581\u043a": 6654, "dec": 6655, "\u53f0\u6e7e": 6656, "\u2581temp": 6657, "\u4e0a\u8ff0": 6658, "\u5de5\u4f5c\u7684": 6659, "channel": 6660, "\u2581dark": 6661, "\u2581-->": 6662, "\u2581manufact": 6663, "ano": 6664, ")[": 6665, "\u2581middle": 6666, "=\\\"/": 6667, "\u59d4\u5458\u4f1a": 6668, "yntax": 6669, "Inst": 6670, "\u2581appropri": 6671, "\u2581subst": 6672, "ifying": 6673, "\u2581statement": 6674, "lambda": 6675, "\u5357\u4eac": 6676, "\u7a97\u53e3": 6677, "\u2581contr": 6678, "springframework": 6679, "\u2581EN": 6680, "amma": 6681, "\u2581brand": 6682, "\u623f\u5730\u4ea7": 6683, "\u2581%}\\": 6684, "]]": 6685, "i\u00f3n": 6686, "\u2581route": 6687, "'=>": 6688, "You": 6689, "\u2581Mem": 6690, "')->": 6691, "\u2581attention": 6692, "\u2581highlight": 6693, "\u2581fight": 6694, "\u8d37\u6b3e": 6695, "\u521b\u4e1a": 6696, "\u2581kids": 6697, "\u2581surface": 6698, "\u2581sentence": 6699, "\u6700\u5927\u7684": 6700, "Doc": 6701, "\u6b21\u6570": 6702, "\u5b50\u7684": 6703, "\u2581medical": 6704, "\u2581inf": 6705, "\u2581cluster": 6706, "\u989c\u8272": 6707, "\u80a1\u7968": 6708, "\u2581nature": 6709, "\u2581entity": 6710, "\u2581env": 6711, "udget": 6712, "plies": 6713, "pu": 6714, "\u2581abs": 6715, "??": 6716, "\u2581London": 6717, "\u2581China": 6718, "\u2581College": 6719, "READ": 6720, "\u2581pool": 6721, "matrix": 6722, "\u2581Init": 6723, "och": 6724, "iation": 6725, "\u6bcf\u4e2a": 6726, "\u81ea\u884c": 6727, "ixel": 6728, "Delete": 6729, "\u2581Make": 6730, "\u8d44\u4ea7": 6731, "\u65bd\u5de5": 6732, "VID": 6733, "\u2581conduct": 6734, "ota": 6735, "edef": 6736, "batch": 6737, "\u2581protect": 6738, "\u2581sets": 6739, "proto": 6740, "initely": 6741, "nfor": 6742, "\u2581quickly": 6743, "hest": 6744, "\u2581\u4e8c": 6745, "Left": 6746, "elebr": 6747, "\u2581'@": 6748, "izations": 6749, "ivery": 6750, "\u2581individuals": 6751, "\u4e3e\u529e": 6752, "BS": 6753, "?.": 6754, "\u2581relative": 6755, "Op": 6756, "\u2581menu": 6757, "\u2581Ill": 6758, "\u2581req": 6759, "\u2581Main": 6760, "\u2581\u548c": 6761, "\u6210\u4e86": 6762, "usion": 6763, "\u300b,": 6764, "!.": 6765, "`.\\": 6766, "\u2581category": 6767, "Each": 6768, "DIT": 6769, "antic": 6770, "\u2581mis": 6771, "blem": 6772, ")}": 6773, "\u521b\u9020": 6774, "sample": 6775, "\u2581\u2026": 6776, "Schema": 6777, "\u2581|-": 6778, "issues": 6779, "$^{": 6780, "\u4fee\u6539": 6781, "\u2581zero": 6782, "UID": 6783, "rial": 6784, "cpp": 6785, "\u2581compliance": 6786, "\u4e92\u8054\u7f51": 6787, "enter": 6788, "oded": 6789, "\u2581flag": 6790, "\u2581prem": 6791, "Props": 6792, "Obj": 6793, "area": 6794, "\u5f53\u5730": 6795, "look": 6796, "\u2581Street": 6797, "\u5bf9\u8c61": 6798, "\u672a\u7ecf": 6799, "\u91c7\u8d2d": 6800, "tee": 6801, "ipped": 6802, "Reference": 6803, "\u2581plot": 6804, "role": 6805, "\u2581touch": 6806, "\u2581station": 6807, "\u2581sold": 6808, "Long": 6809, "\u2581Direct": 6810, ";</": 6811, "\u5973\u4eba": 6812, "ulations": 6813, "kt": 6814, "bytes": 6815, "\u2581Mr": 6816, "\u2581pattern": 6817, "\u2581green": 6818, "\u2581physical": 6819, "\u5404\u9879": 6820, "\u2581candid": 6821, "BUG": 6822, "pite": 6823, "++++": 6824, "\u4ece\u4e8b": 6825, "\u5de5\u827a": 6826, "\u82f1\u56fd": 6827, "\u5f00\u653e": 6828, "aints": 6829, "\u2581Long": 6830, "\u2581President": 6831, "\u2581Sum": 6832, "iforn": 6833, "vest": 6834, "\u2581\u4e0b\u8f7d": 6835, "\u6dfb\u52a0": 6836, "icker": 6837, "\u2581Note": 6838, "csv": 6839, "\u2581{'": 6840, "\u5c31\u53ef\u4ee5": 6841, "tool": 6842, "Grid": 6843, "\u2581rock": 6844, "iny": 6845, "\u53d1\u6325": 6846, "Handle": 6847, "si": 6848, "etimes": 6849, "\u2581scen": 6850, "\u8fd9\u6b21": 6851, "\u2581vill": 6852, "lem": 6853, "ounced": 6854, "zen": 6855, "\u2581\u0434": 6856, "():": 6857, "\u2581;\\": 6858, "bd": 6859, "\u2581towards": 6860, "lg": 6861, "\u5feb\u4e50": 6862, "Rel": 6863, "\u2581proced": 6864, "\u2581mus": 6865, "nh": 6866, "\u5979\u7684": 6867, "\u0430\u043d": 6868, "\u2581drug": 6869, "\u2581describe": 6870, "Bytes": 6871, "\u2581operations": 6872, "jection": 6873, "queue": 6874, "\u516c\u53f8\u7684": 6875, "BR": 6876, "\u9891\u9053": 6877, "\u2581comfort": 6878, "nel": 6879, "\u91c7\u53d6": 6880, "ecause": 6881, "\u2581api": 6882, "\u2581II": 6883, "\u5316\u7684": 6884, "\u2581deliver": 6885, "\u8fd1\u65e5": 6886, "\u9762\u5bf9": 6887, "\u2581moved": 6888, "\u2581stuff": 6889, "prise": 6890, "LECT": 6891, "\u2581Mac": 6892, "va": 6893, "PU": 6894, "ynch": 6895, "\u2581Result": 6896, "lis": 6897, "Writer": 6898, "\u2581Us": 6899, "\u4eab\u53d7": 6900, "\u2581messages": 6901, "FILE": 6902, "Iter": 6903, "domain": 6904, "\u2581inj": 6905, "\u2581combin": 6906, "\u2581sales": 6907, "Channel": 6908, "\u2581pages": 6909, "\u6708\u4efd": 6910, "\u2581bank": 6911, "\u2581exists": 6912, "\u2581\\\"$": 6913, "mu": 6914, "results": 6915, "\u2581wide": 6916, "arily": 6917, "\u2581parents": 6918, "\u2581charge": 6919, "Email": 6920, "ws": 6921, "\u2581observ": 6922, "\u2581ctx": 6923, "hter": 6924, "\u7167\u7247": 6925, "ulated": 6926, "haps": 6927, "fn": 6928, "tools": 6929, "istribut": 6930, "ucture": 6931, "ission": 6932, "ntype": 6933, "\u2581torch": 6934, "\u2581situation": 6935, "\u2581ip": 6936, "\u2581Ke": 6937, "ICE": 6938, "\u2581au": 6939, "prop": 6940, "\u5174\u8da3": 6941, "\u96c6\u4e2d": 6942, "annotation": 6943, "ti": 6944, "urb": 6945, "PRE": 6946, "\u2581otherwise": 6947, "android": 6948, "\u2581sites": 6949, "ACT": 6950, "\u2581demonstr": 6951, "\u529e\u516c\u5ba4": 6952, "services": 6953, "\u2581solutions": 6954, "\u6b64\u6b21": 6955, "\u2581Acc": 6956, "\u2581born": 6957, "\u2581wrote": 6958, "\u2581challenges": 6959, "\u2581img": 6960, "\u2581programs": 6961, "\u2581Star": 6962, "\u5e78\u798f": 6963, "\u2581profile": 6964, "++;\\": 6965, "sys": 6966, "acebook": 6967, "\u2581completely": 6968, "beta": 6969, "\u5206\u4eab": 6970, "ville": 6971, "\u2581maybe": 6972, "\u2581approx": 6973, "(!": 6974, "\u2581chance": 6975, "\u4e00\u5e74": 6976, "DO": 6977, "unsigned": 6978, "Names": 6979, "\u2581\u7535": 6980, "bal": 6981, "global": 6982, "ishing": 6983, "\u80a1\u4efd": 6984, "\u2581forg": 6985, "rary": 6986, "\u2581British": 6987, "uby": 6988, "\u2581export": 6989, "\u2581binary": 6990, "rie": 6991, "\u2581Ver": 6992, "\u2581examples": 6993, "igen": 6994, "ifornia": 6995, "(\\\"/": 6996, "Panel": 6997, "\u2581meeting": 6998, "peat": 6999, "\u2581organization": 7000, "\u2581mother": 7001, "\u2581\u0627": 7002, "reshold": 7003, "\u2581UK": 7004, "private": 7005, "\u2581credit": 7006, "SU": 7007, "wrap": 7008, "\u5982\u4e0b": 7009, "\u2581depart": 7010, "Database": 7011, "GR": 7012, "\u2581\u4ea7\u54c1": 7013, "\u6574\u4f53": 7014, "arden": 7015, "\u2581TO": 7016, "ais": 7017, "ACE": 7018, "tconst": 7019, "fast": 7020, "shot": 7021, "\u2581skin": 7022, "Right": 7023, "\u2581follows": 7024, "\u2581tab": 7025, "\u2581opportunity": 7026, "\u72ec\u7acb": 7027, "\u2581meaning": 7028, "\u539f\u5219": 7029, "\u4ece\u800c": 7030, "\u4e3a\u4e3b": 7031, "Pay": 7032, "ilitary": 7033, "nQ": 7034, "nl": 7035, "ky": 7036, "\u2581vs": 7037, "\u2581materials": 7038, "nCon": 7039, "\u2581gave": 7040, "\u964d\u4f4e": 7041, "\u2581Power": 7042, "\u2581counter": 7043, "=$": 7044, "iform": 7045, "\u2581shared": 7046, "oted": 7047, "cons": 7048, "\u2581vict": 7049, "\u2581Jack": 7050, "\u2581drive": 7051, "\u2581extension": 7052, "network": 7053, "MB": 7054, "\u571f\u5730": 7055, "\u9752\u5e74": 7056, "nother": 7057, "\u2581sometimes": 7058, "\u90fd\u4f1a": 7059, "\u2581^": 7060, "\u2581Node": 7061, "\u589e\u5f3a": 7062, "LS": 7063, "\u6307\u51fa": 7064, "\u2581India": 7065, "\\\"))\\": 7066, "ibly": 7067, "\u529b\u91cf": 7068, "\u2581pair": 7069, "scal": 7070, "%%%%": 7071, "\u4e86\u4e00\u4e2a": 7072, "\u2581Task": 7073, "exception": 7074, "\u2581Custom": 7075, "\u2581distr": 7076, "\u2581bi": 7077, "Main": 7078, "\u2581maximum": 7079, "gent": 7080, "\u6062\u590d": 7081, "`.": 7082, "\u0442\u0435": 7083, "\u4e09\u4e2a": 7084, "dot": 7085, "\u2581transport": 7086, "tk": 7087, "\u2581tf": 7088, "\u8eab\u4efd": 7089, "\u4f18\u60e0": 7090, "\u2581*)": 7091, "icated": 7092, "\u2581KIND": 7093, "\u2581Number": 7094, "\u2581branch": 7095, "\u2581myself": 7096, "aling": 7097, "\u2581Foundation": 7098, "Job": 7099, "\u521b\u5efa": 7100, "ieved": 7101, "\u2581cool": 7102, "PER": 7103, "\u2581exit": 7104, "\u2581html": 7105, "\u2581deploy": 7106, "FORM": 7107, "\u2581News": 7108, "bad": 7109, "\u2581exactly": 7110, "Print": 7111, "\u2581batch": 7112, "\u2581/>": 7113, "\u2581edge": 7114, "\u4f53\u9a8c": 7115, "\u5fae\u535a": 7116, "\u2581dans": 7117, "\u2581helps": 7118, "\u2581closed": 7119, "\u2581jud": 7120, "ffff": 7121, "\u2581limitations": 7122, "structions": 7123, "\u670d\u88c5": 7124, "\u8d44\u8baf": 7125, "\u5f88\u597d": 7126, "\u68c0\u6d4b": 7127, "blog": 7128, "Admin": 7129, "MT": 7130, "Root": 7131, "\u751f\u6001": 7132, "\u2581Hand": 7133, "house": 7134, "\u5e74\u5ea6": 7135, "fields": 7136, "Password": 7137, "\u7684\u65f6\u95f4": 7138, "\u8868\u8fbe": 7139, "errors": 7140, "\u8d44\u683c": 7141, "\u2581figure": 7142, "\u2581scal": 7143, "support": 7144, "\u2581Function": 7145, "Matrix": 7146, "microsoft": 7147, "gb": 7148, "ste": 7149, "\u2581purpose": 7150, "Files": 7151, "nAfter": 7152, "\u2581conv": 7153, "igration": 7154, "cheme": 7155, "aming": 7156, "\u2581blue": 7157, "reset": 7158, "Debug": 7159, "border": 7160, "\u2581\u5728\u7ebf": 7161, "jango": 7162, "javascript": 7163, "\u2581sleep": 7164, "\u2581Big": 7165, "tests": 7166, "\u2581served": 7167, "\u2581girl": 7168, "\u2581Hot": 7169, "\u2581grid": 7170, "\u2581termin": 7171, "\u2581selection": 7172, "atively": 7173, "\u2581spect": 7174, "\\\".\\": 7175, "\u2581manager": 7176, "\u2581mobile": 7177, "\u2581Request": 7178, "report": 7179, "\u2581thinking": 7180, "ji": 7181, "family": 7182, "pool": 7183, "\u2581scope": 7184, "ror": 7185, "\u2581species": 7186, "\u7ecf\u5386": 7187, "\u2581parser": 7188, "\u2581micro": 7189, "\u2581charg": 7190, "\u2581greater": 7191, "\u683c\u5f0f": 7192, "\u91d1\u5c5e": 7193, "\u2581sun": 7194, "ederal": 7195, "\u751f\u7684": 7196, "\u2581ord": 7197, "Ke": 7198, "\u8ba8\u8bba": 7199, "\u2581providing": 7200, "\u2581learned": 7201, "\u2581father": 7202, "\u2581requests": 7203, "Card": 7204, "ads": 7205, "\u6c9f\u901a": 7206, "istrict": 7207, "$\\": 7208, "\u2581star": 7209, "\u2581TODO": 7210, "\u2581sys": 7211, "\u2581anim": 7212, "NN": 7213, "\u5b9d\u5b9d": 7214, "\u5927\u4f1a": 7215, "\u4ee5\u524d": 7216, "PM": 7217, "\u63a8\u5e7f": 7218, "\u2581dir": 7219, "ems": 7220, "\u2581appre": 7221, "\u2581mock": 7222, "yd": 7223, "\u5f15\u7528": 7224, "{%": 7225, "ggle": 7226, "\u2581\u6700\u540e": 7227, "\u2581Oper": 7228, "\u5c24\u5176": 7229, "\u2581fully": 7230, "ato": 7231, "\u6ee1\u610f": 7232, "\u2581attribute": 7233, "esome": 7234, "\u5e73\u5747": 7235, "\u652f\u4ed8": 7236, "\u2581degree": 7237, "\u7269\u6d41": 7238, "\u2581factor": 7239, "lap": 7240, "Changed": 7241, "cut": 7242, "\u2581Services": 7243, "\u5f62\u8c61": 7244, "\u2581Default": 7245, "\u6027\u8d28": 7246, "\u2581piece": 7247, "\u2581Department": 7248, "\u2581experiment": 7249, "\u2581compared": 7250, "\u2581adding": 7251, "vement": 7252, "pdf": 7253, "\u2581edit": 7254, "ago": 7255, "\u2581NO": 7256, "ection": 7257, "ester": 7258, "'))": 7259, "\u2581Information": 7260, "pective": 7261, "\u2581broad": 7262, "}^{": 7263, "\u2581sequence": 7264, "\u56db\u5ddd": 7265, "\u2581reviews": 7266, "\u2581df": 7267, "\u2581Since": 7268, "\u2581Cons": 7269, "\u6839\u672c": 7270, "\u2581raw": 7271, "\u2581AS": 7272, "cellent": 7273, "\u2581split": 7274, "clusion": 7275, "\u2581Show": 7276, "\u522b\u4eba": 7277, "\u2581clients": 7278, "\u2581variety": 7279, "prefix": 7280, "\u5185\u7684": 7281, "ificate": 7282, "\u2581Input": 7283, "\u2581secret": 7284, "upload": 7285, "\u76f8\u5bf9": 7286, "Variable": 7287, "\u5b66\u5386": 7288, "\u667a\u80fd": 7289, "Adapter": 7290, "usercontent": 7291, "\u2581pen": 7292, "\u90ae\u4ef6": 7293, "\u2581Call": 7294, "\u63a8\u52a8": 7295, "porary": 7296, "\u7236\u6bcd": 7297, "\u2581inline": 7298, "inct": 7299, "\u2581thanks": 7300, "Parameters": 7301, "times": 7302, "\u5e73\u65b9\u7c73": 7303, "istant": 7304, "rought": 7305, "\u2581wasn": 7306, "Active": 7307, "\u2581\u5173\u95ed": 7308, "\u2581ou": 7309, "\u2581Phil": 7310, "\u80af\u5b9a": 7311, "\u6559\u6388": 7312, "\u2581Vector": 7313, "\u2581completed": 7314, "\u2581hair": 7315, ")-": 7316, "\u2581plugin": 7317, "\u4e0a\u5348": 7318, "ustr": 7319, "(\\\"#": 7320, "\u2581expand": 7321, "\u2581cast": 7322, "\u2581reve": 7323, "\u2581limited": 7324, "igate": 7325, "shared": 7326, "\u907f\u514d": 7327, "\u4ed6\u4eec\u7684": 7328, "Float": 7329, "\u2581loop": 7330, "\u5229\u76ca": 7331, ".'": 7332, "tl": 7333, "\u7a7a\u6c14": 7334, "Mark": 7335, "\u2581lack": 7336, "\u2581da": 7337, "dc": 7338, "\u2581IO": 7339, "ivil": 7340, "\u2581summer": 7341, "dep": 7342, "\u2581Ant": 7343, "IA": 7344, "nand": 7345, "Hub": 7346, "uminate": 7347, "\u2581Question": 7348, "Font": 7349, "\u2581campaign": 7350, "\u2581construct": 7351, "ixed": 7352, "\u2581compar": 7353, "ONE": 7354, "\u2581visual": 7355, "route": 7356, "\u2581fair": 7357, "Cal": 7358, "storage": 7359, "xs": 7360, "'\uff0c": 7361, "Display": 7362, "Queue": 7363, "\u2581driver": 7364, "sqrt": 7365, "\u2581surv": 7366, "\u6e29\u5ea6": 7367, "\u043d\u043e": 7368, "\u5c97\u4f4d": 7369, "\u2581enh": 7370, "\u2581tim": 7371, "\u2581Research": 7372, "\u2581Game": 7373, "\u690d\u7269": 7374, "\u516c\u91cc": 7375, "\u2581gold": 7376, "schema": 7377, "\u2581reflect": 7378, "entials": 7379, "selected": 7380, "\u2581kit": 7381, "\u2581Back": 7382, "high": 7383, "faces": 7384, "oday": 7385, "\u2581requirements": 7386, "IST": 7387, "\u2581constructor": 7388, "Sup": 7389, "\u5730\u70b9": 7390, "\u2581culture": 7391, "plates": 7392, "vs": 7393, "\\\"`\\": 7394, "Operation": 7395, "\u2581William": 7396, "Byte": 7397, "\u5347\u7ea7": 7398, "\u2581calls": 7399, "\u2581removed": 7400, "\u2581->\\": 7401, "\\\\+": 7402, "\u8272\u7684": 7403, "\u7acb\u5373": 7404, "\u2581Bel": 7405, ".$": 7406, "\u516c\u5171": 7407, "\u97e9\u56fd": 7408, "ancel": 7409, "\u2581speak": 7410, "\u2581Example": 7411, "\u7248\u672c": 7412, "\u2581keys": 7413, "\u5b83\u4eec": 7414, "\u2581rap": 7415, "plt": 7416, "FC": 7417, "which": 7418, "\u73a9\u5bb6": 7419, "\u2581evidence": 7420, "scription": 7421, "\u7537\u4eba": 7422, "\u542f\u52a8": 7423, ".\\\\": 7424, "\u2581Business": 7425, "SR": 7426, "\u2581\u67e5\u770b": 7427, "\u2581Che": 7428, "\u2581hol": 7429, "\u2581Yes": 7430, "\u2581nodes": 7431, "\u516c\u5e03": 7432, "\u2581runs": 7433, "\u7684\u5730\u65b9": 7434, "bound": 7435, "allel": 7436, "\u2581implements": 7437, "\u2581morning": 7438, "iveness": 7439, "\u2581moving": 7440, "[$": 7441, "Non": 7442, "\u2581basis": 7443, "etes": 7444, "\u2581Best": 7445, "FR": 7446, "PAR": 7447, "DC": 7448, "alloc": 7449, "details": 7450, "\u72b6\u51b5": 7451, "Vert": 7452, "\u2581react": 7453, "\u2581applied": 7454, "\u2581FROM": 7455, "pons": 7456, "\u2581serious": 7457, "\u4e00\u4f4d": 7458, "\u2581\u00a0": 7459, "\u9ad8\u7ea7": 7460, "aled": 7461, "dy": 7462, "aver": 7463, "\u79bb\u7ebf": 7464, "\u2581fresh": 7465, "()).": 7466, "NOT": 7467, "tassert": 7468, "riteria": 7469, "\u2581folder": 7470, "tg": 7471, "nOne": 7472, "\u2581places": 7473, "\u2581r\u00e9": 7474, "tbreak": 7475, "\u2581European": 7476, "%;": 7477, "\u2581whose": 7478, "arant": 7479, "\u2581\u5de5\u4f5c": 7480, "\u2581blood": 7481, "\u2581\u6253\u5370": 7482, "\u2581Mag": 7483, "pa": 7484, "\u2581plans": 7485, "OST": 7486, "That": 7487, "\u2581increased": 7488, "\u2581Design": 7489, "\u2581established": 7490, "\u56f0\u96be": 7491, "\u2581rank": 7492, "\u2581Page": 7493, "\u2581performed": 7494, "\u2581Dem": 7495, "PASS": 7496, "\u2581reduce": 7497, "\u2581Licensed": 7498, "\u6cb3\u5357": 7499, "\u2581\u4f01\u4e1a": 7500, "\u2581strugg": 7501, "Tab": 7502, "TIM": 7503, "\u6210\u90fd": 7504, "\u6280\u80fd": 7505, "\u2581dead": 7506, "connection": 7507, "\u5b83\u7684": 7508, "\u2581produced": 7509, "\u2581ded": 7510, "\u8fde\u63a5": 7511, "inger": 7512, "\u7ed9\u6211": 7513, "\u2581owner": 7514, "\u2581legal": 7515, "=\\": 7516, "\u4e25\u683c": 7517, "\u2581goals": 7518, "\u98ce\u683c": 7519, "\u2581determine": 7520, "Ident": 7521, "ercise": 7522, "ABILITY": 7523, "\u2581extract": 7524, "\\\";": 7525, "\u2581norm": 7526, "pute": 7527, "_\\": 7528, "\u529e\u7406": 7529, "\u2581gas": 7530, "men": 7531, "\u8d21\u732e": 7532, "Msg": 7533, "\u5c06\u5728": 7534, "Pool": 7535, "\u2581Ear": 7536, "\u2581sizeof": 7537, "(`": 7538, "abilities": 7539, "\u6d89\u53ca": 7540, "\u6211\u662f": 7541, "\u2581##": 7542, "\u2581followed": 7543, "erved": 7544, "\u2581volume": 7545, "testing": 7546, "\u2581yield": 7547, "\u2581daily": 7548, "\u2581estim": 7549, "\u8d22\u653f": 7550, "\u76f8\u540c": 7551, "\u2581phase": 7552, "\u2581roll": 7553, "\u63a8\u51fa": 7554, "score": 7555, "includ": 7556, "nReferences": 7557, "\u2581police": 7558, "\u2581Law": 7559, "eries": 7560, "\u2581felt": 7561, "\u2581traditional": 7562, "\u7279\u6b8a": 7563, "\u8d1f\u8d23\u4eba": 7564, "\u2581mask": 7565, "\u2581enable": 7566, "\u2581\u5143": 7567, "hot": 7568, "NU": 7569, "\u51fa\u7248": 7570, "\u2581foreach": 7571, "\u2581writer": 7572, "\u2581assess": 7573, "\u2581MA": 7574, "\u2581pan": 7575, "\u2581California": 7576, "ouncil": 7577, "\u2581dataset": 7578, "white": 7579, "\u2581pul": 7580, "Bundle": 7581, "ald": 7582, "IGN": 7583, "\u2581TR": 7584, "HTML": 7585, "\u2581translate": 7586, "Enabled": 7587, "\u2581theory": 7588, "\u2581highly": 7589, "Rule": 7590, "nPro": 7591, "\u2581picture": 7592, "Expression": 7593, "\u52a0\u76df": 7594, "\u0440\u0435": 7595, "\u2581\u8fd9": 7596, "radius": 7597, "\u2581SQL": 7598, "\u2581shall": 7599, "NET": 7600, "erve": 7601, "iced": 7602, "\u00e9e": 7603, "\u2581construction": 7604, "\u2581digital": 7605, "\u4e3a\u60a8": 7606, "\u2581imag": 7607, "ette": 7608, "\u590d\u5236": 7609, "\u2581beginning": 7610, "\u771f\u5b9e\u6027": 7611, "\u2581eth": 7612, "bc": 7613, "\u2581guide": 7614, "\u2581hour": 7615, "olog": 7616, "npm": 7617, "\u8ba9\u6211": 7618, "Argument": 7619, "\u77ed\u4fe1": 7620, "\u2581Description": 7621, "\u2581demand": 7622, "wd": 7623, "\u2581Method": 7624, "\u4e13\u9898": 7625, "\u4e5f\u53ef\u4ee5": 7626, "inn": 7627, "\u2581larger": 7628, "\u2581chem": 7629, "Assert": 7630, "\u2581David": 7631, "\u2581himself": 7632, "\u901a\u8baf": 7633, "\u2581communication": 7634, "\u2014\u2014\u2014\u2014": 7635, "\u76f8\u5f53": 7636, "\u2581saying": 7637, "'),": 7638, "\u2581\u8bf7\u5224\u65ad": 7639, "\u2581decre": 7640, "\u9053\u5fb7": 7641, "\u2581relationships": 7642, "\u2581favorite": 7643, "\u2581linear": 7644, "\u9ad8\u7684": 7645, "\u4f53\u73b0": 7646, "\u2581giving": 7647, "_,": 7648, "\u7ef4\u4fee": 7649, "\u2581Sen": 7650, "quot": 7651, "\u2581\u7cbe\u534e": 7652, "\u2581princip": 7653, "\u2581amazing": 7654, "\u4e66\u7c4d": 7655, "\u2581Gover": 7656, "\u2581although": 7657, "\u5c45\u6c11": 7658, "\u8bc1\u660e": 7659, "\u4e0b\u964d": 7660, "console": 7661, "\u2581Max": 7662, "\u3001\u300a": 7663, "\u2581overall": 7664, "udo": 7665, "uman": 7666, "\u515a\u5458": 7667, "\u2581governing": 7668, "footer": 7669, "\u804c\u5de5": 7670, "packages": 7671, "\u2581copyright": 7672, "pret": 7673, "\u2581respond": 7674, "\u8fde\u7eed": 7675, "\u2581Dat": 7676, "\u2581Point": 7677, "\u2581finished": 7678, "/.": 7679, "\u2581stories": 7680, "\u2581\u662f": 7681, "('.": 7682, "\u2581\u6839\u636e": 7683, "\u2581pressure": 7684, "price": 7685, "\u2581celebr": 7686, "\u2581hear": 7687, "\u4eba\u7c7b": 7688, "\u2581topic": 7689, "\u2581Network": 7690, "\u7f8e\u4e3d": 7691, "\u2581?>\\": 7692, "\u2581dict": 7693, "\u2581\u9605\u8bfb": 7694, "jo": 7695, "olar": 7696, "\u81ea\u8eab": 7697, "move": 7698, "craft": 7699, "lands": 7700, "ooks": 7701, "\u2581teams": 7702, "\u7231\u60c5": 7703, "emp": 7704, "TC": 7705, "Invalid": 7706, "\u591a\u79cd": 7707, "ampl": 7708, "bi": 7709, "\u2581hidden": 7710, "\u516c\u5b89": 7711, "\u2581dating": 7712, "\u2581relevant": 7713, "\u2581interested": 7714, "\u2581court": 7715, "\u2581forms": 7716, "\u2581\u2192": 7717, "ded": 7718, "\u2581cred": 7719, "\u8ba9\u4eba": 7720, "\u4e60\u60ef": 7721, "release": 7722, "pet": 7723, "\u2581costs": 7724, "\u8d2d\u7269": 7725, "'];\\": 7726, "\u2581plt": 7727, "feature": 7728, "\u5404\u7c7b": 7729, "reference": 7730, "\u7684\u91cd\u8981": 7731, "Engine": 7732, "ora": 7733, "ady": 7734, "venue": 7735, "ione": 7736, "Exp": 7737, "\u2581incor": 7738, "*)": 7739, "\u2581appropriate": 7740, "ben": 7741, "nWith": 7742, "\u2581molec": 7743, "andard": 7744, "\u8fd0\u8f93": 7745, "tex": 7746, "mount": 7747, "\u2581Integer": 7748, "\u540d\u7684": 7749, "\u2581//\\": 7750, "\u2581Indian": 7751, "\u5927\u578b": 7752, "mean": 7753, "Phone": 7754, "\u2581wood": 7755, "\u91cd\u65b0": 7756, "\u2581benefits": 7757, "Category": 7758, "\u5e74\u8f7b": 7759, "\u8bad\u7ec3": 7760, "\u2581suit": 7761, "\u54ea\u4e9b": 7762, "\u7406\u5ff5": 7763, "chain": 7764, "mult": 7765, "cribe": 7766, "\u80fd\u6e90": 7767, "Close": 7768, "ums": 7769, "(()": 7770, "ura": 7771, "\u518d\u6b21": 7772, "note": 7773, "ki": 7774, "\u2581safety": 7775, "\u2581installed": 7776, "\u2581camera": 7777, "\u2581hands": 7778, "\u2581:\\": 7779, "Te": 7780, "mac": 7781, "unday": 7782, "\u8003\u751f": 7783, "ims": 7784, "\u2581devices": 7785, "\u611f\u8c22": 7786, "controller": 7787, "\u2581Ir": 7788, "execute": 7789, "legal": 7790, "\u65e0\u8bba": 7791, "ture": 7792, "idence": 7793, "\u4e00\u5b9a\u8981": 7794, "wers": 7795, "\u2581race": 7796, "\u5185\u90e8": 7797, "\u2581\u672c\u7ad9": 7798, "exists": 7799, "\u2581temperature": 7800, "\u6027\u548c": 7801, "\u2581algorithm": 7802, "\u5206\u5b50": 7803, "\u2581lay": 7804, "Show": 7805, "\u2581League": 7806, "created": 7807, "\u2581particularly": 7808, "\u4f1a\u8ba1": 7809, "\u2581increasing": 7810, "\u2581Win": 7811, "\u2581$$": 7812, "\u2581Good": 7813, "\u2581strategy": 7814, "tip": 7815, "\u4e0d\u597d": 7816, "hpp": 7817, "olf": 7818, "\u2581refer": 7819, "INFO": 7820, "small": 7821, "pull": 7822, "\u2581definition": 7823, "\u2581\u7535\u8bdd": 7824, "\u670d\u52a1\u5668": 7825, "important": 7826, "\u2581knew": 7827, "\u6700\u4f73": 7828, "\u2581\u6ce8\u518c\u65f6\u95f4": 7829, "metadata": 7830, "\u6295\u5165": 7831, "Resol": 7832, "\u5e7f\u6cdb": 7833, "\u2581Param": 7834, ".\\\"\\\"": 7835, "\u2581White": 7836, "\u673a\u5236": 7837, "Nav": 7838, "\u7231\u7684": 7839, "\u592a\u9633": 7840, "\u2581Sur": 7841, "\u2581seconds": 7842, "\u2581editor": 7843, "eed": 7844, "\u6211\u60f3": 7845, "\u6210\u957f": 7846, "\u4eba\u6570": 7847, "allet": 7848, "\u2581adjust": 7849, "\u591a\u6570": 7850, "ynchron": 7851, "\u540e\u6765": 7852, "\u8fdb\u53e3": 7853, "ya": 7854, "\u2581wish": 7855, "\u2581grand": 7856, "/**": 7857, "Has": 7858, "record": 7859, "\u2581door": 7860, "Can": 7861, "\u2581van": 7862, "\u4f1a\u6709": 7863, "\u2581Most": 7864, "Ver": 7865, "\u6253\u9020": 7866, "\u2581nor": 7867, "inated": 7868, "nTr": 7869, "tv": 7870, "\u2581Great": 7871, "\u4e8e\u662f": 7872, "\u2581Arch": 7873, "\u2581Wash": 7874, "scribe": 7875, "\u2581Council": 7876, "async": 7877, "}(": 7878, "enty": 7879, "\u2581pm": 7880, "\u58f0\u97f3": 7881, "\u6b66\u6c49": 7882, "callback": 7883, "\u2581mac": 7884, "overs": 7885, "eting": 7886, "\u6b27\u6d32": 7887, "apply": 7888, "\u591a\u4e2a": 7889, "\u7684\u4f4d\u7f6e": 7890, "\u2581wife": 7891, "Plugin": 7892, "\u2581BAS": 7893, "\u2581bur": 7894, "\u4e2d\u5b66": 7895, "ying": 7896, "\u2581signal": 7897, "\u2581\u5f20": 7898, "\u54c1\u8d28": 7899, "\u2581Je": 7900, "ups": 7901, "\u2581na": 7902, "wait": 7903, "\u7edd\u5bf9": 7904, "\u2581\u00a3": 7905, "\u2581\u4e0a\u4e00": 7906, "\u2581\\\"\\": 7907, "\u8868\u660e": 7908, "phas": 7909, "\u2581Nor": 7910, "\u2581district": 7911, "primary": 7912, "ita": 7913, "utter": 7914, "stat": 7915, "acts": 7916, "\u2581dialog": 7917, "olic": 7918, "organ": 7919, "++)\\": 7920, "\u2581Year": 7921, "nAt": 7922, "WARE": 7923, "\u2581deb": 7924, "anted": 7925, "\u54c8\u54c8": 7926, "nThanks": 7927, "angular": 7928, "aturday": 7929, "\u7a81\u7136": 7930, "\u2581sale": 7931, "\u2581guess": 7932, "\u2581sources": 7933, "screen": 7934, "\u2581century": 7935, "inese": 7936, "\u65f6\u671f": 7937, "\u2581daug": 7938, "\u2581\u70b9": 7939, "acle": 7940, "\u2581\u4e3a": 7941, "\u2581>\\": 7942, "\u4e4b\u95f4\u7684": 7943, "\u91cd\u8981\u7684": 7944, "Support": 7945, "Ge": 7946, "So": 7947, "\u2581Field": 7948, "!(": 7949, "\u603b\u662f": 7950, "Route": 7951, "osh": 7952, "\u2581...\\": 7953, "security": 7954, "\u5438\u5f15": 7955, "Details": 7956, "endor": 7957, "\u2581Message": 7958, "\u2581une": 7959, "nWh": 7960, "\u2581sen": 7961, "\u8425\u517b": 7962, "\u2581readonly": 7963, "Bit": 7964, "\uff1f\\": 7965, "\u5fc3\u7684": 7966, "\u2581serve": 7967, "\u2581guid": 7968, "ounce": 7969, "\u2581announced": 7970, "ban": 7971, "\u2581stress": 7972, "\u2581thus": 7973, "\u2581Ang": 7974, "\u2581aware": 7975, "\u91cd\u5927": 7976, "\u2581browser": 7977, "ITE": 7978, "PA": 7979, "\u2581\u6708": 7980, "\u2581\u6211\u7684": 7981, "desc": 7982, "\u2581economic": 7983, "\u2581advant": 7984, "\u5236\u5b9a": 7985, "unities": 7986, "\u2581scient": 7987, "\u2581ce": 7988, "Rect": 7989, "aight": 7990, "\u2581factors": 7991, "TD": 7992, "\u2581CH": 7993, "\u6240\u5c5e": 7994, "\u90fd\u4e0d": 7995, "\u2581carry": 7996, "\u6628\u65e5": 7997, "\u2581happened": 7998, "Timeout": 7999, "LED": 8000, "\u2581Every": 8001, "\u2581produce": 8002, "under": 8003, "VD": 8004, "ycl": 8005, "ashboard": 8006, "\u2581<-": 8007, "vc": 8008, "uler": 8009, "greg": 8010, "\u7eff\u8272": 8011, "\u2581marketing": 8012, "\u2581award": 8013, "\u2581mill": 8014, "\u8f66\u8f86": 8015, "ronic": 8016, "\u2581remain": 8017, "cores": 8018, "\u4fdd\u7559": 8019, "\u2581integer": 8020, "\u2581priv": 8021, "\u2581Green": 8022, "NULL": 8023, "\u2581separate": 8024, "\u2581emerg": 8025, "\u2581Que": 8026, "\u2581containing": 8027, "\u2581serial": 8028, "\u2581college": 8029, "\u75c7\u72b6": 8030, "nor": 8031, "\u2581stri": 8032, "\u2581died": 8033, "\u2581IT": 8034, "\u2581tmp": 8035, "\u2581earlier": 8036, "nMy": 8037, "ournal": 8038, "\u2581views": 8039, "\u4f20\u64ad": 8040, "VERSION": 8041, "wide": 8042, "-->\\": 8043, "\u2581Ok": 8044, "\u2581[];\\": 8045, "\u59d4\u4f1a": 8046, "handler": 8047, "ongo": 8048, "\u2581advice": 8049, ">.": 8050, "\u2581Wed": 8051, "isode": 8052, "Directory": 8053, "\u623f\u4ea7": 8054, "Selector": 8055, "\u2581----": 8056, "\u56fe\u4e66": 8057, "\u2581Mal": 8058, "abric": 8059, "\u2581connected": 8060, "\u2581reader": 8061, "loader": 8062, "utf": 8063, "\u2581DB": 8064, "\u2581Response": 8065, "nAll": 8066, "\u2581Line": 8067, "\u53cd\u6620": 8068, "\u2581insurance": 8069, "\u2581ther": 8070, "\u676d\u5dde": 8071, "\u2581letter": 8072, "\u6709\u4e86": 8073, "creens": 8074, "verter": 8075, "\u2581transition": 8076, "\u2581insert": 8077, "\u2581Av": 8078, "\u2581appreci": 8079, "\u8fd0\u7528": 8080, "ARY": 8081, "\u2581consult": 8082, "\u2581external": 8083, "posite": 8084, "\u2581readers": 8085, "produce": 8086, "Collections": 8087, "\u2581Div": 8088, "\u2581Path": 8089, "lat": 8090, "\u00e7\u00e3o": 8091, "\u548c\u56fd": 8092, "osen": 8093, "\u2581presented": 8094, "mos": 8095, "Head": 8096, "allery": 8097, "\u2581earn": 8098, "=[": 8099, "\u2581HTTP": 8100, "\u7ec8\u4e8e": 8101, "\u2581formula": 8102, "\u2581conversation": 8103, "\u2581critical": 8104, "ional": 8105, "\u2581\u00bb": 8106, "\u2581Engine": 8107, "\u5fc5\u8981": 8108, "\u7684\u6240\u6709": 8109, "(@": 8110, "Metadata": 8111, "\u2581wall": 8112, "\u2581relig": 8113, "Transaction": 8114, "\u6e38\u5ba2": 8115, "\u2581huge": 8116, "VM": 8117, "\u2581independent": 8118, "article": 8119, "dig": 8120, "LA": 8121, "\u7b49\u7b49": 8122, "\u2581{\\\\": 8123, "ston": 8124, "\u2581concern": 8125, "\u2581equipment": 8126, "member": 8127, "\u2581powerful": 8128, "ideos": 8129, "\u2581Anal": 8130, "CRE": 8131, "aching": 8132, "oma": 8133, "nx": 8134, "ito": 8135, "road": 8136, "\u2581ball": 8137, "\u5728\u4e8e": 8138, "builder": 8139, "\u2581science": 8140, "izont": 8141, "\u2581strength": 8142, "\u2581Company": 8143, "\u70ed\u7ebf": 8144, "ourse": 8145, "\u2581Find": 8146, "axis": 8147, "Policy": 8148, "\u2581drink": 8149, "nth": 8150, "\u2581corresponding": 8151, "contains": 8152, "fol": 8153, "\u8fc5\u901f": 8154, "\u2581Why": 8155, "eration": 8156, "=\\\\": 8157, "\u2581upper": 8158, "\u2581Facebook": 8159, "\u2581SD": 8160, "\u2581OUT": 8161, "hover": 8162, "\u7d20\u8d28": 8163, "\u51e0\u4e4e": 8164, "\u2581Play": 8165, "\u2581identity": 8166, "Track": 8167, "\u2581agree": 8168, "\u2581CD": 8169, "\u2581CONDIT": 8170, "nBy": 8171, "\u610f\u601d": 8172, "\u91cd\u89c6": 8173, "\u2581proposed": 8174, "\u2581Http": 8175, "\u2581}}\\": 8176, "\u2581commerc": 8177, "IX": 8178, "emon": 8179, "\u2581dou": 8180, "\u2581adult": 8181, "\u2581?>": 8182, "\u2581=>\\": 8183, "ktop": 8184, "iqu": 8185, "Do": 8186, "\u2581turned": 8187, "\u2581terr": 8188, "\u5bf9\u65b9": 8189, "\u2581spent": 8190, "\u2581scene": 8191, "\u53cc\u65b9": 8192, "\u5230\u7684": 8193, "\u2581reports": 8194, "power": 8195, "\u2581Unless": 8196, "\u2581hous": 8197, "\u5bb6\u957f": 8198, "Generic": 8199, "\u2581Lear": 8200, "\u2581\u5171": 8201, "\u5404\u5730": 8202, "\u2581axis": 8203, "\u2581absolute": 8204, "\u2581LI": 8205, "\u5de5\u5546": 8206, "\u2581chart": 8207, "\u5e02\u6c11": 8208, "\u2581AD": 8209, ")));\\": 8210, "orry": 8211, "\u6709\u70b9": 8212, "roke": 8213, "\u2581\u4e3b": 8214, "straint": 8215, "\u2581Republic": 8216, "Role": 8217, "\u2581records": 8218, "\u2581purchase": 8219, "\u2581shift": 8220, "Network": 8221, "\u2581monitor": 8222, ")</": 8223, "napshot": 8224, "MIN": 8225, "present": 8226, "uzz": 8227, "Loader": 8228, "plus": 8229, "\u2581architect": 8230, "kin": 8231, "sive": 8232, "plan": 8233, "ested": 8234, "Down": 8235, "tat": 8236, "Meta": 8237, "\u2581Vol": 8238, "\u672c\u4eba": 8239, "leted": 8240, "\u6539\u5584": 8241, "cli": 8242, "\u2581cat": 8243, "pred": 8244, "anned": 8245, "\u5f3a\u7684": 8246, "ea": 8247, "\u2581ing": 8248, "\u2581patient": 8249, "\u2581Mor": 8250, "\u2581BASIS": 8251, "Profile": 8252, "\u2581CONDITIONS": 8253, "circ": 8254, "\u4e00\u5929": 8255, "lab": 8256, "\u4f18\u8d28": 8257, "\u2581faith": 8258, "\u2581hop": 8259, "\u5185\u5bb9\u7684": 8260, "\u65b9\u9762\u7684": 8261, "\u2581[[": 8262, "\u2581remote": 8263, "\u2581Gold": 8264, "\u2581therefore": 8265, "variable": 8266, "\u2581modify": 8267, "world": 8268, "\u7ed9\u51fa": 8269, "Author": 8270, "clip": 8271, "\u2581regarding": 8272, "big": 8273, "\u66fe\u7ecf": 8274, "TEST": 8275, "Report": 8276, "\u2581\\\"-": 8277, "\u4e0a\u6da8": 8278, "\u2581definitely": 8279, "\u2581\u5e16\u5b50": 8280, "\u63d0\u9192": 8281, "\\\"/>\\": 8282, "yg": 8283, "ducation": 8284, "\u6e56\u5357": 8285, "\u66f4\u591a\u7684": 8286, "\u6cd5\u5f8b\u8d23\u4efb": 8287, "eller": 8288, "\u2581units": 8289, "\u2581ON": 8290, "\u2581Rich": 8291, "\u2581straight": 8292, "\u2581trade": 8293, "\u8005\u7684": 8294, "\u2581official": 8295, "\u2581repository": 8296, "||": 8297, "\u2581easier": 8298, "\u2581analy": 8299, "\u2581adapt": 8300, "\u7b2c\u4e00\u6b21": 8301, "\u2581appoint": 8302, "\u2581capital": 8303, "\u75c5\u6bd2": 8304, ":</": 8305, "\u2581restaur": 8306, "\u2581-\\": 8307, "\u2581collabor": 8308, "\u2581Mo": 8309, "\u2581publish": 8310, "\u800c\u662f": 8311, "\u2581society": 8312, "ancing": 8313, "=-": 8314, "person": 8315, "\u2581bul": 8316, "\u043b\u0438": 8317, "\u2581opened": 8318, "Parent": 8319, "engine": 8320, "\u2581headers": 8321, "west": 8322, "\u2581Australia": 8323, "\u2581immediately": 8324, "\u2581cloud": 8325, "(__": 8326, "\u2581heard": 8327, "\u201d\uff0c": 8328, "gers": 8329, "\u516c\u8def": 8330, "quis": 8331, "download": 8332, "\u2581journey": 8333, "\u2581James": 8334, "iverse": 8335, "\u2581floor": 8336, "ORE": 8337, "\u2581guest": 8338, "\u2581ul": 8339, ")\\\"": 8340, "\u60c5\u611f": 8341, "\u7684\u4e3b\u8981": 8342, "\u2581detail": 8343, "nHere": 8344, "\u2581brought": 8345, "\u2581planning": 8346, "OB": 8347, "\\\\_": 8348, "uplic": 8349, "\u2581obtained": 8350, "shop": 8351, "\u2581depth": 8352, "crete": 8353, "language": 8354, "\u2581Church": 8355, "\u2581\u00a9": 8356, "\u6765\u4e86": 8357, "\u2581minimum": 8358, "\u2581attr": 8359, "COL": 8360, "\u4f9d\u6cd5": 8361, "\u6821\u56ed": 8362, "inates": 8363, "\u2581cmd": 8364, "\u6307\u6570": 8365, "\u7136\u800c": 8366, "\u665a\u4e0a": 8367, "boolean": 8368, "short": 8369, "PASSWORD": 8370, "\u2581logging": 8371, "\u6b64\u5916": 8372, "\u2581HTML": 8373, "\u2581south": 8374, "\u2581Author": 8375, "\u2581north": 8376, "\u767b\u8bb0": 8377, "\u5e7c\u513f": 8378, "\u2581transfer": 8379, "%\\": 8380, "STAT": 8381, "\u8d44\u672c": 8382, "\u2581Dan": 8383, "\u2581\u043c": 8384, "\u8ba4\u8bc1": 8385, "\u2581mist": 8386, "\u2581automatically": 8387, "iller": 8388, "pared": 8389, ")]": 8390, "ERS": 8391, "\u6c61\u67d3": 8392, "care": 8393, "\u5fb7\u56fd": 8394, "\u4e00\u4e2a\u4eba": 8395, "\u2581Friday": 8396, "\u6001\u5ea6": 8397, "\u4eca\u65e5": 8398, "Enum": 8399, "\u5305\u542b": 8400, "\u2581processing": 8401, "native": 8402, "FTWARE": 8403, "\u6253\u5f00": 8404, "\u2581unless": 8405, "platform": 8406, "\u2581agent": 8407, "\u2581yes": 8408, "](#": 8409, "\u6765\u770b": 8410, "\u2581experiences": 8411, "\u9644\u8fd1": 8412, "tags": 8413, "\u8bba\u6587": 8414, "PUT": 8415, "bing": 8416, "\u2581alert": 8417, "\u2581Road": 8418, "\u2581Association": 8419, "\u2581disease": 8420, "\u2581replace": 8421, "\u0442\u0430": 8422, "\u2581director": 8423, "\u2581builder": 8424, "nam": 8425, "TS": 8426, "\u2581Fire": 8427, "\u4eba\u53e3": 8428, "born": 8429, "\u2581Management": 8430, "\u7ffb\u8bd1\u6210": 8431, "ella": 8432, "\u2581versions": 8433, "vi": 8434, "FS": 8435, "\u2581pd": 8436, "ntitle": 8437, "\u4f01\u4e1a\u7684": 8438, "\u9ad8\u901f": 8439, "kwargs": 8440, "\u2581schools": 8441, "\u2581becomes": 8442, "submit": 8443, "\u4ea7\u54c1\u7684": 8444, "claim": 8445, "\u2581continued": 8446, "\u4e3b\u52a8": 8447, "\u2581dream": 8448, "\u2581Paul": 8449, "\u2581'../": 8450, "oration": 8451, "Microsoft": 8452, "\u7684\u5fc3": 8453, "\u2581Exec": 8454, "\u2581Hash": 8455, "\u76f8\u5e94": 8456, "berg": 8457, "Transform": 8458, "legate": 8459, "Definition": 8460, "\u80cc\u666f": 8461, "Success": 8462, "\u53e6\u4e00": 8463, "\u8d22\u52a1": 8464, "\u623f\u5c4b": 8465, "\u6982\u5ff5": 8466, "van": 8467, "\u2581finish": 8468, "\u2581GL": 8469, "zone": 8470, "orem": 8471, "gest": 8472, "\u5177\u5907": 8473, "localhost": 8474, "\u2581filename": 8475, "apy": 8476, "Step": 8477, "\u2581Court": 8478, "\u2581failure": 8479, "\u7f16\u53f7": 8480, "\u2581challenge": 8481, "\u2581\u56de\u590d": 8482, "\u2581church": 8483, "\uff09\\": 8484, "\u2581wants": 8485, "\u5c0f\u533a": 8486, "parser": 8487, "\u2581River": 8488, "\u82f1\u6587": 8489, "\u7814\u53d1": 8490, "\u2581/*\\": 8491, "nolog": 8492, "(['": 8493, "\u2581photos": 8494, "\u2581eyes": 8495, "conn": 8496, "\u6210\u5458": 8497, "cha": 8498, "niques": 8499, "edge": 8500, "voke": 8501, "ashion": 8502, "\u5217\u8868": 8503, "\u2581ER": 8504, "dfrac": 8505, "\u53bb\u4e86": 8506, "\u2581aspects": 8507, "\u7248\u6743\u6240\u6709": 8508, "\u2581\u90ae": 8509, "\u2581Could": 8510, "\u4e0d\u8db3": 8511, "\u2581provider": 8512, "capt": 8513, "\u73bb\u7483": 8514, "}`": 8515, "\u2581families": 8516, "\u2581Each": 8517, "\u4ee3\u7801": 8518, "\u2581merge": 8519, "\u2581layout": 8520, "']['": 8521, "figure": 8522, "\u52a8\u529b": 8523, "\u8fd8\u8981": 8524, "\u2581handler": 8525, "ivation": 8526, "\u7b49\u7ea7": 8527, "\u603b\u7ed3": 8528, "\u2581largest": 8529, "\u503c\u5f97": 8530, "\u2581rates": 8531, "\u83b7\u53d6": 8532, "\u2581SH": 8533, "omas": 8534, "dro": 8535, "children": 8536, "\u2581clin": 8537, "\u53c2\u6570": 8538, "\u9633\u5149": 8539, "\u9053\u8def": 8540, "Register": 8541, "\u2581heat": 8542, "\u98df\u7269": 8543, "onym": 8544, "\u5b9e\u884c": 8545, "\u2581\u897f": 8546, "\u2581\\\"#": 8547, "Package": 8548, "urer": 8549, "\u2581\u2212": 8550, "\u6210\u679c": 8551, "\u2581labels": 8552, "\u2581UN": 8553, "\u2581\u4e1c": 8554, "ocity": 8555, "validate": 8556, "elines": 8557, "phere": 8558, "yy": 8559, "\u2581Under": 8560, "\u77db\u76fe": 8561, "\u2581themes": 8562, "\u534a\u5e74": 8563, "\u2581firm": 8564, "\u2581DIAL": 8565, "Models": 8566, "exas": 8567, "Only": 8568, "astr": 8569, "\u2581Rob": 8570, "\u300b\u3001\u300a": 8571, "bes": 8572, "\u7ecf\u5178": 8573, "\u2581Promise": 8574, "well": 8575, "\u6eb6\u6db2": 8576, "\u2581Well": 8577, "Sum": 8578, "FFFF": 8579, "Mapping": 8580, "hav": 8581, "\u2581excellent": 8582, "\u672c\u6b21": 8583, "related": 8584, "video": 8585, ".\\\");\\": 8586, "\u2581DIALOG": 8587, "\u5408\u6cd5": 8588, "uted": 8589, "yond": 8590, "\u6444\u5f71": 8591, "\u2581tasks": 8592, "Func": 8593, "\u600e\u6837": 8594, "\u2581username": 8595, "\u2581jobs": 8596, "\u2581partners": 8597, "\u2581helpful": 8598, "\u2581CA": 8599, "\u81ea\u6211": 8600, "\u2581loved": 8601, "\u2581colors": 8602, "\u7f8e\u5bb9": 8603, "\u2581District": 8604, "Forms": 8605, "\u2581debug": 8606, "\u2581symbol": 8607, "\u534f\u8c03": 8608, "bose": 8609, "\u86cb\u767d": 8610, "agent": 8611, "atever": 8612, "\u2581smaller": 8613, "\u7684\u4e00\u4e2a": 8614, "ously": 8615, "SY": 8616, "expr": 8617, "\u2581mo": 8618, "\u2581Office": 8619, "\u2581Fore": 8620, "iling": 8621, "nplt": 8622, "\u2581finding": 8623, "levision": 8624, "\u2581military": 8625, "star": 8626, "\u2581previously": 8627, "\u2581Internet": 8628, "\u2581Action": 8629, "\u2581poor": 8630, "}_": 8631, "alert": 8632, "\u88c5\u9970": 8633, "\u2581Search": 8634, "classes": 8635, "\u2581\u5173\u4e8e": 8636, "ador": 8637, "isc": 8638, "rf": 8639, "\u2581soft": 8640, "\u2581Command": 8641, "}</": 8642, "\u5bf9\u6b64": 8643, "\u2581shot": 8644, "\u2581squ": 8645, "\u2581Git": 8646, "bootstrap": 8647, "\u2581listed": 8648, "\u2581achieve": 8649, "initial": 8650, "\u4f11\u95f2": 8651, "\u9ec4\u91d1": 8652, "Layer": 8653, "\u2581establish": 8654, "\u2581Arg": 8655, "\u4e5f\u8bb8": 8656, ",,": 8657, "\u2581mentioned": 8658, "\u2581columns": 8659, "LC": 8660, "ils": 8661, "prototype": 8662, "Use": 8663, "\u2581Christmas": 8664, "blue": 8665, "\u7cbe\u5f69": 8666, "\u2581Order": 8667, "\u7684\u597d": 8668, "\u2581thank": 8669, "\u2581internet": 8670, "properties": 8671, "\u5c0a\u91cd": 8672, "virt": 8673, "uite": 8674, "Sync": 8675, "\u2581threat": 8676, "\u2581framework": 8677, "EG": 8678, "ECT": 8679, "ena": 8680, "\u2581spirit": 8681, "\u2581supports": 8682, "lots": 8683, "\u2581Process": 8684, "\u2581signed": 8685, "\u539f\u521b": 8686, "\u89e3\u91ca": 8687, "\u914d\u5408": 8688, "\u2581Jes": 8689, "ellig": 8690, "\u2581concer": 8691, "oting": 8692, "\u2581panel": 8693, "parameters": 8694, "\u4e00\u5bb6": 8695, "Lock": 8696, "\u2581photo": 8697, "OUT": 8698, "\u2581west": 8699, "\u2581pod": 8700, "FIG": 8701, "izontal": 8702, "\u719f\u6089": 8703, "resents": 8704, "uing": 8705, "Av": 8706, "labels": 8707, "\u6bd4\u4f8b": 8708, "\u2581trip": 8709, "\u2581budget": 8710, "\u2581\u4f20": 8711, "\u4e0a\u4e86": 8712, "\u65e0\u5173": 8713, "nPost": 8714, "Wh": 8715, "\u2581optional": 8716, "\u2581onto": 8717, "ando": 8718, "\u2581nation": 8719, "\u2581Washington": 8720, "ani": 8721, "CODE": 8722, "phi": 8723, "diff": 8724, "\u9650\u5236": 8725, "dataset": 8726, "\u6bcd\u4eb2": 8727, "Sl": 8728, "Editor": 8729, "mi": 8730, "\u6e05\u695a": 8731, "\u2581looked": 8732, "ali": 8733, "etailed": 8734, "\u2581Person": 8735, "\u4e5f\u4f1a": 8736, "\u2581spread": 8737, "\u8bc1\u4e66": 8738, "\u2581ple": 8739, "\u2581helped": 8740, "\u2581Board": 8741, "\u2581UI": 8742, "\u2581strict": 8743, "\u2581\\\\\\\"": 8744, "\u2581truth": 8745, "linux": 8746, "\u767b\u9646": 8747, "\u2581supply": 8748, "\u2581healthy": 8749, "\u2581\u6d77": 8750, "\u2581Plan": 8751, "\u2581Even": 8752, "\\\"}": 8753, "\u2581England": 8754, "\u6b4c\u66f2": 8755, "nin": 8756, "\u2581Alex": 8757, "OLD": 8758, "\u2581extrem": 8759, "\u2581generally": 8760, "Parse": 8761, "\u2581ArrayList": 8762, "lower": 8763, "events": 8764, "Selected": 8765, "\u7684\u5f71\u54cd": 8766, "\u7a7a\u8c03": 8767, "prec": 8768, "\u2581certainly": 8769, "hol": 8770, "\u6536\u8d39": 8771, "useum": 8772, "fg": 8773, "'));\\": 8774, "PD": 8775, "\u2581alone": 8776, "\u2581hus": 8777, "yr": 8778, "\u2581_,": 8779, "\u2581js": 8780, "SER": 8781, "anging": 8782, "break": 8783, "resources": 8784, "\u2581SOFTWARE": 8785, "\u2581president": 8786, "\u5bb6\u7684": 8787, "\u9ad8\u5ea6": 8788, "database": 8789, "\u53ca\u5176": 8790, "\u2581equation": 8791, "\u4eba\u5927": 8792, "\u2581Di": 8793, "\u2581\u8bf7\u6839\u636e\u4e0b\u9762\u7684": 8794, "\u2581fear": 8795, ":**": 8796, "nu": 8797, "\u2581upload": 8798, ">::": 8799, "\u2581appears": 8800, "=\\\\\\\"": 8801, "\u2581DEFAULT": 8802, "writ": 8803, "panel": 8804, "orrow": 8805, "\u2581Science": 8806, "fire": 8807, "det": 8808, "sey": 8809, "\u2581opening": 8810, "\u9002\u5e94": 8811, "\u2581Union": 8812, "mazon": 8813, "\u2581'\\\\": 8814, "icons": 8815, "\u5b8c\u6574": 8816, "\u2581prefix": 8817, "\u2581solve": 8818, "\u2581expert": 8819, "\u2581\u6587\u7ae0": 8820, "stylesheet": 8821, "\u2581Prof": 8822, "sin": 8823, "\u2581Bay": 8824, "cn": 8825, "\u4e0d\u4e86": 8826, "\u2581prices": 8827, "\u2581BO": 8828, "flag": 8829, "\u505a\u5230": 8830, "nections": 8831, "\u2581older": 8832, "\u4e8b\u60c5": 8833, "\u2581beyond": 8834, "\u611f\u5230": 8835, "rum": 8836, "\u2581PC": 8837, "~~~~~~~~": 8838, "\u2581conflic": 8839, "\u59d3\u540d": 8840, "\u52a0\u5feb": 8841, "\u2581pet": 8842, "\u2581har": 8843, "\u4eba\u6c11\u5e01": 8844, ".)\\": 8845, "\u2581tags": 8846, "ectors": 8847, "\u2581assertEquals": 8848, "\u4e3b\u5e2d": 8849, "\u2581reasons": 8850, "\u7f8e\u7684": 8851, "\u5171\u548c\u56fd": 8852, "\u2581spr": 8853, "seq": 8854, "\u2581cancer": 8855, "limit": 8856, "OF": 8857, "icies": 8858, "plex": 8859, "\u79d1\u7814": 8860, "\u2581Commit": 8861, "TV": 8862, "tvoid": 8863, "\u2581radio": 8864, "\u2581chain": 8865, "rian": 8866, "Gen": 8867, "\u2581opin": 8868, "\u5e7f\u573a": 8869, "\u2581partner": 8870, "\u5e02\u573a\u7684": 8871, "ummy": 8872, "\u2581tx": 8873, "cy": 8874, "\u2581Report": 8875, "ander": 8876, "\u2581Club": 8877, "\u2581surround": 8878, "iger": 8879, "\u6269\u5927": 8880, "\u6743\u5229": 8881, "\u2581highest": 8882, "Prot": 8883, "\u2581Fre": 8884, "\u2581happens": 8885, "VENT": 8886, "nOur": 8887, "\u2581attributes": 8888, "\u0440\u0438": 8889, "attribute": 8890, "\u2581\u4fe1\u606f": 8891, "\u2581showed": 8892, "docker": 8893, "\u2581eight": 8894, "Fields": 8895, "WR": 8896, "\u2581\u63a8\u8350": 8897, "ateway": 8898, "\u5927\u5229": 8899, "\u5904\u4e8e": 8900, "\u6cd5\u9662": 8901, "\u2581growing": 8902, ")*": 8903, "cluster": 8904, "apers": 8905, "inds": 8906, "rier": 8907, "\u662f\u4e2a": 8908, "Rest": 8909, "\u2581Tom": 8910, "\u53e5\u8bdd": 8911, "\u2581rent": 8912, "fx": 8913, "\u2581dress": 8914, "\u2581\\\".": 8915, "\u2581Card": 8916, "\u2581emphas": 8917, "\u62db\u5546": 8918, "\u2581Sign": 8919, "\u2581damage": 8920, "\u552f\u4e00": 8921, "\u2581Media": 8922, "\u2581./": 8923, "\u2581Child": 8924, "\u2581Commission": 8925, "\u2581\u5168": 8926, "Auto": 8927, "\u4e8b\u6545": 8928, "fb": 8929, "osis": 8930, "\u4f1a\u4e0a": 8931, "\u53d1\u9001": 8932, "\u2581\u53d1\u5e03\u65f6\u95f4": 8933, "\u64ad\u653e": 8934, "CCESS": 8935, "\u2581feeling": 8936, "Sk": 8937, "\u91cf\u7684": 8938, "\u2581enabled": 8939, "Member": 8940, "HP": 8941, "Total": 8942, "\u2581responsible": 8943, "herit": 8944, "\u2581git": 8945, "notation": 8946, "month": 8947, "\u2581propos": 8948, "\u5973\u5b69": 8949, "\u2581dog": 8950, "\u2581Mart": 8951, "\u2581Sunday": 8952, "\u2581Sun": 8953, "essions": 8954, "\\\")]\\": 8955, "\u8ba9\u4f60": 8956, "Wrapper": 8957, "\u7236\u4eb2": 8958, "\u2581Control": 8959, "\u2581slight": 8960, "\u2581identify": 8961, "atar": 8962, "\u2581eat": 8963, "bra": 8964, "\u786e\u8ba4": 8965, "foreach": 8966, "fetch": 8967, "\u8282\u76ee": 8968, "toggle": 8969, "anal": 8970, "etic": 8971, "runtime": 8972, "\u2581spend": 8973, "\u2581\u2502": 8974, "nce": 8975, "\u65f6\u7684": 8976, "\u2581pointer": 8977, "\u91cc\u9762": 8978, "\u65e5\u524d": 8979, "ucket": 8980, "straints": 8981, "\u4ee5\u4e3a": 8982, "las": 8983, "ategy": 8984, "\u8fd0\u8425": 8985, "\u2581manage": 8986, "\u2581trigger": 8987, "\u611f\u53d7": 8988, "features": 8989, "USER": 8990, "\u2581voc": 8991, "\u2581rows": 8992, "\u2581Mer": 8993, "\u6c38\u8fdc": 8994, "\u2581Thank": 8995, "each": 8996, "ToString": 8997, "\u90fd\u5728": 8998, "\u51fd\u6570": 8999, "Play": 9000, "\u2581samples": 9001, "\u2581couldn": 9002, "\u2581balance": 9003, "team": 9004, "\u62db\u751f": 9005, "Java": 9006, "\u2581pow": 9007, "\u2581smart": 9008, "\u2581Next": 9009, "\u043e\u043b": 9010, "\u7ed9\u4e88": 9011, "\u2581Super": 9012, "\u2581innov": 9013, "\u540c\u6837": 9014, "\u6570\u5b66": 9015, "\u2581Love": 9016, "detail": 9017, "\u2581psy": 9018, "INS": 9019, "\u2581processes": 9020, "\u2581warm": 9021, "\u2581Status": 9022, "\u9075\u5b88": 9023, "PECT": 9024, "\u2581authors": 9025, "HERE": 9026, "\u2581qui": 9027, "\u2581Real": 9028, "\u8bf4\u6cd5": 9029, "\u2581gar": 9030, "\u2581Miss": 9031, "\u4f1a\u5728": 9032, "\u884c\u7684": 9033, "bg": 9034, "DATA": 9035, "setup": 9036, "oles": 9037, "\u81f3\u5c11": 9038, "\u4eba\u7269": 9039, "Socket": 9040, "\u2581village": 9041, "latest": 9042, "\u5f3a\u8c03": 9043, "encode": 9044, "Boolean": 9045, "ados": 9046, "\u2581Ham": 9047, "\u9884\u8ba1": 9048, "\u4e00\u6bb5": 9049, "serve": 9050, "\u2581caused": 9051, "'))\\": 9052, "\u2581launch": 9053, "\u2581paid": 9054, "eper": 9055, "junit": 9056, "\u2581fmt": 9057, "porate": 9058, "\u2581representation": 9059, "\u2581matches": 9060, "\u2581).": 9061, "raz": 9062, "\u79bb\u5f00": 9063, "\u2581dry": 9064, "\u2581cam": 9065, "blank": 9066, "Media": 9067, "\u65b0\u534e\u7f51": 9068, "\u6587\u5b66": 9069, "\u3000\u3000": 9070, "ventory": 9071, "\u653e\u5728": 9072, "\u2581permission": 9073, "\u2581starts": 9074, "\u2581queue": 9075, "\u7a81\u7834": 9076, ")),\\": 9077, "\u2581Take": 9078, "Descriptor": 9079, "\u2581hotel": 9080, "essor": 9081, "lam": 9082, "\u2581login": 9083, "\u2581Admin": 9084, "Rece": 9085, "\u2581resolve": 9086, ":.": 9087, "\u5f8b\u5e08": 9088, "arks": 9089, "\u8bb8\u53ef": 9090, "iency": 9091, "FLAG": 9092, "(\\\"\\\\": 9093, "ala": 9094, "\u961f\u4f0d": 9095, "@@": 9096, "'])\\": 9097, "\u2581diagn": 9098, "\u7684\u57fa\u7840": 9099, "\u673a\u5668": 9100, "Results": 9101, "ius": 9102, "\u2581numpy": 9103, "REG": 9104, "\u773c\u775b": 9105, "pped": 9106, "\u2581schema": 9107, "\u2500\u2500\u2500\u2500": 9108, "lu": 9109, "gba": 9110, "\u2581daughter": 9111, "\u76f8\u6bd4": 9112, ",$": 9113, "\u2581anti": 9114, "\u5de5\u8d44": 9115, "\u2581native": 9116, "getName": 9117, "\u2581tit": 9118, "Pat": 9119, "\u2581eye": 9120, "\u611f\u67d3": 9121, "\u2581abstract": 9122, "Any": 9123, "\u2581capacity": 9124, "flags": 9125, "assertEqual": 9126, "\u2581delay": 9127, "\u73b0\u5b9e": 9128, "\u2581spot": 9129, "gi": 9130, "standing": 9131, "Trace": 9132, "\u2581flat": 9133, "icing": 9134, "\u9769\u547d": 9135, "\u2581vec": 9136, "\u2581Cam": 9137, "\u7684\u4ea7\u54c1": 9138, "\u2581Android": 9139, "kins": 9140, "DateTime": 9141, "\u8ffd\u6c42": 9142, "\u2581OS": 9143, "\u2581summary": 9144, "sn": 9145, "\u2581sett": 9146, "\u6548\u7387": 9147, "\u2581employees": 9148, "\u2581seven": 9149, "\u2581techniques": 9150, "\u2581wild": 9151, "\u2581determined": 9152, "strument": 9153, "\u5b89\u5fbd": 9154, "\u043e\u0432": 9155, "\u2581Application": 9156, "\u2581Two": 9157, "\u2581NS": 9158, "sdk": 9159, "\u63d0\u4ea4": 9160, "\u5929\u6d25": 9161, "Double": 9162, "\u4f9d\u636e": 9163, "\u6765\u5230": 9164, "found": 9165, "\u2581voice": 9166, "\u2581successfully": 9167, "equation": 9168, "material": 9169, "\u6cb3\u5317": 9170, "JS": 9171, "loy": 9172, "\u5316\u5de5": 9173, "\u2026\\": 9174, "\u2581cit": 9175, "nSe": 9176, "\u2581Price": 9177, "\u8d8b\u52bf": 9178, "\u2581fra": 9179, "Space": 9180, "stats": 9181, "\u2581Cap": 9182, "\u2605\u2605": 9183, "\u2581Mary": 9184, "\u2581Saturday": 9185, "ications": 9186, "\u5168\u5e02": 9187, "\u5b9a\u4e49": 9188, "HTTP": 9189, "\u2581placed": 9190, "\u2581submit": 9191, "\u2581danger": 9192, "zh": 9193, "rollers": 9194, "\u2581movement": 9195, "aud": 9196, "bash": 9197, "\u2581Using": 9198, "\u2581Development": 9199, "\u2581efficient": 9200, "nAn": 9201, "+-": 9202, "\\\");": 9203, "\u53f7\u7801": 9204, "\u2581calling": 9205, "ye": 9206, "\u2581Source": 9207, "\u2581math": 9208, "nDes": 9209, "\u2581Index": 9210, "MD": 9211, "\u2581Bas": 9212, "\u2581\u9009\u62e9": 9213, "Generator": 9214, "\u2581thr": 9215, "ifies": 9216, "adr": 9217, "\u7406\u60f3": 9218, "xi": 9219, "\u8f7b\u677e": 9220, "\u6bcf\u5e74": 9221, "ugar": 9222, ",-": 9223, "LINE": 9224, "Second": 9225, "\u2581SE": 9226, "uilt": 9227, "_;\\": 9228, "\u2581\u5730": 9229, "\u2581baby": 9230, "\u672c\u9898\u8003\u67e5": 9231, "\u2581opportunities": 9232, "cfg": 9233, "\u2581benefit": 9234, "\u2581observed": 9235, "\u4e8c\u624b": 9236, "\u2581commercial": 9237, "exports": 9238, "nAdd": 9239, "]{": 9240, "\u5373\u4f7f": 9241, "\u2581Ins": 9242, "\u2581\\\"./": 9243, "\u2581Block": 9244, "\u6c11\u4e3b": 9245, "ursday": 9246, "\u2581controller": 9247, "\u00e9es": 9248, "redu": 9249, "\u2581Institute": 9250, "\u0435\u0442": 9251, "\u6211\u5c31": 9252, "-(": 9253, "\u5bb6\u5177": 9254, "\u2581Support": 9255, "\u8fd1\u671f": 9256, "\u62db\u6807": 9257, "\u2581shoot": 9258, "theta": 9259, "\u2581redirect": 9260, "\u5b66\u4f1a": 9261, "\u2581CC": 9262, "\u2581Michael": 9263, "\u2581transaction": 9264, "\u8fd8\u53ef\u4ee5": 9265, "\u2581interval": 9266, "\u2581metadata": 9267, "clusive": 9268, "\u7684\u65b9\u6cd5": 9269, "\u2581Many": 9270, "\u2581bath": 9271, "\u5e38\u89c1": 9272, "\u2581destroy": 9273, "\u2581gain": 9274, "istent": 9275, "\u2581sch": 9276, "sa": 9277, "\u901a\u4fe1": 9278, "\u4ecd\u7136": 9279, ")+": 9280, "uesday": 9281, "\u2581notes": 9282, "\u2581updates": 9283, "\u2581nearly": 9284, "\u5f80\u5f80": 9285, "\u6709\u4ec0\u4e48": 9286, "nSee": 9287, "contin": 9288, "\u5c3d\u7ba1": 9289, "uts": 9290, "complete": 9291, "\u5b57\u4f53": 9292, "\u6709\u6240": 9293, "-\\\\": 9294, "\u2581usage": 9295, "\u2581maintain": 9296, "enable": 9297, "\u5c11\u5e74": 9298, "\u770b\u7740": 9299, "\u2581strings": 9300, "ipes": 9301, "\u2581---\\": 9302, "azz": 9303, "\u7684\u4e8b\u60c5": 9304, "topic": 9305, "\u2581wonderful": 9306, "\u9010\u6e10": 9307, "\u2581Local": 9308, "()));\\": 9309, "typename": 9310, "\u9ad8\u6821": 9311, "\u2581haven": 9312, "\u4f8b\u5982": 9313, "onic": 9314, "adian": 9315, "\u2581Sam": 9316, "library": 9317, "\u2581Hi": 9318, "Full": 9319, "night": 9320, "fail": 9321, "Press": 9322, "\u7528\u54c1": 9323, "edy": 9324, "\u2581append": 9325, "DP": 9326, "anguages": 9327, "\u5bf9\u8bdd": 9328, "\u2581situ": 9329, "\u2581\u6b21": 9330, "uda": 9331, "\u2581desc": 9332, "\u2581execute": 9333, "uan": 9334, "\u2581pars": 9335, "\u2581square": 9336, "\u2581USA": 9337, "\u2581fol": 9338, "\u2581presence": 9339, "\u7684\u4fe1\u606f": 9340, "zero": 9341, "iber": 9342, "\u4f20\u9012": 9343, "\u5c71\u897f": 9344, "asket": 9345, "undred": 9346, "\u2581reset": 9347, "\u2581\u9762": 9348, "Xml": 9349, "\u2581Chinese": 9350, "nodes": 9351, "eps": 9352, "\u2581exhib": 9353, "Arr": 9354, "\u2581belong": 9355, "webkit": 9356, "reek": 9357, "\u4e0d\u518d": 9358, "\u56fd\u5916": 9359, "\u2581aux": 9360, "\u9009\u9879": 9361, "\u9884\u9632": 9362, "\u2581Music": 9363, "\u2581vel": 9364, "\u7535\u4fe1": 9365, "\u2581Install": 9366, "\u2581fetch": 9367, "\u5982\u679c\u60a8": 9368, "\u2581Boolean": 9369, "conv": 9370, "\u2581\u7ed9": 9371, "\u2581husband": 9372, "rent": 9373, "wrapper": 9374, "anta": 9375, "\u5e74\u9f84": 9376, "\u2581Rights": 9377, "\u586b\u5199": 9378, "\u89c2\u5bdf": 9379, "\u89d2\u5ea6": 9380, "\u2581aren": 9381, "\u4e0d\u7528": 9382, "\u7279\u522b\u662f": 9383, "TT": 9384, "Ret": 9385, "\u2581\u65b0\u95fb": 9386, "atin": 9387, "pages": 9388, "\u4e0d\u77e5": 9389, "resolve": 9390, "\u2581hyp": 9391, "\u2581\u738b": 9392, "\u7269\u7406": 9393, "sect": 9394, "estival": 9395, "columns": 9396, "han": 9397, "\u2581Bank": 9398, "Tests": 9399, "\u2581saved": 9400, "ening": 9401, "\u2581protection": 9402, "\u2581GNU": 9403, "\u2581miles": 9404, "\u2581trend": 9405, "predict": 9406, "\u540c\u5fd7": 9407, "nPlease": 9408, "\u2581Online": 9409, "\u2581vehicle": 9410, "nhttps": 9411, "rael": 9412, "Login": 9413, "\u2581Access": 9414, "\u535a\u5ba2": 9415, "']);\\": 9416, "BL": 9417, "pkg": 9418, "\u6218\u4e89": 9419, "=\\\"<?": 9420, "REF": 9421, "\u4e91\u5357": 9422, "nThat": 9423, "uns": 9424, "\u4f3c\u4e4e": 9425, "\u2581je": 9426, "\u60f3\u8981": 9427, "\u2581UID": 9428, "\u2581(_": 9429, "Conf": 9430, "\u2581glass": 9431, "\u2581Oh": 9432, "\u2581Const": 9433, "\u5404\u4f4d": 9434, "awn": 9435, "\u6295\u8d44\u8005": 9436, "\u2581\u043d\u0430": 9437, "\u5728\u6b64": 9438, "\u5927\u5b66\u751f": 9439, "\u2581leader": 9440, "\u2581repo": 9441, "ilk": 9442, "\u2581\u5357": 9443, "\u2581Ber": 9444, "bour": 9445, "'].": 9446, "\u2581hab": 9447, "odo": 9448, "aked": 9449, "\u2581\u5f53\u524d\u79bb\u7ebf": 9450, "\u52a0\u5927": 9451, "ifndef": 9452, "\u5229\u6da6": 9453, "nmodule": 9454, "\u2581Click": 9455, "loop": 9456, "\u2581offered": 9457, "Bean": 9458, "viewer": 9459, "\u52a0\u4e0a": 9460, "\u2581Client": 9461, "\u2581embed": 9462, "\u2581Enter": 9463, "\u9a7e\u9a76": 9464, "\u2581sports": 9465, "atalog": 9466, "\u2581sql": 9467, "\u6240\u8c13": 9468, "\u2581Lou": 9469, "\u6cd5\u56fd": 9470, "friend": 9471, "El": 9472, "asset": 9473, "metric": 9474, "\u5e74\u4ee3": 9475, "\u2581Team": 9476, "theme": 9477, "\u662f\u4e0d\u662f": 9478, ".\u00a0": 9479, "\u798f\u5efa": 9480, "Constants": 9481, "Drawing": 9482, "\u2581advert": 9483, "\u4e2d\u56fd\u7684": 9484, "\u2581inner": 9485, "\u2581aria": 9486, "\u8bf4\u7684": 9487, "ANG": 9488, "\u2581concent": 9489, "nesday": 9490, "\u2581\u674e": 9491, "\u2581changing": 9492, "\u2581artist": 9493, "\u2581Life": 9494, "\u2581quarter": 9495, "\u5341\u4e8c": 9496, "\u2581nom": 9497, "}_{": 9498, "\u2581instanceof": 9499, "ntemplate": 9500, "\u2581Mount": 9501, "Cond": 9502, "agger": 9503, "\u7a81\u51fa": 9504, "\u548c\u8c10": 9505, "\u65c5\u884c": 9506, "\u2581introduced": 9507, "\u2581Texas": 9508, "\u2581Only": 9509, "Book": 9510, "\u2581tal": 9511, "\u2581xml": 9512, "\u2581joined": 9513, "\u2581electric": 9514, "\u2581Party": 9515, "\u2581pictures": 9516, "\u2581obvious": 9517, "What": 9518, "\u2581farm": 9519, "\u5c0f\u7ec4": 9520, "\u2581Sal": 9521, "\u2581Cup": 9522, "\u2581respectively": 9523, "\u2581typename": 9524, "\u2581remains": 9525, "\u795e\u7ecf": 9526, "rypto": 9527, "\u2581hospital": 9528, "\u2581vac": 9529, "\u2581Roy": 9530, "\u2581dynamic": 9531, "\u4f9d\u7136": 9532, "\u4e0a\u4e0b": 9533, "\u2581initi": 9534, "ytics": 9535, "lint": 9536, "\u2581boost": 9537, "\u2581stars": 9538, "\u6570\u7801": 9539, "\u2581income": 9540, "\u2581buf": 9541, "Save": 9542, "\u2581\\\"\\\"\\": 9543, "\u2581talking": 9544, "linear": 9545, "\u2581Pen": 9546, "CF": 9547, "nr": 9548, "\u5229\u4e8e": 9549, "THER": 9550, "\u5230\u5e95": 9551, "\u2581generation": 9552, "USE": 9553, "Keys": 9554, "\u2581retr": 9555, "\u2581verify": 9556, "\u826f\u597d": 9557, "\u2581invalid": 9558, "\u7269\u4e1a": 9559, "Serv": 9560, "\u4f18\u5316": 9561, "\u5929\u6c14": 9562, "\u559c\u6b22\u7684": 9563, "\u6536\u5230": 9564, "lik": 9565, "uate": 9566, "\u2581'.": 9567, "\u2581'#": 9568, "\u836f\u54c1": 9569, "\\\"],": 9570, "\u2581brain": 9571, "\u2581Ann": 9572, "Flags": 9573, "\u2581showing": 9574, "ola": 9575, "toBe": 9576, "\u6211\u4e5f": 9577, "\u987a\u5229": 9578, "\u2581implemented": 9579, "/>\\": 9580, "\u2581sharing": 9581, "\u2581dimension": 9582, "nNow": 9583, "\u2581male": 9584, "\u2581Mont": 9585, "cle": 9586, "\u2581ahead": 9587, "[:,": 9588, "\u2581feet": 9589, "\u2581harm": 9590, "\u2581Valid": 9591, "\u8fd8\u6ca1\u6709": 9592, "Common": 9593, "Events": 9594, "\u2581Leg": 9595, "atible": 9596, "\u2581\uff0c": 9597, "plugins": 9598, "Program": 9599, "dp": 9600, "Anal": 9601, "\u613f\u610f": 9602, "directory": 9603, "\u2581Security": 9604, "\u2581weather": 9605, "\u539f\u6765": 9606, "pair": 9607, "\u516c\u56ed": 9608, "jet": 9609, "\u2581east": 9610, "it\u00e9": 9611, "chat": 9612, "\u2581Rest": 9613, "\u7279\u5f81": 9614, "ools": 9615, "Send": 9616, "ered": 9617, "arian": 9618, "IMIT": 9619, "\u2581mail": 9620, "\u2581Champion": 9621, "\u2581efforts": 9622, "Simple": 9623, "\u2581Central": 9624, "\u2581gift": 9625, "\u2581\\\"%": 9626, "Copy": 9627, "uality": 9628, "\u4eba\u6c11\u5171\u548c\u56fd": 9629, "\u2581weekend": 9630, "\u6e56\u5317": 9631, "Fail": 9632, "\u2581workers": 9633, "\u2581attract": 9634, "\u2581journal": 9635, "yaml": 9636, "\u2581cup": 9637, "avour": 9638, "lers": 9639, "\u2581\u7528\u6237": 9640, "\u4e13\u95e8": 9641, "\u2581audio": 9642, "\u4e00\u6761": 9643, "\u2581Although": 9644, "brief": 9645, "Hz": 9646, "+\\": 9647, "\u5965\u8fd0": 9648, "\u5982\u679c\u4f60": 9649, "flex": 9650, "\u5145\u6ee1": 9651, "RT": 9652, "\u6307\u6807": 9653, "\u2581paint": 9654, "construct": 9655, "nv": 9656, "\u2581songs": 9657, "\u66f4\u662f": 9658, "\u2581confirm": 9659, "\u2581\u597d": 9660, "\u2581metal": 9661, "alty": 9662, "unique": 9663, "Remove": 9664, "azy": 9665, "\u2581waiting": 9666, "collection": 9667, "\u52a8\u753b": 9668, "\u2581Pay": 9669, "\u5f88\u5927": 9670, "aration": 9671, "delta": 9672, "virtual": 9673, "unately": 9674, "\u9884\u6d4b": 9675, "lan": 9676, "\u6240\u6709\u7684": 9677, "\u62a5\u4ef7": 9678, "\u2581payment": 9679, "\u2581mission": 9680, "isting": 9681, "\u2581Step": 9682, "ulator": 9683, "\u2581Elect": 9684, "\u2581ms": 9685, "\u2581restrict": 9686, "arnings": 9687, "\u623f\u5b50": 9688, "Ac": 9689, "\u2581\u6700\u540e\u767b\u5f55": 9690, "\u5b9e\u529b": 9691, "\u2581props": 9692, "(\\\"%": 9693, "Screen": 9694, "\u2581meant": 9695, "\u697c\u4e3b": 9696, "okens": 9697, "margin": 9698, "\u5fc3\u91cc": 9699, "\u2581segment": 9700, "\u2581assign": 9701, "plier": 9702, "\u2581span": 9703, "\u2581Word": 9704, "nNo": 9705, "\u2581consequ": 9706, "\u2581traffic": 9707, "urred": 9708, "ORY": 9709, "\u2581election": 9710, "rand": 9711, "contact": 9712, "nis": 9713, "\u2581payload": 9714, "\u53d1\u8a00": 9715, "Failed": 9716, "Single": 9717, "\u66f4\u597d": 9718, "\u2581Last": 9719, "\u5b63\u5ea6": 9720, "\u2581arm": 9721, "km": 9722, "\u2581lab": 9723, "\u2581reached": 9724, "\u60f3\u5230": 9725, "\u2581discussion": 9726, "\u2581cards": 9727, "editor": 9728, ">\\\\": 9729, "\u7684\u4e3b": 9730, "icine": 9731, "inf": 9732, "\u2581sust": 9733, "\u590d\u6742": 9734, "nSh": 9735, "\u2581compare": 9736, "\u533b\u5b66": 9737, "\u57fa\u56e0": 9738, "\u2581\u5468": 9739, "\u2581MS": 9740, "\u2581perhaps": 9741, "\u2581kept": 9742, "\u2581placeholder": 9743, "\u76ee\u5f55": 9744, "\u8463\u4e8b": 9745, "forEach": 9746, "\u4f18\u5148": 9747, "\u2581represents": 9748, "\u2581doll": 9749, "\u2581vir": 9750, "ological": 9751, "\u2581Hall": 9752, "\u77f3\u6cb9": 9753, "\u2581AL": 9754, "\u2581thous": 9755, "\u95ee\u9898\u7684": 9756, "\u2581peace": 9757, "\u2581creation": 9758, "\u52a8\u4f5c": 9759, "\u89c4\u5219": 9760, "\u2581Il": 9761, ")](": 9762, "orph": 9763, "\u2581\u6027": 9764, "\u2581wat": 9765, "Global": 9766, "\u2581somew": 9767, "\u2581calc": 9768, "Home": 9769, "\u2581\u5206": 9770, "\u2581furn": 9771, "ima": 9772, "\u2581girls": 9773, "ASE": 9774, "\u6743\u9650": 9775, "\u65e5\u5e38": 9776, "&#": 9777, "\u2581stored": 9778, "\u2581minor": 9779, "\u2581Monday": 9780, "mov": 9781, "\u2581Graph": 9782, "Db": 9783, "\u2581films": 9784, "Enter": 9785, "iteral": 9786, "\u2581businesses": 9787, "\u8863\u670d": 9788, "ategor": 9789, "\u2581Content": 9790, "\u2581explicit": 9791, "\u2581Pal": 9792, "\u2581married": 9793, "iterator": 9794, "GA": 9795, "iration": 9796, "\u7684\u65b9\u5f0f": 9797, "poses": 9798, "appy": 9799, "\u901a\u5e38": 9800, "\u2581People": 9801, "\u9047\u5230": 9802, "\u6211\u5728": 9803, "\u6210\u4ea4": 9804, "Ne": 9805, "uce": 9806, "\u2581sequ": 9807, "\u2581seeing": 9808, "objects": 9809, "\u2581bio": 9810, "\u2581cash": 9811, "\u2581During": 9812, "\u2581Once": 9813, "\u4e2d\u5c0f": 9814, "\u2581Press": 9815, "headers": 9816, "\u2581\u540d": 9817, "Domain": 9818, "RI": 9819, "\u624b\u6bb5": 9820, "generate": 9821, "Texture": 9822, "\u4eba\u4f53": 9823, "ancer": 9824, "}\\\"": 9825, "\u914d\u5957": 9826, "EQ": 9827, "nFrom": 9828, "\u2581alternative": 9829, "iner": 9830, "\u2581packages": 9831, ">;\\": 9832, "\u4f4f\u623f": 9833, "SELECT": 9834, "kind": 9835, "\u81ea\u4e3b": 9836, "\u610f\u5473": 9837, "\u662f\u7531": 9838, "\u5929\u7684": 9839, "\u2581\u4e0d\u9650": 9840, "single": 9841, "\u2581\u5e02": 9842, "];": 9843, "\u514d\u8d23": 9844, "throws": 9845, "UTH": 9846, "riage": 9847, "\u2581Whe": 9848, "Abstract": 9849, "\u2581remaining": 9850, "\u2581cos": 9851, "\u523a\u6fc0": 9852, "\u2581lots": 9853, "\u2581$('#": 9854, "\u2581{%": 9855, "\u63a5\u89e6": 9856, "\u2581ult": 9857, "\u2581posts": 9858, "\u2581eventually": 9859, "pressed": 9860, "azine": 9861, "going": 9862, "\u672c\u7f51\u7ad9": 9863, "amount": 9864, "about": 9865, "\u2581wed": 9866, "\u5e73\u8861": 9867, "\u4e00\u540d": 9868, "trace": 9869, "Math": 9870, "\u2581guys": 9871, "\u6279\u53d1": 9872, "\u2581LOG": 9873, "\u2581Jesus": 9874, "shadow": 9875, "\u836f\u7269": 9876, "program": 9877, "\u2581occur": 9878, "sur": 9879, "Fragment": 9880, "ened": 9881, "\u623f\u6e90": 9882, "when": 9883, "\u2581covered": 9884, "\u2581commands": 9885, "typeof": 9886, "subject": 9887, "\u2581France": 9888, "\u540c\u610f": 9889, "configuration": 9890, "windows": 9891, "rule": 9892, "\u8425\u4e1a": 9893, "\u7684\u4e0d": 9894, "\u662f\u4e0d": 9895, "\u2581Jer": 9896, "hesis": 9897, "\u2581investment": 9898, "\u6700\u597d\u7684": 9899, "Memory": 9900, "Contact": 9901, "getElement": 9902, "\u2581heavy": 9903, "\u2581\u7535\u5b50": 9904, "\u2581Who": 9905, "ffee": 9906, "\u2581enum": 9907, "\u6307\u5b9a": 9908, "Extension": 9909, "\u2581fant": 9910, "Ids": 9911, "\u9632\u6b62": 9912, "\u2581annual": 9913, "\u2581combination": 9914, "Section": 9915, "tenance": 9916, "loor": 9917, "achment": 9918, "frastr": 9919, "\u2581Download": 9920, "nto": 9921, "Vol": 9922, "Connect": 9923, "Scope": 9924, "logo": 9925, "\u2581properly": 9926, "mathcal": 9927, "\u2581\u8bf7\u6839\u636e\u4e0b\u9762\u7684\u6b4c\u8bcd": 9928, "\u62cd\u6444": 9929, "\u2581managed": 9930, "\u7bc7\u6587\u7ae0": 9931, "\u5730\u4f4d": 9932, "\u4e8b\u5b9e": 9933, "\u2581cursor": 9934, "stud": 9935, "\u2581aim": 9936, "\u6e20\u9053": 9937, "\u2581truly": 9938, "\u5728\u4e00\u8d77": 9939, "\u2581tele": 9940, "reme": 9941, "\u2581\u7537": 9942, "ko": 9943, "nologies": 9944, "\u2581George": 9945, "voc": 9946, "\u4e34\u5e8a": 9947, "\u4eba\u751f": 9948, "\u0435\u043d\u0438": 9949, "\u4e00\u5b9a\u7684": 9950, "\u2581smooth": 9951, "\u2581density": 9952, "ubern": 9953, "bas": 9954, "Mapper": 9955, "\u54c1\u79cd": 9956, "\u8fc7\u7684": 9957, ":'": 9958, "Internal": 9959, "\u5929\u4e0b": 9960, "Runtime": 9961, "\u2581sin": 9962, "\u957f\u7684": 9963, "Attributes": 9964, "\u2581Cong": 9965, "AAAA": 9966, "\u2581\u0431": 9967, "\u2581Att": 9968, "_(": 9969, "iments": 9970, "arc": 9971, "\u2581Blue": 9972, "appro": 9973, "bel": 9974, "\u2581reject": 9975, "\u2581leads": 9976, "\u7528\u6237\u5bf9": 9977, "\u2581belief": 9978, "');": 9979, "operation": 9980, "sumer": 9981, "\u2581whom": 9982, "ademic": 9983, "\u2581\u7f51\u7ad9": 9984, "\u2581Mov": 9985, "CI": 9986, "\u2581boy": 9987, "EY": 9988, "\u672c\u8eab": 9989, "Price": 9990, "Att": 9991, "\u9898\u610f": 9992, "\u2581&&\\": 9993, "\u2581competition": 9994, "\u00e9r": 9995, "\u2581decor": 9996, "\u2581timeout": 9997, "ett": 9998, "\u2581guarant": 9999, "\u2581seed": 10000, "\u672c\u6587": 10001, "mal": 10002, "\u2581Language": 10003, "\u2581\u8054\u7cfb\u7535\u8bdd": 10004, "utorial": 10005, "}{\\\\": 10006, "\u2581OTHER": 10007, "\u2581Vir": 10008, "\u5b98\u65b9": 10009, "\u2581(\\\\": 10010, "terr": 10011, "embed": 10012, "\u4ee4\u4eba": 10013, "\u2581Sil": 10014, "\u2581frequency": 10015, "Proxy": 10016, "\u2581INT": 10017, "\u7ed9\u4f60": 10018, "oor": 10019, "\u7a3f\u4ef6\u6765\u6e90": 10020, "ivalent": 10021, "throw": 10022, "\u5fd7\u613f": 10023, "\u2581interview": 10024, "\u2581decisions": 10025, "\u2581emb": 10026, "Identifier": 10027, "\u2581attend": 10028, "\u2581documents": 10029, "othing": 10030, "\u2581sand": 10031, "\u5c0f\u8bf4": 10032, ".\u300a": 10033, "BD": 10034, "\u2581alloc": 10035, "\u5168\u4f53": 10036, "\u6d41\u7a0b": 10037, "export": 10038, "\u6574\u7406": 10039, "\u2581asset": 10040, "yan": 10041, "\u2581adopt": 10042, ":`": 10043, "pan": 10044, "\u2581NE": 10045, "\u2581\u5a01": 10046, "\u2581feedback": 10047, "\u2581Section": 10048, "\u81ea\u6cbb": 10049, "\u2581gather": 10050, "\u2581kitchen": 10051, "\u7684\u5185\u5bb9": 10052, "ORS": 10053, "\u76d1\u7ba1": 10054, "Import": 10055, "\u2581validate": 10056, "\u2581Water": 10057, "\u2581\u8054": 10058, "\u2581occas": 10059, "\u6211\u5e02": 10060, "\u4e24\u79cd": 10061, "\u2581Gen": 10062, "\u7b2c\u56db": 10063, "watch": 10064, "\u6784\u6210": 10065, "\u2581cv": 10066, "IVE": 10067, "\u2581Self": 10068, "/{": 10069, "\u5982\u4eca": 10070, "\u6311\u6218": 10071, "\u6709\u4e00\u4e2a": 10072, "FE": 10073, "bits": 10074, "NotNull": 10075, "icious": 10076, "\u2581QQ": 10077, "\u6bcf\u6b21": 10078, "\u2581posted": 10079, "poration": 10080, "VC": 10081, "ilon": 10082, "sync": 10083, "\u2581Global": 10084, "\u2581fat": 10085, "\u2581foreign": 10086, "\u2581Because": 10087, "aci\u00f3n": 10088, "\u5b9e\u4f53": 10089, "\u6210\u719f": 10090, "exit": 10091, "\u2581Flor": 10092, "\u2581rich": 10093, "\u9996\u6b21": 10094, "\u2581Camp": 10095, "\u2581Select": 10096, "navbar": 10097, "../../../": 10098, "company": 10099, "\u4f7f\u5f97": 10100, "undef": 10101, "entence": 10102, "\u2581secure": 10103, "ndes": 10104, "\u770b\u4e86": 10105, "\u2581Current": 10106, "\u793e\u4f1a\u4e3b\u4e49": 10107, "Prefix": 10108, "\u2581explore": 10109, "\u5929\u7136": 10110, "\u2581schedule": 10111, "\u2581pieces": 10112, "\u2581Education": 10113, "\u2581lif": 10114, "green": 10115, "leases": 10116, "\u9752\u5c9b": 10117, "\u2581Document": 10118, "\u2581Output": 10119, "\u2581las": 10120, "ati": 10121, "\u00fcr": 10122, "Scale": 10123, "symbol": 10124, "\\\"],\\": 10125, "ira": 10126, "ansion": 10127, "\u6b7b\u4ea1": 10128, "/)": 10129, "\u2581Rock": 10130, "\u2581developing": 10131, "akers": 10132, "\u2581unknown": 10133, "Dest": 10134, "\u2581Africa": 10135, "\u6539\u9020": 10136, "\u2581Jul": 10137, "\u2581ship": 10138, "\u7ec4\u5408": 10139, "formance": 10140, "uz": 10141, "\u2581\u0430": 10142, "\u8eab\u8fb9": 10143, "'>": 10144, "\u2581extremely": 10145, "\u5c06\u4f1a": 10146, "\u4e8c\u5341": 10147, "\u4f4f\u5b85": 10148, "\u2581\u5f00": 10149, "\u2581advantage": 10150, "JECT": 10151, "\u2581Ret": 10152, "driver": 10153, "\u6709\u7740": 10154, "\u2581Ter": 10155, "\u5728\u8fd9\u91cc": 10156, "chmark": 10157, "\u2581coverage": 10158, "otional": 10159, "nDe": 10160, "\u2581forces": 10161, "timeout": 10162, "\u2581___": 10163, "ression": 10164, "\u2581intr": 10165, "\u2581})": 10166, "\u5c0f\u7684": 10167, "\u660e\u661f": 10168, "\u76f8\u4e92": 10169, "stone": 10170, "\u2581Optional": 10171, "\u5206\u4e3a": 10172, "depth": 10173, "\u2581Care": 10174, "tech": 10175, "\u2581Second": 10176, "fmt": 10177, "\u2581Island": 10178, "Cor": 10179, "\u627f\u8bfa": 10180, "\u2581Twitter": 10181, "\u5973\u58eb": 10182, "\u2581kernel": 10183, "\u662f\u56e0\u4e3a": 10184, "\u2581tend": 10185, "\u2581trav": 10186, "\u822a\u7a7a": 10187, ";}\\": 10188, "router": 10189, "\u2581Fil": 10190, "MC": 10191, "\u2581Prem": 10192, "\u5141\u8bb8": 10193, "\u2581Sl": 10194, "\u5728\u8fd9": 10195, "\u2581chat": 10196, "\u4e3b\u6301": 10197, "\u2581angle": 10198, "\u2581si": 10199, "\u9875\u9762": 10200, "\u2581procedure": 10201, "\u6b4c\u8bcd\u7684": 10202, "!!!!": 10203, "\u2581IF": 10204, "\u5ba3\u5e03": 10205, "\u533b\u836f": 10206, "Ax": 10207, "\u2581vote": 10208, "\u786e\u5b9e": 10209, "uer": 10210, "\u2581#\\": 10211, "ensus": 10212, "bat": 10213, "XML": 10214, "Services": 10215, "\u2581VAL": 10216, "memory": 10217, "black": 10218, "relation": 10219, "Car": 10220, "\u2581ratio": 10221, "atile": 10222, "nstruct": 10223, "\u2581fans": 10224, "Pub": 10225, "BB": 10226, "\u4e3e\u62a5": 10227, "DEBUG": 10228, "\u542b\u6709": 10229, "utely": 10230, "\u6807\u5fd7": 10231, "\u2581fan": 10232, "\u2581Jew": 10233, "\u54ea\u91cc": 10234, "\u2581Figure": 10235, "inator": 10236, "\u2581bin": 10237, "sigma": 10238, "\u2581Pub": 10239, "ivo": 10240, "\u2581idx": 10241, "edom": 10242, "\u2581Mex": 10243, "\u2581delivery": 10244, "abin": 10245, "uv": 10246, "\u2581****": 10247, "\u2581gone": 10248, "\u2581validation": 10249, "trl": 10250, "\u2581\u56de": 10251, "\u5c31\u80fd": 10252, "\u5e74\u524d": 10253, "\u2581Light": 10254, "WE": 10255, "MODE": 10256, "\u2581effic": 10257, "\u6bd5\u4e1a\u751f": 10258, "\u2581flags": 10259, "rim": 10260, "\u4e13\u4e1a\u7684": 10261, "\u2581Item": 10262, "iser": 10263, "\u5426\u5219": 10264, "\u6700\u4f4e": 10265, "\u4e1c\u65b9": 10266, "\uff1a\u201c": 10267, "\u2581medium": 10268, "\u2581Social": 10269, "\u2581Route": 10270, "ubernetes": 10271, "isters": 10272, "\u63d0\u524d": 10273, "xc": 10274, "compl": 10275, "\u5927\u90e8\u5206": 10276, "lee": 10277, "clean": 10278, "NT": 10279, "owl": 10280, "\u5199\u51fa\u6b4c\u8bcd\u7684": 10281, "\u2581investig": 10282, "\u2581mach": 10283, "\u2581\\\"^": 10284, ".\\\")\\": 10285, "utive": 10286, "\u7684\u751f\u6d3b": 10287, "\u4e0a\u5347": 10288, "etween": 10289, "tString": 10290, "\u2581Look": 10291, "istence": 10292, "sible": 10293, "\u8bc1\u5b9e": 10294, "\u2581Amazon": 10295, "\u8f66\u578b": 10296, "\u2581printf": 10297, "Flow": 10298, "\u2581Apple": 10299, "servation": 10300, "\u2581pri": 10301, "Iterator": 10302, "\u5783\u573e": 10303, "\u673a\u7684": 10304, "\u72ec\u7279": 10305, ".\u00b7": 10306, "irmed": 10307, "\u2581instructions": 10308, "\u5171\u6709": 10309, "pts": 10310, "\u91c7\u8bbf": 10311, "\u2581detect": 10312, "\u2581Lake": 10313, "\u90ae\u7bb1": 10314, "\u2581conven": 10315, "\u7c7b\u4f3c": 10316, "\u2581ignore": 10317, "\u2581Does": 10318, "\u2581Tem": 10319, "nament": 10320, "\u2581mixed": 10321, "\u2581resolution": 10322, "\u2581Register": 10323, "\u82f9\u679c": 10324, "lisher": 10325, "\u2581Tim": 10326, "Feature": 10327, "YPE": 10328, "Win": 10329, "padding": 10330, "dart": 10331, "\u5de5\u4f5c\u4eba\u5458": 10332, "\u57fa\u5c42": 10333, "\u2581meta": 10334, "\u2581CR": 10335, ")),": 10336, "\u2581Which": 10337, "orders": 10338, "\u63a5\u53e3": 10339, "\u4e66\u7c4d\u7684": 10340, "nUn": 10341, "ifdef": 10342, "\u2581motor": 10343, "\u2581tested": 10344, "\u2581shell": 10345, "\u2581detailed": 10346, "initions": 10347, "\u2581Var": 10348, "\u2581pa": 10349, "\u2581bag": 10350, "asp": 10351, "Progress": 10352, "\u2581television": 10353, "parameter": 10354, "\u4fdd\u5065": 10355, "emy": 10356, "develop": 10357, "\u7684\u540c\u65f6": 10358, ">:": 10359, "\u2581female": 10360, "\u2581Manager": 10361, "\u5e7f\u897f": 10362, "Effect": 10363, "door": 10364, "\u2581cart": 10365, "hab": 10366, "\u8054\u7cfb\u65b9\u5f0f": 10367, "lymp": 10368, "\u70ed\u60c5": 10369, "Kind": 10370, "unte": 10371, "\u7535\u5668": 10372, "fold": 10373, "\u2581rect": 10374, "amin": 10375, "\u5b9e\u5728": 10376, "World": 10377, "\u3002\u3002": 10378, "\u2581\u4e2a\u4eba": 10379, "\u2581chemical": 10380, "\u2581cold": 10381, "\u2581hundred": 10382, "Na": 10383, "omy": 10384, "feed": 10385, "icode": 10386, "\u5c31\u8981": 10387, "UPAC": 10388, "\u2581organizations": 10389, "\u6392\u540d": 10390, "\u7684\u539f\u56e0": 10391, "attributes": 10392, "\u2581wind": 10393, "\u2581\u4ece": 10394, "\u2581duration": 10395, "\u2581Sie": 10396, "\u2581Resource": 10397, "\u7684\u524d": 10398, "\u9a8c\u8bc1": 10399, "\u2581joint": 10400, "frastructure": 10401, "INCL": 10402, "\u2581Bit": 10403, "\u529b\u5ea6": 10404, "\u661f\u671f": 10405, "chart": 10406, "assign": 10407, "\u662f\u6211": 10408, "\u5bb6\u5c45": 10409, "\u6c5f\u897f": 10410, "\u2581ended": 10411, "\u3002\u201d": 10412, "\u2581merg": 10413, "\u6c42\u804c": 10414, "Pointer": 10415, "\u5931\u8d25": 10416, "\u4fe1\u7528": 10417, "\u8003\u6838": 10418, "ido": 10419, "obs": 10420, "\u2581ens": 10421, "]+": 10422, "\u2581Simple": 10423, "\u2581windows": 10424, "\u515a\u59d4": 10425, "\u2581communities": 10426, "\u2581$_": 10427, "\u89c4\u683c": 10428, "\u2581\u6211\u4eec": 10429, "\u2581thoughts": 10430, "attery": 10431, "\u4ed6\u8bf4": 10432, "validation": 10433, "\u2581laws": 10434, "\u2581Problem": 10435, "\u2581Director": 10436, "iot": 10437, "\u2581purs": 10438, "tself": 10439, "Note": 10440, "\u2581explain": 10441, "\u2581Tur": 10442, "\u2581Remove": 10443, "strip": 10444, "Required": 10445, "kr": 10446, "\u611f\u60c5": 10447, "Find": 10448, "\u2581articles": 10449, "\u597d\u4e86": 10450, "Comm": 10451, "\u2581Its": 10452, "folder": 10453, "\u2581wouldn": 10454, "\u2581wire": 10455, "\u2581essay": 10456, "Google": 10457, "\u043b\u0430": 10458, "\u4e9a\u6d32": 10459, "\u53d8\u5f97": 10460, "\u2581guy": 10461, "}>\\": 10462, "\u7528\u6237\u5bf9\u4e66\u7c4d\u7684": 10463, "\u2581surpr": 10464, "\u79f0\u4e3a": 10465, "\u514d\u8d23\u58f0\u660e": 10466, "\u2581Core": 10467, "PN": 10468, "Sort": 10469, "Folder": 10470, "\u2581coach": 10471, "After": 10472, "oul": 10473, "\u2581ideal": 10474, "\u660e\u767d": 10475, "\u7ba1\u7406\u5458": 10476, "\u2581mit": 10477, "grees": 10478, "=\\\"_": 10479, "\u2581recorded": 10480, "\u2581logic": 10481, "tprint": 10482, "lig": 10483, "ickets": 10484, "\u2581billion": 10485, "\u8001\u4eba": 10486, "ships": 10487, ":#": 10488, "tar": 10489, "Sm": 10490, "\u2581\u6df1\u5733": 10491, "\u2581Committee": 10492, "\u2581whatever": 10493, "\u4e2d\u534e\u4eba\u6c11\u5171\u548c\u56fd": 10494, "\u2581CL": 10495, "\u8db3\u7403": 10496, "\u2581rare": 10497, "\u2581exchange": 10498, "\u5ba2\u670d": 10499, "LOCK": 10500, "\u2581dependencies": 10501, "\u2581\u7f16\u8f91": 10502, "\u2581blocks": 10503, "done": 10504, "\u2581\\\"\\\";\\": 10505, "CHAR": 10506, "\u2581influence": 10507, "Statement": 10508, "\u2581wave": 10509, "\u89c2\u4f17": 10510, "\u2581];\\": 10511, "dm": 10512, "\u2581Smith": 10513, "\u2581sweet": 10514, "ribute": 10515, "eler": 10516, "\u8ffd\u7a76": 10517, "~\\\\": 10518, "\u5373\u5c06": 10519, "\u2581TABLE": 10520, "pk": 10521, "spect": 10522, "neg": 10523, "\u2581Full": 10524, "\u2581fs": 10525, "eh": 10526, "\u2581honest": 10527, "Area": 10528, "\u88c5\u5907": 10529, "\u2581docker": 10530, "\u2581identified": 10531, "tend": 10532, "\u4f17\u591a": 10533, "\u2581\u53ef": 10534, "atics": 10535, "UND": 10536, "\u2581proof": 10537, "apes": 10538, "iate": 10539, "egration": 10540, "ONG": 10541, "\u2581Grand": 10542, "\u6863\u6848": 10543, "\u2581\\\\<": 10544, "\u2581operating": 10545, "\u4e2a\u6027": 10546, "TEXT": 10547, "groups": 10548, "forward": 10549, "\u2581Community": 10550, "\u2581plays": 10551, "\u2581prepared": 10552, "\u63d0\u4f9b\u4e86": 10553, "\u2581\u5916": 10554, "\u2581raised": 10555, "\u2581Property": 10556, ",.": 10557, "Cred": 10558, "\u8868\u9762": 10559, "\u2581reduced": 10560, "\u2581helping": 10561, "\u2581Op": 10562, "\u2581\u5185": 10563, "\u2581Account": 10564, "\u2581(`": 10565, "ih": 10566, "jar": 10567, "\u2581correctly": 10568, "aine": 10569, "\u2581sea": 10570, "sequence": 10571, "\u2581mostly": 10572, "\u2581brief": 10573, "\u2581\u5bf9": 10574, "\u2581\u6700\u65b0": 10575, "\u2581administr": 10576, "\u2581lived": 10577, "icago": 10578, "\u5382\u5bb6": 10579, "redients": 10580, "\u2581migr": 10581, "\u2581majority": 10582, "\u2581Json": 10583, "\u2581luck": 10584, "\u2581About": 10585, "Detail": 10586, "alo": 10587, "\u2581perspective": 10588, "\u2581Double": 10589, "\u7f57\u65af": 10590, "\u2581weak": 10591, "\u8003\u5bdf": 10592, "\u2581tips": 10593, "\u7b14\u8bb0": 10594, "\u7f51\u9875": 10595, "\u2581prim": 10596, "\u2581nuc": 10597, "\u2581nullptr": 10598, "\u2581assist": 10599, "\u2581destination": 10600, "\u2581instant": 10601, "\u2581Unit": 10602, "\u8d85\u7ea7": 10603, "\u2581\u957f": 10604, "Orig": 10605, "\u2581?\\": 10606, "\u2581ring": 10607, "istan": 10608, "\u4e8b\u9879": 10609, "outes": 10610, "\u72af\u7f6a": 10611, "izable": 10612, "nergy": 10613, "\u2581resulting": 10614, "\u2581technical": 10615, "\u2581Israel": 10616, "\u2581advance": 10617, "Depend": 10618, "\u77e5\u540d": 10619, "\u2581Organ": 10620, "\u2581rad": 10621, "\u91d1\u989d": 10622, "=\\\"\\\"": 10623, "rooms": 10624, "\u5851\u6599": 10625, "\u7814\u7a76\u751f": 10626, "\u2581disabled": 10627, "tensor": 10628, "\u4e00\u81f4": 10629, "REE": 10630, "\u2581Wil": 10631, "\u2581experienced": 10632, "utors": 10633, "Resources": 10634, "wt": 10635, "\u513f\u5b50": 10636, "\u2581{};\\": 10637, "\u2581calculate": 10638, "Pe": 10639, "bus": 10640, "\u2581styles": 10641, "\u2581conn": 10642, "Uri": 10643, "\u2581contents": 10644, "\u2581Py": 10645, "\u5408\u7406\u7684": 10646, "wp": 10647, "nAd": 10648, "getElementById": 10649, "share": 10650, "\u8857\u9053": 10651, "\u7535\u6c60": 10652, "\u5728\u4e2d\u56fd": 10653, "owner": 10654, "\u8bc4\u4f30": 10655, "\u2581Robert": 10656, "\u2581agreement": 10657, "\u5e76\u6ca1\u6709": 10658, "coin": 10659, "\u6709\u6743": 10660, "\u535a\u58eb": 10661, "\u5bfb\u627e": 10662, "aux": 10663, "you": 10664, "\u2581\u6d4f\u89c8": 10665, "repository": 10666, "\u2581Women": 10667, "}\\\"\\": 10668, "\u2581Hill": 10669, "\u515a\u7684": 10670, "\u547c\u5438": 10671, "\u2581bought": 10672, "\u6211\u4e0d": 10673, "\u2581clearly": 10674, "\u4e0a\u7f51": 10675, "\u2581offering": 10676, "tlog": 10677, "\u2581focused": 10678, "\u672c\u7f51\u6ce8\u660e": 10679, "RA": 10680, "\u2581appeared": 10681, "\u4ea7\u6743": 10682, "\u6267\u6cd5": 10683, "\u2581combined": 10684, "\u2581\u8bc4\u8bba": 10685, "\u6536\u96c6": 10686, "factory": 10687, "\u2581promote": 10688, "\u63d0\u4f9b\u7684": 10689, "Rate": 10690, "\u2581Tre": 10691, "\u60c5\u7eea": 10692, "\u2581Box": 10693, "]:\\": 10694, "nNew": 10695, "\u2581\\\"${": 10696, "cheduled": 10697, "\u2581Russian": 10698, "\u7b49\u5f85": 10699, "\u2581pand": 10700, "etc": 10701, "ademy": 10702, "\u2581sounds": 10703, "\u2581factory": 10704, "\u65b0\u95fb\u7f51": 10705, "ainment": 10706, "\u8c03\u7814": 10707, "\u6d88\u9632": 10708, "\u2581Pos": 10709, "\u7ed3\u5a5a": 10710, "assertEquals": 10711, "gov": 10712, "uis": 10713, "\u2581\u5df2": 10714, "\u5c24\u5176\u662f": 10715, "\u5f15\u5bfc": 10716, "\u673a\u573a": 10717, "\u5f3a\u5316": 10718, "GS": 10719, "\u2581jump": 10720, "los": 10721, "pag": 10722, "\u2581buck": 10723, "[-": 10724, "\u2581registered": 10725, "\u2581Germany": 10726, "\u2581\u62db\u8058": 10727, "\u8d2f\u5f7b": 10728, "\u2581spring": 10729, "\u2581formed": 10730, "rece": 10731, "\u2581Therefore": 10732, "\u2581Size": 10733, "\u2581Would": 10734, "convert": 10735, "\u9762\u4e34": 10736, "nlet": 10737, "\u2581trail": 10738, "\u56fa\u5b9a": 10739, "\u2581Print": 10740, "itness": 10741, "norm": 10742, "ician": 10743, "\u51fa\u79df": 10744, "\u635f\u5931": 10745, "\u5f88\u96be": 10746, "\u2581compute": 10747, "\u2581Mass": 10748, "\u2581differences": 10749, "agraph": 10750, "netic": 10751, "\u2581Special": 10752, "ogen": 10753, "\u2581ice": 10754, "\u2581repe": 10755, "\u2581Head": 10756, "\u2581lat": 10757, "\u2581spin": 10758, "Framework": 10759, "\u2581reality": 10760, "\u2581behavi": 10761, "lar": 10762, "\u2581Comput": 10763, "\u8c03\u8282": 10764, "nThese": 10765, "\u2581Frank": 10766, "\u8bcd\u8bed": 10767, "Day": 10768, "\u2581prepar": 10769, "\u5ba1\u6838": 10770, "sha": 10771, "Power": 10772, "\u2581Abstract": 10773, "\u2581\u5355": 10774, "\u90a3\u91cc": 10775, "shift": 10776, "\u8282\u80fd": 10777, "\u5e02\u59d4": 10778, "Modal": 10779, "\u2581neighbor": 10780, "ICP": 10781, "Video": 10782, "aught": 10783, "\u884c\u60c5": 10784, "\u6f02\u4eae": 10785, "ALSE": 10786, "\u2581Linux": 10787, "\u8212\u9002": 10788, "license": 10789, "\u2581numerous": 10790, "iture": 10791, "\u591a\u4e86": 10792, "acks": 10793, "\u2581Government": 10794, "\u53d1\u52a8": 10795, "\u516c\u4ea4": 10796, "\u2581prepare": 10797, "\u5b66\u751f\u7684": 10798, "\u2581compre": 10799, "'])": 10800, "\u2581socket": 10801, "\u2581assume": 10802, "\u2581enhance": 10803, "\u2581bill": 10804, "decode": 10805, "\u2581tun": 10806, "\u2581\u6b63": 10807, "\u2581\u56fd": 10808, "\u2581bits": 10809, "\u2581extended": 10810, "wiki": 10811, "\u2581videos": 10812, "\u5168\u7701": 10813, "\u7b56\u7565": 10814, "\u2581\u2460": 10815, "\u2581leaders": 10816, "\u2581IMP": 10817, "mk": 10818, "\u2581IOException": 10819, "\u2581leaving": 10820, "\u2581advanced": 10821, "\u2581\u5176\u4ed6": 10822, "\u2581street": 10823, "\u2581willing": 10824, "\u2581Mel": 10825, "deploy": 10826, "MET": 10827, "\u5236\u54c1": 10828, "\u2581copies": 10829, "\u2581\u65f6\u95f4": 10830, "aks": 10831, "\u2581USE": 10832, "\u2581despite": 10833, "untu": 10834, "Pop": 10835, "\u2581warning": 10836, "optional": 10837, "\u043a\u0430": 10838, "\u653b\u51fb": 10839, "\u2581brother": 10840, "\u2581Democr": 10841, "\u2581Tor": 10842, "pb": 10843, "\u5c81\u7684": 10844, "\u2581federal": 10845, "onymous": 10846, "simple": 10847, "yes": 10848, "\u2581mm": 10849, "\u610f\u5473\u7740": 10850, ">\\\"": 10851, "cluded": 10852, "\u4e8b\u52a1": 10853, "provider": 10854, "NUM": 10855, "\u2581DO": 10856, ">`": 10857, "([\\": 10858, "\u0435\u0440": 10859, "\u2581alpha": 10860, "uent": 10861, "contrib": 10862, "\u2581Society": 10863, "itionally": 10864, "\u2581choices": 10865, "\u2581pas": 10866, "\u4ff1\u4e50": 10867, "RIGHT": 10868, "\u2581Illuminate": 10869, "isco": 10870, "Mar": 10871, "alian": 10872, "\u2581minute": 10873, "\u672c\u79d1": 10874, "rical": 10875, "\u2581Dig": 10876, "\u2581Carol": 10877, "cean": 10878, "\u2581govern": 10879, "\u2581>>>": 10880, "\u2581Where": 10881, "\u2581Library": 10882, "\u53a6\u95e8": 10883, "\u2581loaded": 10884, "\u307e\u3059": 10885, "\u2581BE": 10886, "\u53d1\u884c": 10887, "terns": 10888, "riority": 10889, "\u2581typically": 10890, "\u2581cultural": 10891, "\u2581seg": 10892, "\u2581burn": 10893, "Public": 10894, "\u5b9a\u4f4d": 10895, "\u2581depends": 10896, "\u2581modified": 10897, "ctr": 10898, "burg": 10899, "Security": 10900, "learn": 10901, "\u4ff1\u4e50\u90e8": 10902, "\u8001\u677f": 10903, "\u2581Non": 10904, "\u2581Commun": 10905, "ez": 10906, "Big": 10907, "\u6211\u8981": 10908, "\u4e00\u4f53": 10909, "SV": 10910, "].\\": 10911, "\u5e74\u7ea7": 10912, "\u9a6c\u4e0a": 10913, "\u8457\u540d": 10914, "\u662f\u6307": 10915, "\u5408\u683c": 10916, "\u8272\u5f69": 10917, "\u8bd5\u9a8c": 10918, "\u2581parties": 10919, "\u2581mur": 10920, "DEFAULT": 10921, "\u2581exercise": 10922, "\u2581Dev": 10923, "\u2581Bur": 10924, "ECK": 10925, "uting": 10926, "\u2581rev": 10927, "\u5c31\u5728": 10928, "\u96c6\u4f53": 10929, "\u2581Ze": 10930, "partial": 10931, "checked": 10932, "\u767e\u59d3": 10933, "life": 10934, "\u2581\u56fe\u7247": 10935, "\u2581filled": 10936, "\u2581inputs": 10937, "Sw": 10938, "\u2581\uffe5": 10939, "\u2581ran": 10940, "\u9ad8\u4e2d": 10941, "\u53d1\u7684": 10942, "\u7acb\u573a": 10943, "peg": 10944, "\u2581protocol": 10945, "\u2581stick": 10946, "\u2581',": 10947, "\u2581\u0627\u0644": 10948, "\u2581chunk": 10949, "namespace": 10950, "\u5b66\u672f": 10951, "}}$": 10952, "\u2581civil": 10953, "\u96be\u4ee5": 10954, "\u7cfb\u7edf\u7684": 10955, "serial": 10956, "\u2581dynam": 10957, "\u2581Pet": 10958, "\u5fc3\u60c5": 10959, "\u2581sig": 10960, "\u2581patch": 10961, "\u2581prefer": 10962, "\u57ce\u533a": 10963, "wa": 10964, "\u2581becoming": 10965, "\u2581considering": 10966, "\u968f\u65f6": 10967, "\u2581trial": 10968, "\u57fa\u4e8e": 10969, "\u5404\u4e2a": 10970, "\u5370\u5ea6": 10971, "pid": 10972, "Registry": 10973, "tim": 10974, "\u2581audience": 10975, "umes": 10976, "\u2581Roman": 10977, "Flag": 10978, "************": 10979, "\u8bda\u4fe1": 10980, "\u2581KEY": 10981, "\u2581\u60a8\u7684": 10982, "yml": 10983,
[...]
