{"vocab":{"<|endoftext|>": 0,
"!": 1,
"\"": 2,
"#": 3,
"$": 4,
"%": 5,
"&": 6,
"'": 7,
"(": 8,
")": 9,
"*": 10,
"+": 11,
",": 12,
"-": 13,
".": 14,
"/": 15,
"0": 16,
"1": 17,
"2": 18,
"3": 19,
"4": 20,
"5": 21,
"6": 22,
"7": 23,
"8": 24,
"9": 25,
":": 26,
";": 27,
"<": 28,
"=": 29,
">": 30,
"?": 31,
"A": 32,
"B": 33,
"C": 34,
"D": 35,
"E": 36,
"F": 37,
"G": 38,
"H": 39,
"I": 40,
"J": 41,
"K": 42,
"L": 43,
"M": 44,
"N": 45,
"O": 46,
"P": 47,
"Q": 48,
"R": 49,
"S": 50,
"T": 51,
"U": 52,
"V": 53,
"W": 54,
"X": 55,
"Y": 56,
"Z": 57,
"a": 58,
"b": 59,
"c": 60,
"d": 61,
"e": 62,
"f": 63,
"g": 64,
"h": 65,
"i": 66,
"j": 67,
"k": 68,
"l": 69,
"m": 70,
"n": 71,
"o": 72,
"p": 73,
"q": 74,
"r": 75,
"s": 76,
"t": 77,
"u": 78,
"v": 79,
"w": 80,
"x": 81,
"y": 82,
"z": 83,
"{": 84,
"|": 85,
"}": 86,
"Ġ": 87,
"Ġt": 88,
"he": 89,
"Ġa": 90,
"Ġs": 91,
"nd": 92,
"Ġw": 93,
"Ġthe": 94,
"ed": 95,
"Ġb": 96,
"Ġto": 97,
"Ġand": 98,
"Ġh": 99,
"Ġf": 100,
"in": 101,
"ĠT": 102,
"Ġwa": 103,
"re": 104,
"it": 105,
"ou": 106,
"Ġl": 107,
"Ġd": 108,
"Ġc": 109,
"Ġp": 110,
"ay": 111,
"Ġm": 112,
"er": 113,
"Ġwas": 114,
"om": 115,
"ĠThe": 116,
"Ġhe": 117,
"is": 118,
"ar": 119,
"Ġn": 120,
"im": 121,
"on": 122,
"Ġsa": 123,
"id": 124,
"ll": 125,
"Ġha": 126,
"Ġg": 127,
"at": 128,
"ĠS": 129,
"ing": 130,
"ot": 131,
"en": 132,
"an": 133,
"le": 134,
"or": 135,
"end": 136,
"ir": 137,
"of": 138,
"am": 139,
"et": 140,
"ĠH": 141,
"Ġit": 142,
"Ġth": 143,
"ig": 144,
"ĠThey": 145,
"Ġin": 146,
"il": 147,
"Ġpl": 148,
"ĠHe": 149,
"Ġ\"": 150,
"ow": 151,
"ver": 152,
"ri": 153,
"ut": 154,
"Ġbe": 155,
"Ġu": 156,
"Ġsaid": 157,
"Ġplay": 158,
"ith": 159,
"Ġday": 160,
"Ġwith": 161,
"pp": 162,
"On": 163,
"Ġy": 164,
"oo": 165,
"ked": 166,
"Ġr": 167,
"Ġher": 168,
"ex": 169,
"ce": 170,
"ĠI": 171,
"ĠShe": 172,
"ld": 173,
"ĠTim": 174,
"Ġhis": 175,
"Ġst": 176,
"ke": 177,
"Ġbig": 178,
"nt": 179,
"ck": 180,
"Ġyou": 181,
"very": 182,
"st": 183,
"ve": 184,
"Ġon": 185,
"un": 186,
"Ġhapp": 187,
"riend": 188,
"Ġfriend": 189,
"all": 190,
"ily": 191,
"ext": 192,
"ĠL": 193,
"Ġthey": 194,
"oft": 195,
"Ġwe": 196,
"Ġhad": 197,
"Ġnot": 198,
"Ġli": 199,
"Ġup": 200,
"her": 201,
"Ġwant": 202,
"Ġof": 203,
"ad": 204,
"itt": 205,
"<|": 206,
"|>": 207,
"se": 208,
"ĠB": 209,
"Ġdo": 210,
"Ġe": 211,
"Ġhappy": 212,
"ent": 213,
"Ġvery": 214,
"ĠM": 215,
"es": 216,
"Ġthat": 217,
"Ġsaw": 218,
"One": 219,
"'s": 220,
"ould": 221,
"Ġmom": 222,
"Ġfor": 223,
"Ġsh": 224,
"ittle": 225,
"Ġlittle": 226,
"Ġshe": 227,
"ch": 228,
"ime": 229,
"Ġnam": 230,
".\"": 231,
"Ġtime": 232,
"Ġk": 233,
"ound": 234,
"Ġso": 235,
"Ġthere": 236,
"Ġnamed": 237,
"Ġsm": 238,
"Ġbo": 239,
"Ġwere": 240,
"ĠLily": 241,
"Ġne": 242,
"Ġwanted": 243,
"Ġbut": 244,
"out": 245,
"The": 246,
"Ġfriends": 247,
"ved": 248,
"!\"": 249,
"ht": 250,
"ĠTom": 251,
"ird": 252,
"el": 253,
"Ġbird": 254,
"al": 255,
"Ġan": 256,
"ake": 257,
"Ġtoo": 258,
"ome": 259,
"ĠIt": 260,
"ug": 261,
"ide": 262,
"Ġwent": 263,
"Ġwh": 264,
"Ġhel": 265,
"Once": 266,
"Ġis": 267,
"Ġall": 268,
"Ġhelp": 269,
"ue": 270,
"Ġloo": 271,
"Ġlo": 272,
"ter": 273,
"ĠA": 274,
"Ġupon": 275,
"ry": 276,
"ore": 277,
"ind": 278,
"Ġfun": 279,
"get": 280,
"Ġtoy": 281,
"ill": 282,
"ame": 283,
"Ġas": 284,
"Ġat": 285,
"ra": 286,
"Ġj": 287,
"Ġdid": 288,
"gether": 289,
"Ġre": 290,
"ur": 291,
"Ġo": 292,
"Ġse": 293,
"Ġtogether": 294,
"ack": 295,
"Ġcat": 296,
"ly": 297,
"Ġtre": 298,
"ood": 299,
"ic": 300,
"ted": 301,
"Ġdog": 302,
"Ġcould": 303,
"Ġcan": 304,
"Ġtheir": 305,
"ard": 306,
"ec": 307,
"ark": 308,
"Ġgir": 309,
"Ġplayed": 310,
"Ġhim": 311,
"Ġball": 312,
"?\"": 313,
"Ġgirl": 314,
"Ġro": 315,
"way": 316,
"Ġgo": 317,
"hed": 318,
"my": 319,
"Ġare": 320,
"Ġout": 321,
"Ġle": 322,
"Ġfr": 323,
"ain": 324,
"Ġkn": 325,
"hen": 326,
"Ġthem": 327,
"um": 328,
"'t": 329,
"ax": 330,
"Ġsad": 331,
"ul": 332,
"Ġboy": 333,
"Ġtree": 334,
"other": 335,
"Ġhave": 336,
"Ġman": 337,
"Ġcl": 338,
"Ġloved": 339,
"Ġlooked": 340,
"oug": 341,
"Ġfound": 342,
"Ġsp": 343,
"Ġstar": 344,
"ĠSue": 345,
"one": 346,
"hing": 347,
"Ġsc": 348,
"Ġback": 349,
"own": 350,
"ĠMax": 351,
"are": 352,
"Ġlike": 353,
"ful": 354,
"side": 355,
"Ġme": 356,
"Ġbec": 357,
"Ġpark": 358,
"ight": 359,
"ong": 360,
"Ġcar": 361,
"op": 362,
"elt": 363,
"ĠOne": 364,
"Ġliked": 365,
"Ġwould": 366,
"Ġmake": 367,
"round": 368,
"Ġla": 369,
"Ġfa": 370,
"Ġfelt": 371,
"You": 372,
"ĠW": 373,
"ell": 374,
"Ġsee": 375,
"ĠBut": 376,
"omet": 377,
"Ġasked": 378,
"ag": 379,
"Ġnew": 380,
"Ġno": 381,
"ice": 382,
"ĠSam": 383,
"ouse": 384,
"Ġstarted": 385,
"ared": 386,
"Ġcame": 387,
"ĠBen": 388,
"Ġal": 389,
"Ġother": 390,
"ought": 391,
"iled": 392,
"Ġsomet": 393,
"Ġag": 394,
"Ġgood": 395,
"Ġsmall": 396,
"ss": 397,
"Ġbr": 398,
"Ġsmiled": 399,
"Ġsay": 400,
"ried": 401,
"ade": 402,
"ings": 403,
"ob": 404,
"pot": 405,
"Ġwor": 406,
"Ġfind": 407,
"ia": 408,
"Ġaway": 409,
"ty": 410,
"Ġput": 411,
"Ġex": 412,
"Ġwhat": 413,
"Ġsomething": 414,
"Ġfrom": 415,
"Ġmade": 416,
"Ġthought": 417,
"ened": 418,
"Ġhome": 419,
"Ġplaying": 420,
"Ġco": 421,
"ook": 422,
"Ġevery": 423,
"Ġwal": 424,
"Ġmu": 425,
"uc": 426,
"ach": 427,
"arn": 428,
"ĠSpot": 429,
"Ġran": 430,
"ile": 431,
"ĠF": 432,
"ie": 433,
"ĠJ": 434,
"ave": 435,
"Ġagain": 436,
"Ġsome": 437,
"Ġlaug": 438,
"dd": 439,
"Ġhouse": 440,
"Ġdown": 441,
"Ġfl": 442,
"king": 443,
"Ġtook": 444,
"Ġscared": 445,
"Ġpr": 446,
"ny": 447,
"ure": 448,
"Ġtoys": 449,
"Ġlearn": 450,
"ĠYou": 451,
"if": 452,
"Ġwill": 453,
"Ġbox": 454,
"ick": 455,
"ret": 456,
"ab": 457,
"ep": 458,
"Ġmy": 459,
"Ġaround": 460,
"Ġthings": 461,
"Ġyour": 462,
"oud": 463,
"Ġbl": 464,
"uck": 465,
"Ġwhen": 466,
"ish": 467,
"Ġlived": 468,
"Ġfe": 469,
"Ġthen": 470,
"Ġsun": 471,
"as": 472,
"Ġsw": 473,
",\"": 474,
"Ġch": 475,
"us": 476,
"pped": 477,
"Ġab": 478,
"ĠMia": 479,
"ank": 480,
"Ġget": 481,
"ucy": 482,
"Tim": 483,
"ump": 484,
"Th": 485,
"Ġlot": 486,
"ist": 487,
"oth": 488,
"Ġtried": 489,
"ap": 490,
"Ġknow": 491,
"Ġsays": 492,
"Ġgot": 493,
"ited": 494,
"Ġwho": 495,
"Ġkne": 496,
"ust": 497,
"Ġmany": 498,
"nder": 499,
"Ġint": 500,
"Ġabout": 501,
"Lily": 502,
"Ġpret": 503,
"Ġdec": 504,
"Ġany": 505,
"Ġred": 506,
"ĠD": 507,
"ive": 508,
"Ġknew": 509,
"ace": 510,
"ous": 511,
"Ġmore": 512,
"ise": 513,
"Ġv": 514,
"Ġcare": 515,
"ally": 516,
"Ġpic": 517,
"au": 518,
"qu": 519,
"Ġhug": 520,
"ĠLucy": 521,
"Ġlearned": 522,
"Ġpo": 523,
"Ġwater": 524,
"fter": 525,
"Ġbecame": 526,
"Ġbest": 527,
"ause": 528,
"Ġop": 529,
"Ġgre": 530,
"Ġexc": 531,
"urp": 532,
"ways": 533,
"âĢ": 534,
"Ġoutside": 535,
"Ġlaughed": 536,
"Ġlook": 537,
"Ġalways": 538,
"Ġdecid": 539,
"Ġshow": 540,
"Ġun": 541,
"ant": 542,
"ĠBob": 543,
"Ġroom": 544,
"fe": 545,
"Ġdecided": 546,
"Ġho": 547,
"Ġbecause": 548,
"Ġinto": 549,
"ĠSo": 550,
"Ġeat": 551,
"ite": 552,
"Ġjump": 553,
"ĠAnd": 554,
"Ġpe": 555,
"Ġboth": 556,
"ers": 557,
"ĠMom": 558,
"Ġdad": 559,
"They": 560,
"udd": 561,
"Ġke": 562,
"Ġone": 563,
"nn": 564,
"Ġthis": 565,
"Ġexcited": 566,
"Ġfast": 567,
"Ġnice": 568,
"ĠE": 569,
"Ġfeel": 570,
"Tom": 571,
"Yes": 572,
"Ġrun": 573,
"Ġlong": 574,
"Ġtold": 575,
"Ġsk": 576,
"Ġam": 577,
"urpr": 578,
"our": 579,
"Ġinside": 580,
"ull": 581,
"Ġtr": 582,
"Ġsurpr": 583,
"Ġmo": 584,
"ink": 585,
"Ġpretty": 586,
"iny": 587,
"Ġsor": 588,
"Wh": 589,
"Ġtake": 590,
"og": 591,
"Ġsl": 592,
"Ġeach": 593,
"Ġgave": 594,
"Ġmuch": 595,
"Ġgra": 596,
"lew": 597,
"nna": 598,
"Ġrock": 599,
"Ġhow": 600,
"Ġstr": 601,
"ara": 602,
"imal": 603,
"Ġanimal": 604,
"ged": 605,
"Ġneed": 606,
"Ġthan": 607,
"But": 608,
"ven": 609,
"etter": 610,
"Ġtow": 611,
"Ġor": 612,
"ĠC": 613,
"Ġunder": 614,
"ess": 615,
"Ġold": 616,
"Ġsorry": 617,
"ge": 618,
"ised": 619,
"ro": 620,
"urt": 621,
"Ġcle": 622,
"Ġfish": 623,
"Ġwalked": 624,
"Ġclo": 625,
"and": 626,
"Ġbear": 627,
"ase": 628,
"ast": 629,
"Ġhand": 630,
"urn": 631,
"ĠWe": 632,
"Ġkind": 633,
"ĠHis": 634,
"here": 635,
"Ġhappened": 636,
"Ġjust": 637,
"Ġflow": 638,
"Ġfood": 639,
"Ġlist": 640,
"Ġdidn": 641,
"Ġte": 642,
"Ġanimals": 643,
"Ġhig": 644,
"pl": 645,
"Ġnear": 646,
"Ġwat": 647,
"Ġide": 648,
"Ġtry": 649,
"ched": 650,
"Ġsky": 651,
"ine": 652,
"Ġsn": 653,
"ving": 654,
"Ġfi": 655,
"rom": 656,
"Ġus": 657,
"Ġidea": 658,
"Ġbetter": 659,
"ĠAmy": 660,
"Ġbug": 661,
"Ġheard": 662,
"gry": 663,
"Ġits": 664,
"Ġtw": 665,
"Ġlet": 666,
"pec": 667,
"ate": 668,
"able": 669,
"ff": 670,
"Ġen": 671,
"Ġcareful": 672,
"Ġshare": 673,
"Ġif": 674,
"Thank": 675,
"Mom": 676,
"Ġfly": 677,
"Ġstor": 678,
"ial": 679,
"Ġflew": 680,
"more": 681,
"Ġanymore": 682,
"ĠTh": 683,
"Ġspec": 684,
"Ġspecial": 685,
"ion": 686,
"Ġcom": 687,
"Ġlots": 688,
"Ġnever": 689,
"Ġby": 690,
"lf": 691,
"ream": 692,
"Ġdan": 693,
"Ġbu": 694,
"Ġfo": 695,
"Ġwind": 696,
"Ġdon": 697,
"Ġtal": 698,
"Ġclean": 699,
"ort": 700,
"Ġgr": 701,
"Ġlove": 702,
"rm": 703,
"ber": 704,
"Ġend": 705,
"ĠThen": 706,
"ople": 707,
"Ġeven": 708,
"Ġmag": 709,
"Ġhard": 710,
"Ġshiny": 711,
"udden": 712,
"Ġfore": 713,
"Ġover": 714,
"Ġcake": 715,
"ak": 716,
"Ġbook": 717,
"Ġcol": 718,
"Ġturn": 719,
"Ġfam": 720,
"Ġbad": 721,
"Ġsafe": 722,
"Ġafter": 723,
"ady": 724,
"ĠAnna": 725,
"uddenly": 726,
"Ġpeople": 727,
"Ġproud": 728,
"ĠEvery": 729,
"Ġsurprised": 730,
"pected": 731,
"Let": 732,
"Ġhigh": 733,
"Ġcu": 734,
"Ġhurt": 735,
"Ġcome": 736,
"imb": 737,
"arden": 738,
"Ġdoor": 739,
"Ġgarden": 740,
"bb": 741,
"Ġground": 742,
"Ġopened": 743,
"Ġpicked": 744,
"Ġloud": 745,
"Ġclimb": 746,
"expected": 747,
"Ġunexpected": 748,
"Ġgl": 749,
"Ġche": 750,
"ild": 751,
"Ġim": 752,
"As": 753,
"Ġgive": 754,
"Ġway": 755,
"ail": 756,
"'m": 757,
"Ġthanked": 758,
"Ġcolor": 759,
"Ġblue": 760,
"Ġstill": 761,
"Ġever": 762,
"Ġhugged": 763,
"ĠFrom": 764,
"Ġcall": 765,
"Ġfar": 766,
"ip": 767,
"ĠHer": 768,
"ĠSara": 769,
"ĠWhen": 770,
"No": 771,
"Ġoff": 772,
"Ġmagic": 773,
"iz": 774,
"ough": 775,
"age": 776,
"ummy": 777,
"ĠK": 778,
"Ġjumped": 779,
"Ġshould": 780,
"Ġfamily": 781,
"Ġpar": 782,
"ool": 783,
"Ġkid": 784,
"Ġsmile": 785,
"hes": 786,
"uff": 787,
"Ġplace": 788,
"kay": 789,
"Ġwalk": 790,
"Ġnow": 791,
"ct": 792,
"ĠIn": 793,
"Ġgreat": 794,
"em": 795,
"Ġqu": 796,
"les": 797,
"Ġstrong": 798,
"Ġstay": 799,
"Ġunt": 800,
"Ġsto": 801,
"aut": 802,
"Ġforest": 803,
"ture": 804,
"ane": 805,
"Ġbra": 806,
"itty": 807,
"ĠP": 808,
"Ġfrog": 809,
"Ġbro": 810,
"Ġuntil": 811,
"oon": 812,
"Ġbeaut": 813,
"dy": 814,
"Ġsqu": 815,
"Ġstick": 816,
"Ġnext": 817,
"Ġboat": 818,
"lease": 819,
"ning": 820,
"Ġhappily": 821,
"Ġlisten": 822,
"aking": 823,
"Ġkids": 824,
"Ġtra": 825,
"ies": 826,
"iful": 827,
"Ġbeautiful": 828,
}}